{
  "version": "1.0",
  "truncation": null,
  "padding": null,
  "added_tokens": [
    {
      "id": 0,
      "content": "[PAD]",
      "single_word": false,
      "lstrip": false,
      "rstrip": false,
      "normalized": false,
      "special": true
    },
    {
      "id": 1,
      "content": "[UNK]",
      "single_word": false,
      "lstrip": false,
      "rstrip": false,
      "normalized": false,
      "special": true
    },
    {
      "id": 2,
      "content": "[CLS]",
      "single_word": false,
      "lstrip": false,
      "rstrip": false,
      "normalized": false,
      "special": true
    },
    {
      "id": 3,
      "content": "[SEP]",
      "single_word": false,
      "lstrip": false,
      "rstrip": false,
      "normalized": false,
      "special": true
    },
    {
      "id": 4,
      "content": "[MASK]",
      "single_word": false,
      "lstrip": false,
      "rstrip": false,
      "normalized": false,
      "special": true
    }
  ],
  "normalizer": {
    "type": "BertNormalizer",
    "clean_text": true,
    "handle_chinese_chars": true,
    "strip_accents": null,
    "lowercase": true
  },
  "pre_tokenizer": {
    "type": "BertPreTokenizer"
  },
  "post_processor": {
    "type": "TemplateProcessing",
    "single": [
      {
        "SpecialToken": {
          "id": "[CLS]",
          "type_id": 0
        }
      },
      {
        "Sequence": {
          "id": "A",
          "type_id": 0
        }
      },
      {
        "SpecialToken": {
          "id": "[SEP]",
          "type_id": 0
        }
      }
    ],
    "pair": [
      {
        "SpecialToken": {
          "id": "[CLS]",
          "type_id": 0
        }
      },
      {
        "Sequence": {
          "id": "A",
          "type_id": 0
        }
      },
      {
        "SpecialToken": {
          "id": "[SEP]",
          "type_id": 0
        }
      },
      {
        "Sequence": {
          "id": "B",
          "type_id": 1
        }
      },
      {
        "SpecialToken": {
          "id": "[SEP]",
          "type_id": 1
        }
      }
    ],
    "special_tokens": {
      "[CLS]": {
        "id": "[CLS]",
        "ids": [
          2
        ],
        "tokens": [
          "[CLS]"
        ]
      },
      "[SEP]": {
        "id": "[SEP]",
        "ids": [
          3
        ],
        "tokens": [
          "[SEP]"
        ]
      }
    }
  },
  "decoder": {
    "type": "WordPiece",
    "prefix": "##",
    "cleanup": true
  },
  "model": {
    "type": "WordPiece",
    "unk_token": "[UNK]",
    "continuing_subword_prefix": "##",
    "max_input_chars_per_word": 100,
    "vocab": {
      "[PAD]": 0,
      "[UNK]": 1,
      "[CLS]": 2,
      "[SEP]": 3,
      "[MASK]": 4,
      "\"": 5,
      "$": 6,
      "%": 7,
      "&": 8,
      "'": 9,
      "(": 10,
      ")": 11,
      "+": 12,
      ",": 13,
      "0": 14,
      "1": 15,
      "2": 16,
      "3": 17,
      "4": 18,
      "5": 19,
      "6": 20,
      "7": 21,
      "8": 22,
      "9": 23,
      ":": 24,
      ";": 25,
      "<": 26,
      "=": 27,
      ">": 28,
      "?": 29,
      "@": 30,
      "[": 31,
      "\\": 32,
      "]": 33,
      "^": 34,
      "_": 35,
      "`": 36,
      "a": 37,
      "b": 38,
      "c": 39,
      "d": 40,
      "e": 41,
      "f": 42,
      "g": 43,
      "h": 44,
      "i": 45,
      "j": 46,
      "k": 47,
      "l": 48,
      "m": 49,
      "n": 50,
      "o": 51,
      "p": 52,
      "q": 53,
      "r": 54,
      "s": 55,
      "t": 56,
      "u": 57,
      "v": 58,
      "w": 59,
      "x": 60,
      "y": 61,
      "z": 62,
      "{": 63,
      "|": 64,
      "}": 65,
      "~": 66,
      "¡": 67,
      "¢": 68,
      "¦": 69,
      "§": 70,
      "©": 71,
      "«": 72,
      "®": 73,
      "°": 74,
      "±": 75,
      "²": 76,
      "´": 77,
      "·": 78,
      "¹": 79,
      "º": 80,
      "»": 81,
      "¼": 82,
      "½": 83,
      "¾": 84,
      "¿": 85,
      "ð": 86,
      "œ": 87,
      "ƒ": 88,
      "‐": 89,
      "–": 90,
      "—": 91,
      "‘": 92,
      "’": 93,
      "‚": 94,
      "“": 95,
      "”": 96,
      "„": 97,
      "•": 98,
      "…": 99,
      "€": 100,
      "™": 101,
      "➔": 102,
      "、": 103,
      "，": 104,
      "##l": 105,
      "##e": 106,
      "##c": 107,
      "##t": 108,
      "##r": 109,
      "##o": 110,
      "##s": 111,
      "##u": 112,
      "##g": 113,
      "##y": 114,
      "##1": 115,
      "##2": 116,
      "##4": 117,
      "##7": 118,
      "##b": 119,
      "##i": 120,
      "##n": 121,
      "##m": 122,
      "##9": 123,
      "##5": 124,
      "##d": 125,
      "##h": 126,
      "##a": 127,
      "##6": 128,
      "##0": 129,
      "##3": 130,
      "##f": 131,
      "##p": 132,
      "##x": 133,
      "##j": 134,
      "##8": 135,
      "##v": 136,
      "##w": 137,
      "##q": 138,
      "##k": 139,
      "##z": 140,
      "##€": 141,
      "##™": 142,
      "##°": 143,
      "##®": 144,
      "##œ": 145,
      "##ƒ": 146,
      "##º": 147,
      "##©": 148,
      "##´": 149,
      "##½": 150,
      "##¹": 151,
      "##00": 152,
      "##on": 153,
      "##er": 154,
      "##en": 155,
      "##in": 156,
      "##am": 157,
      "##ts": 158,
      "cm": 159,
      "##ed": 160,
      "cmts": 161,
      "##or": 162,
      "##at": 163,
      "##an": 164,
      "##ent": 165,
      "##le": 166,
      "##ion": 167,
      "##ur": 168,
      "##st": 169,
      "##ing": 170,
      "##ct": 171,
      "re": 172,
      "##0000": 173,
      "##ic": 174,
      "qam": 175,
      "##01": 176,
      "##al": 177,
      "##25": 178,
      "ds": 179,
      "##ar": 180,
      "##it": 181,
      "eq": 182,
      "##urr": 183,
      "curr": 184,
      "current": 185,
      "##es": 186,
      "##ation": 187,
      "in": 188,
      "##256": 189,
      "qam256": 190,
      "pg": 191,
      "##si": 192,
      "ne": 193,
      "pr": 194,
      "##ac": 195,
      "eqam": 196,
      "pl": 197,
      "hsi": 198,
      "##nd": 199,
      "##ann": 200,
      "##ect": 201,
      "##lo": 202,
      "##03": 203,
      "##de": 204,
      "##ab": 205,
      "##000000": 206,
      "##ment": 207,
      "plann": 208,
      "planned": 209,
      "##el": 210,
      "new": 211,
      "##02": 212,
      "ns": 213,
      "##ir": 214,
      "##r1": 215,
      "nsg": 216,
      "##om": 217,
      "##r1g": 218,
      "##is": 219,
      "##all": 220,
      "us": 221,
      "##ch": 222,
      "14": 223,
      "##09": 224,
      "con": 225,
      "##ut": 226,
      "ser": 227,
      "##und": 228,
      "##ork": 229,
      "##ig": 230,
      "##vic": 231,
      "15": 232,
      "inst": 233,
      "##as": 234,
      "12": 235,
      "pro": 236,
      "install": 237,
      "##04": 238,
      "cab": 239,
      "##te": 240,
      "59": 241,
      "##ad": 242,
      "no": 243,
      "ro": 244,
      "##il": 245,
      "8r1g": 246,
      "##12": 247,
      "##nt": 248,
      "##pa": 249,
      "po": 250,
      "##16": 251,
      "##05": 252,
      "st": 253,
      "bund": 254,
      "bundle": 255,
      "##iv": 256,
      "##ers": 257,
      "##ge": 258,
      "servic": 259,
      "##ra": 260,
      "te": 261,
      "##ol": 262,
      "cable": 263,
      "##ip": 264,
      "##up": 265,
      "##re": 266,
      "##for": 267,
      "##11": 268,
      "de": 269,
      "16": 270,
      "##ate": 271,
      "##im": 272,
      "##ap": 273,
      "##15": 274,
      "##ff": 275,
      "##ce": 276,
      "up": 277,
      "mt": 278,
      "##ro": 279,
      "ch": 280,
      "ad": 281,
      "##ity": 282,
      "##pl": 283,
      "lo": 284,
      "##20": 285,
      "work": 286,
      "##et": 287,
      "##form": 288,
      "im": 289,
      "pre": 290,
      "##06": 291,
      "service": 292,
      "##96": 293,
      "node": 294,
      "##08": 295,
      "##ib": 296,
      "sit": 297,
      "##ns": 298,
      "##07": 299,
      "##13": 300,
      "##rd": 301,
      "com": 302,
      "##ack": 303,
      "##gment": 304,
      "##ul": 305,
      "100": 306,
      "##ss": 307,
      "eqam00": 308,
      "##ub": 309,
      "cmts2": 310,
      "sw": 311,
      "##us": 312,
      "##ve": 313,
      "##wer": 314,
      "mo": 315,
      "ex": 316,
      "upg": 317,
      "mc": 318,
      "d1": 319,
      "qam16": 320,
      "##lf": 321,
      "##ess": 322,
      "equ": 323,
      "##ort": 324,
      "##ter": 325,
      "##ay": 326,
      "equip": 327,
      "site": 328,
      "591": 329,
      "##ain": 330,
      "add": 331,
      "13": 332,
      "##ran": 333,
      "##qam": 334,
      "ip": 335,
      "##qu": 336,
      "##ard": 337,
      "se": 338,
      "603": 339,
      "##ver": 340,
      "597": 341,
      "##ffect": 342,
      "##tw": 343,
      "17": 344,
      "affect": 345,
      "lte": 346,
      "##ime": 347,
      "fib": 348,
      "mc5": 349,
      "##x20": 350,
      "act": 351,
      "mc5x20": 352,
      "201": 353,
      "##um": 354,
      "equipment": 355,
      "test": 356,
      "##un": 357,
      "##rade": 358,
      "##pair": 359,
      "repair": 360,
      "co": 361,
      "blo": 362,
      "##ine": 363,
      "pt": 364,
      "upgrade": 365,
      "activ": 366,
      "##urn": 367,
      "nb": 368,
      "au": 369,
      "##14": 370,
      "##ist": 371,
      "md": 372,
      "requ": 373,
      "609": 374,
      "##000": 375,
      "inform": 376,
      "25": 377,
      "##ase": 378,
      "to": 379,
      "##21": 380,
      "information": 381,
      "time": 382,
      "10": 383,
      "##enn": 384,
      "##pe": 385,
      "ant": 386,
      "##gw": 387,
      "##co": 388,
      "##pact": 389,
      "sh": 390,
      "impact": 391,
      "##id": 392,
      "##ance": 393,
      "##ten": 394,
      "##gmentation": 395,
      "al": 396,
      "bloor": 397,
      "##mo": 398,
      "pg8": 399,
      "18": 400,
      "ym": 401,
      "antenn": 402,
      "##sc": 403,
      "main": 404,
      "##ile": 405,
      "615": 406,
      "##dle": 407,
      "##art": 408,
      "##vis": 409,
      "eqam01": 410,
      "cmts01": 411,
      "loc": 412,
      "##age": 413,
      "power": 414,
      "##nect": 415,
      "2r1g": 416,
      "wlf": 417,
      "##ust": 418,
      "##th": 419,
      "##low": 420,
      "wlfdle": 421,
      "##if": 422,
      "##and": 423,
      "sub": 424,
      "##ace": 425,
      "##ple": 426,
      "##44": 427,
      "netw": 428,
      "network": 429,
      "mtm": 430,
      "##96000": 431,
      "##ie": 432,
      "rog": 433,
      "##sion": 434,
      "##33": 435,
      "##ark": 436,
      "augmentation": 437,
      "##ck": 438,
      "##ail": 439,
      "##oo": 440,
      "sl": 441,
      "mainten": 442,
      "pg7": 443,
      "fiber": 444,
      "remo": 445,
      "maintenance": 446,
      "##to": 447,
      "##itch": 448,
      "##64": 449,
      "cap": 450,
      "d2": 451,
      "11": 452,
      "rogers": 453,
      "ret": 454,
      "at": 455,
      "chan": 456,
      "##27": 457,
      "##ps": 458,
      "19": 459,
      "repl": 460,
      "##ure": 461,
      "bundle8": 462,
      "##gc": 463,
      "01": 464,
      "d5": 465,
      "installation": 466,
      "591000000": 467,
      "##est": 468,
      "ue": 469,
      "##24": 470,
      "##ling": 471,
      "##ject": 472,
      "kt": 473,
      "##ted": 474,
      "ueqam": 475,
      "cust": 476,
      "##acity": 477,
      "connect": 478,
      "ap": 479,
      "capacity": 480,
      "custom": 481,
      "109": 482,
      "##os": 483,
      "slnt": 484,
      "##ber": 485,
      "conf": 486,
      "603000000": 487,
      "d7": 488,
      "597000000": 489,
      "ktgc": 490,
      "lnd": 491,
      "lndn": 492,
      "##23": 493,
      "he": 494,
      "eqam02": 495,
      "##60": 496,
      "tr": 497,
      "##19": 498,
      "##pt": 499,
      "per": 500,
      "ac": 501,
      "ep": 502,
      "requir": 503,
      "##nk": 504,
      "24": 505,
      "##75": 506,
      "activity": 507,
      "##igr": 508,
      "##cu": 509,
      "migr": 510,
      "mtnk": 511,
      "##ow": 512,
      "cmts02": 513,
      "##18": 514,
      "##end": 515,
      "switch": 516,
      "##sj": 517,
      "return": 518,
      "##ax": 519,
      "en": 520,
      "cont": 521,
      "##mis": 522,
      "##sp": 523,
      "##br": 524,
      "##plic": 525,
      "##ated": 526,
      "##ary": 527,
      "rout": 528,
      "bundle7": 529,
      "##aw": 530,
      "##uct": 531,
      "rele": 532,
      "##nsn": 533,
      "hnsn": 534,
      "fol": 535,
      "##igh": 536,
      "##ations": 537,
      "affecting": 538,
      "##95": 539,
      "##ag": 540,
      "testing": 541,
      "##upt": 542,
      "##mission": 543,
      "##ell": 544,
      "d4": 545,
      "config": 546,
      "609000000": 547,
      "00": 548,
      "release": 549,
      "##10": 550,
      "##cess": 551,
      "replace": 552,
      "##17": 553,
      "##28": 554,
      "follow": 555,
      "mtmc": 556,
      "tra": 557,
      "##26": 558,
      "mc5x20u": 559,
      "project": 560,
      "##are": 561,
      "cut": 562,
      "ho": 563,
      "splic": 564,
      "back": 565,
      "antenna": 566,
      "tran": 567,
      "##ink": 568,
      "cir": 569,
      "devic": 570,
      "so": 571,
      "customer": 572,
      "##com": 573,
      "br": 574,
      "min": 575,
      "##ond": 576,
      "perform": 577,
      "111": 578,
      "##ical": 579,
      "615000000": 580,
      "circu": 581,
      "##ult": 582,
      "services": 583,
      "mw": 584,
      "out": 585,
      "##88": 586,
      "##ial": 587,
      "following": 588,
      "tech": 589,
      "cor": 590,
      "##ick": 591,
      "cn": 592,
      "d8": 593,
      "card": 594,
      "##ue": 595,
      "##file": 596,
      "ty": 597,
      "nct": 598,
      "profile": 599,
      "us8": 600,
      "eqam03": 601,
      "##45": 602,
      "swap": 603,
      "##bs": 604,
      "backup": 605,
      "bundle6": 606,
      "pg6": 607,
      "type": 608,
      "port": 609,
      "cables": 610,
      "##em": 611,
      "addr": 612,
      "comple": 613,
      "##29": 614,
      "load": 615,
      "##annel": 616,
      "mon": 617,
      "##ly": 618,
      "need": 619,
      "tor": 620,
      "##wd": 621,
      "channel": 622,
      "##47": 623,
      "##ast": 624,
      "##ill": 625,
      "23": 626,
      "153": 627,
      "3g": 628,
      "mod": 629,
      "segment": 630,
      "##65": 631,
      "##ach": 632,
      "cmts03": 633,
      "change": 634,
      "##cr": 635,
      "##sh": 636,
      "rd": 637,
      "##uction": 638,
      "31": 639,
      "inter": 640,
      "cl": 641,
      "aj": 642,
      "er": 643,
      "ajax": 644,
      "rack": 645,
      "##ffic": 646,
      "##97": 647,
      "##loc": 648,
      "dupt": 649,
      "621": 650,
      "cmts11": 651,
      "104": 652,
      "affected": 653,
      "##vision": 654,
      "312": 655,
      "exist": 656,
      "##io": 657,
      "##98": 658,
      "iss": 659,
      "gr": 660,
      "le": 661,
      "d6": 662,
      "cabling": 663,
      "existing": 664,
      "101": 665,
      "end": 666,
      "eto": 667,
      "sect": 668,
      "bat": 669,
      "etob": 670,
      "##43": 671,
      "31296000": 672,
      "tac": 673,
      "dark": 674,
      "lab": 675,
      "##oc": 676,
      "mc5x20h": 677,
      "rc": 678,
      "##48": 679,
      "##ies": 680,
      "##ak": 681,
      "id": 682,
      "sy": 683,
      "us7": 684,
      "##ents": 685,
      "dr": 686,
      "advis": 687,
      "##iew": 688,
      "##ive": 689,
      "##orts": 690,
      "exp": 691,
      "non": 692,
      "cmts04": 693,
      "sd": 694,
      "3g60": 695,
      "day": 696,
      "##mt": 697,
      "rr": 698,
      "##38": 699,
      "ipran": 700,
      "d3": 701,
      "##35": 702,
      "traffic": 703,
      "bundle5": 704,
      "device": 705,
      "flf": 706,
      "fa": 707,
      "flfrd": 708,
      "th": 709,
      "##78": 710,
      "##view": 711,
      "num": 712,
      "inc": 713,
      "date": 714,
      "##ms": 715,
      "##ions": 716,
      "146": 717,
      "tower": 718,
      "30": 719,
      "un": 720,
      "label": 721,
      "##ight": 722,
      "##ph": 723,
      "ph": 724,
      "##uration": 725,
      "20": 726,
      "required": 727,
      "##oot": 728,
      "sp": 729,
      "dis": 730,
      "sector": 731,
      "provision": 732,
      "migration": 733,
      "##ide": 734,
      "eqam04": 735,
      "##load": 736,
      "head": 737,
      "252": 738,
      "rf": 739,
      "antennas": 740,
      "nf": 741,
      "part": 742,
      "cmts05": 743,
      "pg00": 744,
      "dat": 745,
      "ueqam13": 746,
      "sup": 747,
      "##nc": 748,
      "##39": 749,
      "tick": 750,
      "number": 751,
      "prep": 752,
      "ports": 753,
      "trans": 754,
      "##its": 755,
      "##46": 756,
      "##ched": 757,
      "grns": 758,
      "att": 759,
      "grnsbr": 760,
      "##ory": 761,
      "##min": 762,
      "circuit": 763,
      "##wo": 764,
      "##tt": 765,
      "batter": 766,
      "##ca": 767,
      "147": 768,
      "##se": 769,
      "ord": 770,
      "##port": 771,
      "##des": 772,
      "gro": 773,
      "remove": 774,
      "attach": 775,
      "pg01": 776,
      "access": 777,
      "cs": 778,
      "##ton": 779,
      "##37": 780,
      "##22": 781,
      "wir": 782,
      "rch": 783,
      "splicing": 784,
      "##ant": 785,
      "rbs": 786,
      "rchrd": 787,
      "##iz": 788,
      "##ia": 789,
      "ticket": 790,
      "pg03": 791,
      "##ific": 792,
      "cmts06": 793,
      "##55": 794,
      "ele": 795,
      "link": 796,
      "bu": 797,
      "dc": 798,
      "outage": 799,
      "upd": 800,
      "##erg": 801,
      "##41": 802,
      "request": 803,
      "ueqam12": 804,
      "##arr": 805,
      "attached": 806,
      "dgw": 807,
      "eric": 808,
      "qam64": 809,
      "##ind": 810,
      "ave": 811,
      "##stem": 812,
      "##ning": 813,
      "##sis": 814,
      "##mit": 815,
      "25296000": 816,
      "##au": 817,
      "em": 818,
      "system": 819,
      "pm": 820,
      "pg5": 821,
      "##gr": 822,
      "##sson": 823,
      "nfsj": 824,
      "us6": 825,
      "ericsson": 826,
      "##able": 827,
      "##ition": 828,
      "##fd": 829,
      "700": 830,
      "##36": 831,
      "start": 832,
      "21": 833,
      "locations": 834,
      "##ee": 835,
      "cle": 836,
      "battery": 837,
      "##ood": 838,
      "##md": 839,
      "serial": 840,
      "fo": 841,
      "sof": 842,
      "decom": 843,
      "05": 844,
      "pwo": 845,
      "149": 846,
      "tro": 847,
      "3rd": 848,
      "hard": 849,
      "##ments": 850,
      "##enc": 851,
      "cmts08": 852,
      "##con": 853,
      "172": 854,
      "cmts07": 855,
      "commission": 856,
      "set": 857,
      "000": 858,
      "##uble": 859,
      "##ale": 860,
      "pg04": 861,
      "imple": 862,
      "##ix": 863,
      "bell": 864,
      "pg02": 865,
      "##50": 866,
      "##c1": 867,
      "##rib": 868,
      "tel": 869,
      "pt05": 870,
      "implement": 871,
      "gl": 872,
      "sa": 873,
      "east": 874,
      "125": 875,
      "ed": 876,
      "trouble": 877,
      "corr": 878,
      "148": 879,
      "pan": 880,
      "sched": 881,
      "cr": 882,
      "##eck": 883,
      "##77": 884,
      "fault": 885,
      "configuration": 886,
      "opt": 887,
      "headend": 888,
      "cmts09": 889,
      "order": 890,
      "##tware": 891,
      "est": 892,
      "bl": 893,
      "145": 894,
      "##42": 895,
      "66": 896,
      "dist": 897,
      "issu": 898,
      "check": 899,
      "##ern": 900,
      "##unt": 901,
      "panel": 902,
      "software": 903,
      "nodes": 904,
      "data": 905,
      "remov": 906,
      "##over": 907,
      "##str": 908,
      "replacement": 909,
      "##isco": 910,
      "chang": 911,
      "dig": 912,
      "001": 913,
      "pt01": 914,
      "##tion": 915,
      "##stk": 916,
      "##49": 917,
      "party": 918,
      "pat": 919,
      "##ution": 920,
      "cmstk": 921,
      "cisco": 922,
      "##ctor": 923,
      "621000000": 924,
      "prod": 925,
      "pg07": 926,
      "2013": 927,
      "doc": 928,
      "bo": 929,
      "##div": 930,
      "cp": 931,
      "##ence": 932,
      "u6": 933,
      "##ild": 934,
      "wind": 935,
      "##pro": 936,
      "minut": 937,
      "26": 938,
      "note": 939,
      "pom": 940,
      "fe": 941,
      "22": 942,
      "##79": 943,
      "review": 944,
      "line": 945,
      "dt": 946,
      "2015": 947,
      "prov": 948,
      "location": 949,
      "correct": 950,
      "mtmk": 951,
      "##ier": 952,
      "res": 953,
      "des": 954,
      "##ason": 955,
      "sites": 956,
      "##rol": 957,
      "##001": 958,
      "cre": 959,
      "##mn": 960,
      "##85": 961,
      "02": 962,
      "elect": 963,
      "shel": 964,
      "op": 965,
      "md8": 966,
      "md7": 967,
      "##vers": 968,
      "16qam": 969,
      "comm": 970,
      "pp": 971,
      "slo": 972,
      "techn": 973,
      "war": 974,
      "##act": 975,
      "##fer": 976,
      "man": 977,
      "cmts12": 978,
      "##66": 979,
      "3md": 980,
      "pb": 981,
      "##ision": 982,
      "col": 983,
      "3us": 984,
      "address": 985,
      "##sm": 986,
      "##crip": 987,
      "reason": 988,
      "##idge": 989,
      "##rad": 990,
      "##ds": 991,
      "minutes": 992,
      "ml": 993,
      "##gs": 994,
      "as": 995,
      "va": 996,
      "##99": 997,
      "pg05": 998,
      "##31": 999,
      "run": 1000,
      "jo": 1001,
      "u5": 1002,
      "##division": 1003,
      "schedul": 1004,
      "alar": 1005,
      "racks": 1006,
      "##34": 1007,
      "##ails": 1008,
      "sco": 1009,
      "ver": 1010,
      "rod": 1011,
      "u7": 1012,
      "ste": 1013,
      "cmts23": 1014,
      "completed": 1015,
      "or": 1016,
      "##lan": 1017,
      "upgrad": 1018,
      "glph": 1019,
      "subdivision": 1020,
      "d9": 1021,
      "a2": 1022,
      "##76": 1023,
      "s2": 1024,
      "vend": 1025,
      "w5": 1026,
      "nbsj": 1027,
      "sdv": 1028,
      "vendor": 1029,
      "##shoot": 1030,
      "av": 1031,
      "cmts22": 1032,
      "md6": 1033,
      "fibre": 1034,
      "build": 1035,
      "rel": 1036,
      "cutover": 1037,
      "advisory": 1038,
      "telus": 1039,
      "us5": 1040,
      "troubleshoot": 1041,
      "west": 1042,
      "##acing": 1043,
      "mp": 1044,
      "##location": 1045,
      "##ign": 1046,
      "distrib": 1047,
      "sc": 1048,
      "toron": 1049,
      "slot": 1050,
      "07": 1051,
      "submit": 1052,
      "mop": 1053,
      "cmts21": 1054,
      "##ener": 1055,
      "glph2": 1056,
      "support": 1057,
      "##ification": 1058,
      "mile": 1059,
      "scheduled": 1060,
      "##ave": 1061,
      "cin": 1062,
      "window": 1063,
      "eqam05": 1064,
      "2012": 1065,
      "hour": 1066,
      "decommission": 1067,
      "preload": 1068,
      "modul": 1069,
      "##vel": 1070,
      "35": 1071,
      "docsis": 1072,
      "##32": 1073,
      "update": 1074,
      "##ici": 1075,
      "##ected": 1076,
      "nbmn": 1077,
      "production": 1078,
      "scope": 1079,
      "red": 1080,
      "submitted": 1081,
      "##ys": 1082,
      "turn": 1083,
      "cmts24": 1084,
      "##ater": 1085,
      "##mp": 1086,
      "la": 1087,
      "cent": 1088,
      "eqam001": 1089,
      "##pos": 1090,
      "road": 1091,
      "ab": 1092,
      "bas": 1093,
      "constr": 1094,
      "pm01": 1095,
      "##87": 1096,
      "toronto": 1097,
      "el": 1098,
      "splice": 1099,
      "##ced": 1100,
      "##ware": 1101,
      "u8": 1102,
      "##me": 1103,
      "loading": 1104,
      "eqam002": 1105,
      "construction": 1106,
      "prepar": 1107,
      "##mts": 1108,
      "md5": 1109,
      "oc": 1110,
      "##ld": 1111,
      "distribution": 1112,
      "warning": 1113,
      "list": 1114,
      "conver": 1115,
      "vo": 1116,
      "pb01": 1117,
      "pomc1": 1118,
      "contra": 1119,
      "##ele": 1120,
      "str": 1121,
      "36": 1122,
      "ring": 1123,
      "tx": 1124,
      "##ating": 1125,
      "changes": 1126,
      "pn": 1127,
      "require": 1128,
      "wd": 1129,
      "clean": 1130,
      "##hz": 1131,
      "38": 1132,
      "server": 1133,
      "2014": 1134,
      "level": 1135,
      "mileage": 1136,
      "pl01": 1137,
      "rein": 1138,
      "eqam003": 1139,
      "wo": 1140,
      "##30": 1141,
      "##86": 1142,
      "provisioning": 1143,
      "tap": 1144,
      "msc": 1145,
      "##unic": 1146,
      "reinfor": 1147,
      "fr": 1148,
      "06": 1149,
      "##ator": 1150,
      "##ille": 1151,
      "rrus": 1152,
      "##74": 1153,
      "ar": 1154,
      "48": 1155,
      "##alth": 1156,
      "##connect": 1157,
      "##awa": 1158,
      "pur": 1159,
      "##unk": 1160,
      "york": 1161,
      "##70": 1162,
      "umts": 1163,
      "health": 1164,
      "hde": 1165,
      "##sport": 1166,
      "hdeqam": 1167,
      "rh": 1168,
      "cop": 1169,
      "are": 1170,
      "c5": 1171,
      "me": 1172,
      "not": 1173,
      "trunk": 1174,
      "contact": 1175,
      "28": 1176,
      "td": 1177,
      "contractor": 1178,
      "##eline": 1179,
      "##ice": 1180,
      "##960": 1181,
      "##ich": 1182,
      "##eld": 1183,
      "rest": 1184,
      "van": 1185,
      "##way": 1186,
      "124": 1187,
      "##ord": 1188,
      "##ved": 1189,
      "##ual": 1190,
      "##bl": 1191,
      "ins": 1192,
      "ont": 1193,
      "29": 1194,
      "c00": 1195,
      "64": 1196,
      "##kt": 1197,
      "band": 1198,
      "preparation": 1199,
      "group": 1200,
      "##ot": 1201,
      "joh": 1202,
      "##vent": 1203,
      "night": 1204,
      "rad": 1205,
      "bay": 1206,
      "transport": 1207,
      "patch": 1208,
      "416": 1209,
      "##tek": 1210,
      "##68": 1211,
      "track": 1212,
      "circuits": 1213,
      "##ens": 1214,
      "69": 1215,
      "112": 1216,
      "communic": 1217,
      "##k1": 1218,
      "##ario": 1219,
      "eqam004": 1220,
      "185": 1221,
      "##pm": 1222,
      "##ec": 1223,
      "63": 1224,
      "aud": 1225,
      "##ville": 1226,
      "##ron": 1227,
      "ueqam128": 1228,
      "dep": 1229,
      "lic": 1230,
      "##ream": 1231,
      "smt": 1232,
      "map": 1233,
      "po01": 1234,
      "routine": 1235,
      "sur": 1236,
      "##40": 1237,
      "2nd": 1238,
      "rfgw": 1239,
      "gsm": 1240,
      "##tn": 1241,
      "reg": 1242,
      "plat": 1243,
      "##ency": 1244,
      "def": 1245,
      "carr": 1246,
      "##002": 1247,
      "und": 1248,
      "##73": 1249,
      "244": 1250,
      "issue": 1251,
      "agw": 1252,
      "removal": 1253,
      "##83": 1254,
      "ca": 1255,
      "ott": 1256,
      "##ting": 1257,
      "e5": 1258,
      "dtv": 1259,
      "##ense": 1260,
      "##ify": 1261,
      "##ore": 1262,
      "converted": 1263,
      "##lu": 1264,
      "pg08": 1265,
      "mtwd": 1266,
      "##own": 1267,
      "##aily": 1268,
      "license": 1269,
      "daily": 1270,
      "ueqam129": 1271,
      "reb": 1272,
      "checks": 1273,
      "##ish": 1274,
      "complete": 1275,
      "##loy": 1276,
      "##ving": 1277,
      "##gh": 1278,
      "migrate": 1279,
      "ontario": 1280,
      "##ied": 1281,
      "sec": 1282,
      "##s1": 1283,
      "##ities": 1284,
      "hw": 1285,
      "w00": 1286,
      "platform": 1287,
      "issues": 1288,
      "94": 1289,
      "area": 1290,
      "wiring": 1291,
      "fosc": 1292,
      "##iver": 1293,
      "eqam005": 1294,
      "##91": 1295,
      "seg": 1296,
      "ass": 1297,
      "##df": 1298,
      "det": 1299,
      "rw": 1300,
      "501": 1301,
      "##ield": 1302,
      "hs": 1303,
      "pos": 1304,
      "##67": 1305,
      "cam": 1306,
      "john": 1307,
      "fw": 1308,
      "for": 1309,
      "##wave": 1310,
      "ran": 1311,
      "##int": 1312,
      "105": 1313,
      "ios": 1314,
      "rnc": 1315,
      "nm": 1316,
      "rru": 1317,
      "ter": 1318,
      "cmts26": 1319,
      "advise": 1320,
      "##ization": 1321,
      "qu": 1322,
      "s1": 1323,
      "##ills": 1324,
      "appro": 1325,
      "val": 1326,
      "fix": 1327,
      "conc": 1328,
      "45": 1329,
      "##ass": 1330,
      "155": 1331,
      "##bc": 1332,
      "##ite": 1333,
      "##94": 1334,
      "##90": 1335,
      "##vey": 1336,
      "wol": 1337,
      "deploy": 1338,
      "##025": 1339,
      "##ection": 1340,
      "facing": 1341,
      "rhp": 1342,
      "gig": 1343,
      "rwi": 1344,
      "devices": 1345,
      "survey": 1346,
      "allow": 1347,
      "apg": 1348,
      "commissioning": 1349,
      "ottawa": 1350,
      "can": 1351,
      "refer": 1352,
      "rfgw10": 1353,
      "fir": 1354,
      "04": 1355,
      "expected": 1356,
      "plan": 1357,
      "park": 1358,
      "customers": 1359,
      "##bo": 1360,
      "bus": 1361,
      "on": 1362,
      "jun": 1363,
      "ipv": 1364,
      "po02": 1365,
      "##orth": 1366,
      "inclu": 1367,
      "##58": 1368,
      "pp02": 1369,
      "cond": 1370,
      "old": 1371,
      "open": 1372,
      "wood": 1373,
      "##uth": 1374,
      "gu": 1375,
      "##ba": 1376,
      "shaw": 1377,
      "##93": 1378,
      "is": 1379,
      "addition": 1380,
      "core": 1381,
      "##ping": 1382,
      "##72": 1383,
      "633": 1384,
      "pt08": 1385,
      "mc5x20s": 1386,
      "phys": 1387,
      "segmentation": 1388,
      "osp": 1389,
      "inser": 1390,
      "##t1": 1391,
      "descrip": 1392,
      "##gsn": 1393,
      "nmkt": 1394,
      "an": 1395,
      "32": 1396,
      "mult": 1397,
      "fin": 1398,
      "##ering": 1399,
      "vide": 1400,
      "proced": 1401,
      "dps": 1402,
      "##ages": 1403,
      "##iple": 1404,
      "fre": 1405,
      "##63": 1406,
      "eqam006": 1407,
      "nbfd": 1408,
      "##ode": 1409,
      "reinforce": 1410,
      "##ergro": 1411,
      "description": 1412,
      "##wood": 1413,
      "##blca": 1414,
      "alarm": 1415,
      "##one": 1416,
      "##71": 1417,
      "audit": 1418,
      "be": 1419,
      "spe": 1420,
      "cmts13": 1421,
      "lond": 1422,
      "spa": 1423,
      "real": 1424,
      "##cton": 1425,
      "london": 1426,
      "modulation": 1427,
      "physical": 1428,
      "shar": 1429,
      "gener": 1430,
      "installed": 1431,
      "##ham": 1432,
      "pon": 1433,
      "fl": 1434,
      "ground": 1435,
      "##itor": 1436,
      "cmts27": 1437,
      "file": 1438,
      "##ician": 1439,
      "segments": 1440,
      "ospf": 1441,
      "disconnect": 1442,
      "block": 1443,
      "do": 1444,
      "pg06": 1445,
      "##bin": 1446,
      "##92": 1447,
      "pe": 1448,
      "##ft": 1449,
      "##ule": 1450,
      "high": 1451,
      "ba": 1452,
      "clo": 1453,
      "hy": 1454,
      "undergro": 1455,
      "underground": 1456,
      "dnc": 1457,
      "##ik": 1458,
      "es": 1459,
      "pt07": 1460,
      "monitor": 1461,
      "purpos": 1462,
      "##stream": 1463,
      "progr": 1464,
      "##ces": 1465,
      "fcr": 1466,
      "enode": 1467,
      "gt": 1468,
      "##tre": 1469,
      "ds1": 1470,
      "remote": 1471,
      "electr": 1472,
      "eng": 1473,
      "##ening": 1474,
      "setup": 1475,
      "cards": 1476,
      "brnt": 1477,
      "hardware": 1478,
      "ec": 1479,
      "reloc": 1480,
      "provid": 1481,
      "brntfd": 1482,
      "bsc": 1483,
      "##62": 1484,
      "152": 1485,
      "servers": 1486,
      "##ble": 1487,
      "##ise": 1488,
      "##urnc": 1489,
      "03": 1490,
      "1988": 1491,
      "dncs": 1492,
      "##iness": 1493,
      "technician": 1494,
      "tapes": 1495,
      "lif": 1496,
      "##ont": 1497,
      "eqam06": 1498,
      "control": 1499,
      "x13": 1500,
      "installing": 1501,
      "to5": 1502,
      "##irk": 1503,
      "##82": 1504,
      "123": 1505,
      "cmts29": 1506,
      "cmts25": 1507,
      "##umsc": 1508,
      "##80": 1509,
      "##gn": 1510,
      "rol": 1511,
      "500": 1512,
      "##ong": 1513,
      "stand": 1514,
      "emerg": 1515,
      "##69": 1516,
      "40": 1517,
      "curre": 1518,
      "performing": 1519,
      "##ok": 1520,
      "par": 1521,
      "eqam007": 1522,
      "ops": 1523,
      "##uc": 1524,
      "##vol": 1525,
      "program": 1526,
      "npt": 1527,
      "27": 1528,
      "pd": 1529,
      "60": 1530,
      "business": 1531,
      "stre": 1532,
      "cell": 1533,
      "55": 1534,
      "bre": 1535,
      "44": 1536,
      "12ch": 1537,
      "hours": 1538,
      "##land": 1539,
      "impacting": 1540,
      "mark": 1541,
      "##rupt": 1542,
      "##950": 1543,
      "restart": 1544,
      "activation": 1545,
      "hop": 1546,
      "rcmin": 1547,
      "##ry": 1548,
      "street": 1549,
      "50": 1550,
      "##61": 1551,
      "103": 1552,
      "connections": 1553,
      "##ame": 1554,
      "mis": 1555,
      "##ders": 1556,
      "bc": 1557,
      "sm": 1558,
      "eqam009": 1559,
      "eastern": 1560,
      "65": 1561,
      "qos": 1562,
      "##awk": 1563,
      "deter": 1564,
      "radio": 1565,
      "issued": 1566,
      "##ply": 1567,
      "rich": 1568,
      "thre": 1569,
      "bdf": 1570,
      "activities": 1571,
      "nes": 1572,
      "purpose": 1573,
      "wolf": 1574,
      "##met": 1575,
      "pack": 1576,
      "##by": 1577,
      "code": 1578,
      "voice": 1579,
      "que": 1580,
      "##edale": 1581,
      "connection": 1582,
      "feed": 1583,
      "##use": 1584,
      "129": 1585,
      "links": 1586,
      "npt000000": 1587,
      "communications": 1588,
      "##kirk": 1589,
      "6g": 1590,
      "route": 1591,
      "troubleshooting": 1592,
      "ueqam130": 1593,
      "hspa": 1594,
      "bdfb": 1595,
      "##52": 1596,
      "sharing": 1597,
      "2100": 1598,
      "##med": 1599,
      "l2": 1600,
      "##mber": 1601,
      "incre": 1602,
      "estate": 1603,
      "impacted": 1604,
      "##op": 1605,
      "exten": 1606,
      "37": 1607,
      "##ford": 1608,
      "dgw01": 1609,
      "shelter": 1610,
      "##oon": 1611,
      "north": 1612,
      "##84": 1613,
      "bro": 1614,
      "##ansion": 1615,
      "cin001": 1616,
      "##ior": 1617,
      "invol": 1618,
      "newkirk": 1619,
      "expansion": 1620,
      "atp": 1621,
      "interf": 1622,
      "cmts28": 1623,
      "break": 1624,
      "threat": 1625,
      "ge": 1626,
      "dir": 1627,
      "gi": 1628,
      "nb1": 1629,
      "lad": 1630,
      "##51": 1631,
      "montre": 1632,
      "ueqam131": 1633,
      "wolfedale": 1634,
      "montreal": 1635,
      "aband": 1636,
      "electrical": 1637,
      "basp": 1638,
      "clwd": 1639,
      "provide": 1640,
      "interrupt": 1641,
      "##ask": 1642,
      "bawk": 1643,
      "ponk1": 1644,
      "c01": 1645,
      "##ines": 1646,
      "mhz": 1647,
      "128": 1648,
      "ping": 1649,
      "eqam008": 1650,
      "optim": 1651,
      "##ath": 1652,
      "et": 1653,
      "##eek": 1654,
      "##ize": 1655,
      "week": 1656,
      "168": 1657,
      "router": 1658,
      "am": 1659,
      "all": 1660,
      "fail": 1661,
      "##xx": 1662,
      "##roline": 1663,
      "electroline": 1664,
      "##980": 1665,
      "vers": 1666,
      "bal": 1667,
      "20ch": 1668,
      "configure": 1669,
      "10g": 1670,
      "39": 1671,
      "##essary": 1672,
      "lifeline": 1673,
      "##link": 1674,
      "locate": 1675,
      "rails": 1676,
      "##ility": 1677,
      "ladders": 1678,
      "##ugh": 1679,
      "tele": 1680,
      "nesessary": 1681,
      "w12": 1682,
      "##gw01": 1683,
      "mar": 1684,
      "equipmet": 1685,
      "eltek": 1686,
      "po03": 1687,
      "c3": 1688,
      "abandond": 1689,
      "9k": 1690,
      "mills": 1691,
      "stp": 1692,
      "##pton": 1693,
      "assoc": 1694,
      "##ne": 1695,
      "optical": 1696,
      "0700": 1697,
      "carrier": 1698,
      "##oing": 1699,
      "w02": 1700,
      "##net": 1701,
      "termin": 1702,
      "47": 1703,
      "96": 1704,
      "##eri": 1705,
      "team": 1706,
      "use": 1707,
      "fibers": 1708,
      "net": 1709,
      "##otron": 1710,
      "videotron": 1711,
      "##59": 1712,
      "e00": 1713,
      "##ates": 1714,
      "details": 1715,
      "gmt": 1716,
      "##57": 1717,
      "barr": 1718,
      "##mond": 1719,
      "bram": 1720,
      "gige": 1721,
      "##cav": 1722,
      "##vc": 1723,
      "excav": 1724,
      "centr": 1725,
      "over": 1726,
      "##ner": 1727,
      "live": 1728,
      "##81": 1729,
      "cin002": 1730,
      "engine": 1731,
      "pa": 1732,
      "scrip": 1733,
      "pt04": 1734,
      "version": 1735,
      "##pp": 1736,
      "34": 1737,
      "vis": 1738,
      "##tal": 1739,
      "box": 1740,
      "154": 1741,
      "second": 1742,
      "eqam024": 1743,
      "eqam016": 1744,
      "laur": 1745,
      "##day": 1746,
      "##field": 1747,
      "mount": 1748,
      "##li": 1749,
      "switches": 1750,
      "eqam011": 1751,
      "clear": 1752,
      "##ally": 1753,
      "##56": 1754,
      "151": 1755,
      "associ": 1756,
      "rfc": 1757,
      "swee": 1758,
      "central": 1759,
      "003": 1760,
      "tn": 1761,
      "sign": 1762,
      "##ud": 1763,
      "##ley": 1764,
      "plant": 1765,
      "144": 1766,
      "apn": 1767,
      "canad": 1768,
      "##89": 1769,
      "collocation": 1770,
      "relocate": 1771,
      "eth": 1772,
      "4980": 1773,
      "eqam010": 1774,
      "alarms": 1775,
      "pg13": 1776,
      "place": 1777,
      "w01": 1778,
      "##per": 1779,
      "multiple": 1780,
      "poi": 1781,
      "notification": 1782,
      "633000000": 1783,
      "##ely": 1784,
      "##mc": 1785,
      "increase": 1786,
      "king": 1787,
      "##uary": 1788,
      "total": 1789,
      "brampton": 1790,
      "toroon": 1791,
      "deployment": 1792,
      "richmond": 1793,
      "noc": 1794,
      "a3": 1795,
      "127": 1796,
      "##dh": 1797,
      "1103": 1798,
      "##aming": 1799,
      "a1": 1800,
      "76": 1801,
      "verify": 1802,
      "pop": 1803,
      "pg09": 1804,
      "mic": 1805,
      "reference": 1806,
      "eqam013": 1807,
      "mltn": 1808,
      "va2": 1809,
      "eqam014": 1810,
      "reload": 1811,
      "phase": 1812,
      "poau": 1813,
      "##time": 1814,
      "##lin": 1815,
      "standard": 1816,
      "pt06": 1817,
      "long": 1818,
      "##fp": 1819,
      "hwy": 1820,
      "related": 1821,
      "##av": 1822,
      "##54": 1823,
      "upgrades": 1824,
      "optimization": 1825,
      "tdr": 1826,
      "cal": 1827,
      "##ors": 1828,
      "1008": 1829,
      "building": 1830,
      "224": 1831,
      "sum": 1832,
      "wirele": 1833,
      "shelf": 1834,
      "##bsc": 1835,
      "wt": 1836,
      "csd": 1837,
      "mapping": 1838,
      "sweep": 1839,
      "##od": 1840,
      "lay": 1841,
      "##inet": 1842,
      "tlan": 1843,
      "##rs": 1844,
      "wireless": 1845,
      "prot": 1846,
      "imt": 1847,
      "002": 1848,
      "##son": 1849,
      "ci": 1850,
      "micro": 1851,
      "##tac": 1852,
      "lak": 1853,
      "##umsc2": 1854,
      "vlan": 1855,
      "##200": 1856,
      "dd": 1857,
      "lt1": 1858,
      "##owe": 1859,
      "##alls": 1860,
      "reboot": 1861,
      "##les": 1862,
      "eqam012": 1863,
      "##120": 1864,
      "routing": 1865,
      "##ivity": 1866,
      "200": 1867,
      "ind": 1868,
      "164": 1869,
      "verification": 1870,
      "outages": 1871,
      "laurent": 1872,
      "##vl": 1873,
      "assi": 1874,
      "gre": 1875,
      "##gy": 1876,
      "dup": 1877,
      "duration": 1878,
      "unit": 1879,
      "33": 1880,
      "##ction": 1881,
      "##wdm": 1882,
      "##mon": 1883,
      "pns": 1884,
      "eqam015": 1885,
      "moving": 1886,
      "pnsj": 1887,
      "summ": 1888,
      "jan": 1889,
      "markham": 1890,
      "cabinet": 1891,
      "canada": 1892,
      "spec": 1893,
      "manage": 1894,
      "##bor": 1895,
      "hd": 1896,
      "working": 1897,
      "mm": 1898,
      "du": 1899,
      "layer": 1900,
      "##oll": 1901,
      "south": 1902,
      "##ital": 1903,
      "event": 1904,
      "x15": 1905,
      "connected": 1906,
      "inte": 1907,
      "122": 1908,
      "##ified": 1909,
      "minim": 1910,
      "coge": 1911,
      "upgraded": 1912,
      "##53": 1913,
      "hyd": 1914,
      "cogeco": 1915,
      "##cument": 1916,
      "nets": 1917,
      "document": 1918,
      "w1": 1919,
      "needs": 1920,
      "air": 1921,
      "pg12": 1922,
      "##rand": 1923,
      "hydro": 1924,
      "##urce": 1925,
      "##aging": 1926,
      "state": 1927,
      "correction": 1928,
      "kitch": 1929,
      "##aced": 1930,
      "mx": 1931,
      "##bert": 1932,
      "implementation": 1933,
      "engineering": 1934,
      "ag": 1935,
      "##gest": 1936,
      "shut": 1937,
      "oak": 1938,
      "1900": 1939,
      "2600": 1940,
      "enable": 1941,
      "ipv6": 1942,
      "performed": 1943,
      "08": 1944,
      "##encies": 1945,
      "by": 1946,
      "moncton": 1947,
      "qc": 1948,
      "eqam021": 1949,
      "##yy": 1950,
      "tek": 1951,
      "mid": 1952,
      "management": 1953,
      "102": 1954,
      "bar": 1955,
      "w2": 1956,
      "pdsj": 1957,
      "627": 1958,
      "hal": 1959,
      "ent": 1960,
      "kitchener": 1961,
      "##ceed": 1962,
      "cli": 1963,
      "telecom": 1964,
      "procedure": 1965,
      "room": 1966,
      "pdsj1": 1967,
      "##ash": 1968,
      "adding": 1969,
      "redund": 1970,
      "##cs": 1971,
      "rec": 1972,
      "ueqam132": 1973,
      "333": 1974,
      "rcbin": 1975,
      "barrie": 1976,
      "rens": 1977,
      "water": 1978,
      "##iate": 1979,
      "connectivity": 1980,
      "##vd": 1981,
      "decommissioning": 1982,
      "di": 1983,
      "copy": 1984,
      "ss": 1985,
      "local": 1986,
      "##eter": 1987,
      "transfer": 1988,
      "needed": 1989,
      "coloc": 1990,
      "hub": 1991,
      "##era": 1992,
      "eqam019": 1993,
      "c15": 1994,
      "sn": 1995,
      "##ank": 1996,
      "summary": 1997,
      "##100": 1998,
      "crew": 1999,
      "datab": 2000,
      "tim": 2001,
      "##psk": 2002,
      "##gp": 2003,
      "x14": 2004,
      "fire": 2005,
      "prior": 2006,
      "##ailable": 2007,
      "cmts14": 2008,
      "board": 2009,
      "qpsk": 2010,
      "netsure": 2011,
      "visit": 2012,
      "transition": 2013,
      "microwave": 2014,
      "212": 2015,
      "atl": 2016,
      "ei": 2017,
      "2011": 2018,
      "fal": 2019,
      "##ffer": 2020,
      "1115": 2021,
      "lan": 2022,
      "ms": 2023,
      "##pls": 2024,
      "vol": 2025,
      "way": 2026,
      "eqam017": 2027,
      "dgw02": 2028,
      "##og": 2029,
      "process": 2030,
      "oper": 2031,
      "proceed": 2032,
      "mode": 2033,
      "192": 2034,
      "integr": 2035,
      "eqam025": 2036,
      "reso": 2037,
      "database": 2038,
      "drive": 2039,
      "vi": 2040,
      "##of": 2041,
      "l3": 2042,
      "##pr": 2043,
      "ot": 2044,
      "w05": 2045,
      "52": 2046,
      "excavation": 2047,
      "108": 2048,
      "##bridge": 2049,
      "congest": 2050,
      "low": 2051,
      "1098": 2052,
      "56": 2053,
      "##lic": 2054,
      "##bps": 2055,
      "mst": 2056,
      "##ded": 2057,
      "insertion": 2058,
      "emergency": 2059,
      "cate": 2060,
      "rece": 2061,
      "006": 2062,
      "ftt": 2063,
      "eqam028": 2064,
      "determin": 2065,
      "##res": 2066,
      "rep": 2067,
      "pg1": 2068,
      "determined": 2069,
      "72": 2070,
      "##anc": 2071,
      "impro": 2072,
      "os": 2073,
      "##urces": 2074,
      "region": 2075,
      "task": 2076,
      "1700": 2077,
      "eqam020": 2078,
      "dro": 2079,
      "mor": 2080,
      "temp": 2081,
      "leg": 2082,
      "interface": 2083,
      "possi": 2084,
      "concer": 2085,
      "##kw": 2086,
      "##cessary": 2087,
      "hill": 2088,
      "foscs": 2089,
      "ash": 2090,
      "report": 2091,
      "80": 2092,
      "path": 2093,
      "case": 2094,
      "hardening": 2095,
      "defici": 2096,
      "oss": 2097,
      "##ational": 2098,
      "004": 2099,
      "concerns": 2100,
      "hand": 2101,
      "stat": 2102,
      "panels": 2103,
      "##ics": 2104,
      "insp": 2105,
      "647": 2106,
      "##sto": 2107,
      "1005": 2108,
      "subject": 2109,
      "added": 2110,
      "listed": 2111,
      "##mx": 2112,
      "transmission": 2113,
      "##he": 2114,
      "##vp": 2115,
      "feat": 2116,
      "dam": 2117,
      "##abl": 2118,
      "##lock": 2119,
      "acco": 2120,
      "120": 2121,
      "eqam022": 2122,
      "eqam027": 2123,
      "pp01": 2124,
      "post": 2125,
      "int": 2126,
      "log": 2127,
      "w03": 2128,
      "##ga": 2129,
      "camera": 2130,
      "frequ": 2131,
      "ir": 2132,
      "orders": 2133,
      "1006": 2134,
      "howe": 2135,
      "w16": 2136,
      "##ful": 2137,
      "replaced": 2138,
      "daytime": 2139,
      "wdst": 2140,
      "har": 2141,
      "##750": 2142,
      "850": 2143,
      "march": 2144,
      "currently": 2145,
      "however": 2146,
      "tie": 2147,
      "mme": 2148,
      "param": 2149,
      "sep": 2150,
      "##aged": 2151,
      "available": 2152,
      "dupont": 2153,
      "eg": 2154,
      "##ilo": 2155,
      "##ipe": 2156,
      "city": 2157,
      "##tem": 2158,
      "gate": 2159,
      "ident": 2160,
      "143": 2161,
      "package": 2162,
      "##fr": 2163,
      "00am": 2164,
      "cleanup": 2165,
      "associated": 2166,
      "direct": 2167,
      "157": 2168,
      "ridge": 2169,
      "roof": 2170,
      "estim": 2171,
      "interruption": 2172,
      "sgsn": 2173,
      "##side": 2174,
      "eqam018": 2175,
      "pac": 2176,
      "necessary": 2177,
      "##idth": 2178,
      "faulty": 2179,
      "january": 2180,
      "mess": 2181,
      "cer": 2182,
      "t1": 2183,
      "##wc": 2184,
      "dele": 2185,
      "bandw": 2186,
      "requested": 2187,
      "wdstck": 2188,
      "eqam026": 2189,
      "dra": 2190,
      "orvl": 2191,
      "wh": 2192,
      "flo": 2193,
      "lines": 2194,
      "tekele": 2195,
      "immed": 2196,
      "1095": 2197,
      "lake": 2198,
      "pc": 2199,
      "##ves": 2200,
      "supply": 2201,
      "step": 2202,
      "activate": 2203,
      "t23": 2204,
      "mob": 2205,
      "##olo": 2206,
      "enc": 2207,
      "1118": 2208,
      "routes": 2209,
      "oakville": 2210,
      "poba": 2211,
      "eqam023": 2212,
      "max": 2213,
      "nik": 2214,
      "31st": 2215,
      "she": 2216,
      "##pat": 2217,
      "1465": 2218,
      "design": 2219,
      "agw05": 2220,
      "##stock": 2221,
      "digital": 2222,
      "pacific": 2223,
      "a00": 2224,
      "nr": 2225,
      "##ston": 2226,
      "c03": 2227,
      "##bed": 2228,
      "configur": 2229,
      "##nic": 2230,
      "nika": 2231,
      "clust": 2232,
      "prevent": 2233,
      "09": 2234,
      "sim": 2235,
      "approx": 2236,
      "monitored": 2237,
      "188": 2238,
      "june": 2239,
      "ms1": 2240,
      "##ivers": 2241,
      "##mark": 2242,
      "005": 2243,
      "spr": 2244,
      "blvd": 2245,
      "##roft": 2246,
      "bandwidth": 2247,
      "pole": 2248,
      "roaming": 2249,
      "eqam029": 2250,
      "wa": 2251,
      "c2": 2252,
      "##elph": 2253,
      "##mme": 2254,
      "im2": 2255,
      "cas": 2256,
      "guelph": 2257,
      "tray": 2258,
      "string": 2259,
      "##ux": 2260,
      "05dh": 2261,
      "perio": 2262,
      "inf": 2263,
      "improve": 2264,
      "possible": 2265,
      "w06": 2266,
      "edge": 2267,
      "del": 2268,
      "##ernet": 2269,
      "c02": 2270,
      "ens": 2271,
      "eastlink": 2272,
      "preview": 2273,
      "10ge": 2274,
      "cres": 2275,
      "lim": 2276,
      "##uch": 2277,
      "signal": 2278,
      "##man": 2279,
      "bridge": 2280,
      "##ures": 2281,
      "##tain": 2282,
      "condu": 2283,
      "updates": 2284,
      "eqam031": 2285,
      "err": 2286,
      "categ": 2287,
      "##cou": 2288,
      "42": 2289,
      "usa": 2290,
      "fc": 2291,
      "failo": 2292,
      "##msc": 2293,
      "result": 2294,
      "met": 2295,
      "modular": 2296,
      "ma": 2297,
      "apr": 2298,
      "##chan": 2299,
      "dns": 2300,
      "win": 2301,
      "includes": 2302,
      "##ding": 2303,
      "atlant": 2304,
      "fac": 2305,
      "dp": 2306,
      "rollo": 2307,
      "vancou": 2308,
      "##nicoll": 2309,
      "##urst": 2310,
      "immediate": 2311,
      "vancouver": 2312,
      "ke": 2313,
      "##der": 2314,
      "generator": 2315,
      "failover": 2316,
      "ensure": 2317,
      "colocation": 2318,
      "jum": 2319,
      "##b1": 2320,
      "source": 2321,
      "roadbed": 2322,
      "##unts": 2323,
      "rollout": 2324,
      "cc": 2325,
      "mcnicoll": 2326,
      "provided": 2327,
      "##air": 2328,
      "##ager": 2329,
      "bands": 2330,
      "##acy": 2331,
      "units": 2332,
      "##boro": 2333,
      "ii": 2334,
      "##val": 2335,
      "x12": 2336,
      "##ped": 2337,
      "scar": 2338,
      "init": 2339,
      "category": 2340,
      "##siss": 2341,
      "terminate": 2342,
      "sr": 2343,
      "##mware": 2344,
      "##wall": 2345,
      "##ilink": 2346,
      "##croft": 2347,
      "##hurst": 2348,
      "##ues": 2349,
      "##auga": 2350,
      "allstream": 2351,
      "point": 2352,
      "module": 2353,
      "occ": 2354,
      "ob": 2355,
      "1309": 2356,
      "e06": 2357,
      "ps": 2358,
      "coord": 2359,
      "dispat": 2360,
      "running": 2361,
      "c19": 2362,
      "57": 2363,
      "1007": 2364,
      "subsc": 2365,
      "1116": 2366,
      "mississ": 2367,
      "additional": 2368,
      "inspection": 2369,
      "##wn": 2370,
      "167": 2371,
      "##bby": 2372,
      "congestion": 2373,
      "han": 2374,
      "160": 2375,
      "dwdm": 2376,
      "mpls": 2377,
      "suc": 2378,
      "fut": 2379,
      "af": 2380,
      "lobby": 2381,
      "technical": 2382,
      "coordin": 2383,
      "hu": 2384,
      "firmware": 2385,
      "tdd": 2386,
      "mississauga": 2387,
      "sch": 2388,
      "confir": 2389,
      "victor": 2390,
      "220": 2391,
      "cgw01": 2392,
      "success": 2393,
      "w04": 2394,
      "oct": 2395,
      "1419": 2396,
      "10001": 2397,
      "##273": 2398,
      "files": 2399,
      "roll": 2400,
      "165": 2401,
      "1003": 2402,
      "implemented": 2403,
      "assign": 2404,
      "49": 2405,
      "##pn": 2406,
      "tp": 2407,
      "orig": 2408,
      "damaged": 2409,
      "wise": 2410,
      "future": 2411,
      "##be": 2412,
      "gta": 2413,
      "gateway": 2414,
      "ipv4": 2415,
      "##onge": 2416,
      "baal": 2417,
      "april": 2418,
      "1117": 2419,
      "ped": 2420,
      "2x": 2421,
      "1495": 2422,
      "atlantic": 2423,
      "##ler": 2424,
      "yonge": 2425,
      "removed": 2426,
      "estimated": 2427,
      "w14": 2428,
      "136": 2429,
      "baol": 2430,
      "tekelec": 2431,
      "table": 2432,
      "technolo": 2433,
      "##going": 2434,
      "1244": 2435,
      "##cing": 2436,
      "ml02": 2437,
      "med": 2438,
      "e02": 2439,
      "bala": 2440,
      "breakers": 2441,
      "e1": 2442,
      "fred": 2443,
      "experi": 2444,
      "43": 2445,
      "sectors": 2446,
      "ueqam133": 2447,
      "origin": 2448,
      "ev": 2449,
      "##urs": 2450,
      "disk": 2451,
      "ru": 2452,
      "count": 2453,
      "dispatched": 2454,
      "subscrib": 2455,
      "ashcroft": 2456,
      "eglin": 2457,
      "1496": 2458,
      "replacing": 2459,
      "down": 2460,
      "free": 2461,
      "eglinton": 2462,
      "equipmenttac": 2463,
      "nt": 2464,
      "spl": 2465,
      "phub": 2466,
      "##unction": 2467,
      "elements": 2468,
      "grand": 2469,
      "##din": 2470,
      "extension": 2471,
      "successful": 2472,
      "##amil": 2473,
      "208": 2474,
      "eqam039": 2475,
      "sent": 2476,
      "196": 2477,
      "##cember": 2478,
      "64qam": 2479,
      "account": 2480,
      "502": 2481,
      "manager": 2482,
      "c1505": 2483,
      "ium": 2484,
      "volte": 2485,
      "##x1": 2486,
      "located": 2487,
      "1469": 2488,
      "##155": 2489,
      "resources": 2490,
      "##uce": 2491,
      "minilink": 2492,
      "pomk1": 2493,
      "ref": 2494,
      "name": 2495,
      "##los": 2496,
      "propos": 2497,
      "##erson": 2498,
      "approved": 2499,
      "bgp": 2500,
      "dund": 2501,
      "176": 2502,
      "cng": 2503,
      "victoria": 2504,
      "rcdin": 2505,
      "concre": 2506,
      "##sw": 2507,
      "##mhz": 2508,
      "184": 2509,
      "##ability": 2510,
      "##tent": 2511,
      "##ian": 2512,
      "##ects": 2513,
      "1013": 2514,
      "w11": 2515,
      "applic": 2516,
      "concrete": 2517,
      "ren": 2518,
      "relocation": 2519,
      "edt": 2520,
      "6601": 2521,
      "##096": 2522,
      "w15": 2523,
      "clock": 2524,
      "civ": 2525,
      "eqam033": 2526,
      "68": 2527,
      "##frd": 2528,
      "##246": 2529,
      "##po": 2530,
      "##ief": 2531,
      "##put": 2532,
      "strfrd": 2533,
      "broad": 2534,
      "limit": 2535,
      "ny": 2536,
      "ds3": 2537,
      "legacy": 2538,
      "month": 2539,
      "civil": 2540,
      "pine": 2541,
      "pls": 2542,
      "active": 2543,
      "eqam038": 2544,
      "53": 2545,
      "604": 2546,
      "rev": 2547,
      "insert": 2548,
      "ethernet": 2549,
      "e01": 2550,
      "##ium": 2551,
      "##ade": 2552,
      "split": 2553,
      "158": 2554,
      "jul": 2555,
      "recon": 2556,
      "wireline": 2557,
      "##ti": 2558,
      "##ural": 2559,
      "88": 2560,
      "hot": 2561,
      "pnmc": 2562,
      "glo": 2563,
      "##out": 2564,
      "1120": 2565,
      "007": 2566,
      "bb": 2567,
      "mechan": 2568,
      "pass": 2569,
      "##mtl": 2570,
      "fttb": 2571,
      "enclos": 2572,
      "weekly": 2573,
      "longer": 2574,
      "fallow": 2575,
      "132": 2576,
      "627000000": 2577,
      "polic": 2578,
      "vod": 2579,
      "isol": 2580,
      "we": 2581,
      "1009": 2582,
      "a02": 2583,
      "1475": 2584,
      "204": 2585,
      "639": 2586,
      "##fix": 2587,
      "fallowfield": 2588,
      "##water": 2589,
      "##ets": 2590,
      "station": 2591,
      "67": 2592,
      "function": 2593,
      "##nel": 2594,
      "rough": 2595,
      "eqam030": 2596,
      "hor": 2597,
      "stop": 2598,
      "106": 2599,
      "jid": 2600,
      "mtbo": 2601,
      "alx": 2602,
      "bathurst": 2603,
      "batteries": 2604,
      "mechanical": 2605,
      "##bal": 2606,
      "calls": 2607,
      "05dhat": 2608,
      "cons": 2609,
      "eqam036": 2610,
      "december": 2611,
      "1264": 2612,
      "prim": 2613,
      "84": 2614,
      "powerwave": 2615,
      "46": 2616,
      "feature": 2617,
      "gw": 2618,
      "light": 2619,
      "jid000000": 2620,
      "field": 2621,
      "involved": 2622,
      "##003": 2623,
      "cmts41": 2624,
      "newmark": 2625,
      "226": 2626,
      "305": 2627,
      "##gent": 2628,
      "conduit": 2629,
      "newmarket": 2630,
      "##fig": 2631,
      "##cp": 2632,
      "mdu": 2633,
      "internet": 2634,
      "waiver": 2635,
      "412": 2636,
      "##cast": 2637,
      "156": 2638,
      "##old": 2639,
      "255": 2640,
      "complex": 2641,
      "1043": 2642,
      "c1505a": 2643,
      "##aint": 2644,
      "##atch": 2645,
      "alph": 2646,
      "##ma": 2647,
      "1245": 2648,
      "##ere": 2649,
      "acc": 2650,
      "##umgw": 2651,
      "experience": 2652,
      "eqam032": 2653,
      "national": 2654,
      "create": 2655,
      "216": 2656,
      "##pass": 2657,
      "ut": 2658,
      "##wing": 2659,
      "eqam07": 2660,
      "shoot": 2661,
      "alpha": 2662,
      "upgrading": 2663,
      "##cm": 2664,
      "180": 2665,
      "finish": 2666,
      "##ately": 2667,
      "strfrd2": 2668,
      "routers": 2669,
      "chas": 2670,
      "dm": 2671,
      "##ena": 2672,
      "##aces": 2673,
      "cover": 2674,
      "##ward": 2675,
      "reinforcing": 2676,
      "woodstock": 2677,
      "systems": 2678,
      "script": 2679,
      "mountain": 2680,
      "##la": 2681,
      "##472": 2682,
      "asr": 2683,
      "rail": 2684,
      "river": 2685,
      "colle": 2686,
      "##x10": 2687,
      "days": 2688,
      "##bur": 2689,
      "dow": 2690,
      "##801": 2691,
      "1497": 2692,
      "gcr": 2693,
      "eqam037": 2694,
      "integration": 2695,
      "5ess": 2696,
      "tsp": 2697,
      "##ire": 2698,
      "2g": 2699,
      "##na": 2700,
      "blocked": 2701,
      "height": 2702,
      "##ging": 2703,
      "dh": 2704,
      "eqam08": 2705,
      "resol": 2706,
      "bore": 2707,
      "tempor": 2708,
      "sip": 2709,
      "1950": 2710,
      "deficiencies": 2711,
      "revision": 2712,
      "##ablish": 2713,
      "##911": 2714,
      "radi": 2715,
      "cro": 2716,
      "cluster": 2717,
      "##line": 2718,
      "1004": 2719,
      "134": 2720,
      "section": 2721,
      "##cn": 2722,
      "car": 2723,
      "hss": 2724,
      "frederi": 2725,
      "global": 2726,
      "##enue": 2727,
      "osh": 2728,
      "##vert": 2729,
      "ur": 2730,
      "##308": 2731,
      "7750": 2732,
      "142": 2733,
      "fredericton": 2734,
      "floor": 2735,
      "groups": 2736,
      "##lex": 2737,
      "establish": 2738,
      "clearwater": 2739,
      "##lington": 2740,
      "schedule": 2741,
      "requires": 2742,
      "2960": 2743,
      "corrections": 2744,
      "##oke": 2745,
      "dac": 2746,
      "##gin": 2747,
      "going": 2748,
      "aug": 2749,
      "sol": 2750,
      "tun": 2751,
      "116": 2752,
      "##lr": 2753,
      "##ights": 2754,
      "1517": 2755,
      "nodeb": 2756,
      "secondary": 2757,
      "##ancy": 2758,
      "july": 2759,
      "##uk": 2760,
      "##ho": 2761,
      "pg003": 2762,
      "##ria": 2763,
      "eqam035": 2764,
      "pg007": 2765,
      "w19": 2766,
      "rect": 2767,
      "54": 2768,
      "mgw": 2769,
      "drawing": 2770,
      "w0275": 2771,
      "##101": 2772,
      "##win": 2773,
      "eqam040": 2774,
      "fil": 2775,
      "tak": 2776,
      "breaker": 2777,
      "75": 2778,
      "general": 2779,
      "delete": 2780,
      "object": 2781,
      "steel": 2782,
      "facil": 2783,
      "tpia": 2784,
      "cbc": 2785,
      "technology": 2786,
      "##bk": 2787,
      "paa": 2788,
      "ls": 2789,
      "##bec": 2790,
      "##let": 2791,
      "236": 2792,
      "aur": 2793,
      "166": 2794,
      "##ower": 2795,
      "exec": 2796,
      "octo": 2797,
      "np": 2798,
      "##mine": 2799,
      "rcs": 2800,
      "chassis": 2801,
      "g12": 2802,
      "apply": 2803,
      "hamil": 2804,
      "law": 2805,
      "##dr": 2806,
      "networks": 2807,
      "identified": 2808,
      "hamilton": 2809,
      "rtn": 2810,
      "w17": 2811,
      "##gary": 2812,
      "dem": 2813,
      "laun": 2814,
      "##ppard": 2815,
      "##vt": 2816,
      "read": 2817,
      "centre": 2818,
      "##uments": 2819,
      "1114": 2820,
      "4950": 2821,
      "mac": 2822,
      "##pb": 2823,
      "reconfig": 2824,
      "58": 2825,
      "eqam046": 2826,
      "c24": 2827,
      "1228": 2828,
      "migrated": 2829,
      "sheppard": 2830,
      "policy": 2831,
      "emc": 2832,
      "email": 2833,
      "crest": 2834,
      "kw": 2835,
      "##021": 2836,
      "prev": 2837,
      "pg002": 2838,
      "pg009": 2839,
      "61": 2840,
      "calgary": 2841,
      "coup": 2842,
      "clli": 2843,
      "1509": 2844,
      "determine": 2845,
      "monthly": 2846,
      "##vx": 2847,
      "140": 2848,
      "powd": 2849,
      "dual": 2850,
      "october": 2851,
      "107": 2852,
      "pg006": 2853,
      "51": 2854,
      "rem": 2855,
      "1505": 2856,
      "##ized": 2857,
      "avenue": 2858,
      "pn02": 2859,
      "downt": 2860,
      "c7": 2861,
      "powd1": 2862,
      "mem": 2863,
      "atria": 2864,
      "ubr": 2865,
      "touch": 2866,
      "atm": 2867,
      "harmon": 2868,
      "fan": 2869,
      "##sa": 2870,
      "1233": 2871,
      "d11": 2872,
      "##ests": 2873,
      "1508": 2874,
      "1x": 2875,
      "sing": 2876,
      "nsf": 2877,
      "400": 2878,
      "##pers": 2879,
      "fibres": 2880,
      "228": 2881,
      "1524": 2882,
      "##eth": 2883,
      "contin": 2884,
      "monitoring": 2885,
      "and": 2886,
      "ha": 2887,
      "##cg": 2888,
      "1518": 2889,
      "fops": 2890,
      "close": 2891,
      "aut": 2892,
      "frequency": 2893,
      "item": 2894,
      "nc": 2895,
      "##range": 2896,
      "##fit": 2897,
      "1223": 2898,
      "right": 2899,
      "loss": 2900,
      "requirement": 2901,
      "##ike": 2902,
      "quebec": 2903,
      "##no": 2904,
      "migrating": 2905,
      "setting": 2906,
      "ongoing": 2907,
      "redundancy": 2908,
      "1500": 2909,
      "robert": 2910,
      "jj": 2911,
      "##ws": 2912,
      "##rant": 2913,
      "rs": 2914,
      "##back": 2915,
      "##ora": 2916,
      "1498": 2917,
      "labeling": 2918,
      "ciena": 2919,
      "hp": 2920,
      "combin": 2921,
      "launch": 2922,
      "boxes": 2923,
      "approxim": 2924,
      "yyy": 2925,
      "##ious": 2926,
      "csd2": 2927,
      "yyyy": 2928,
      "saint": 2929,
      "240": 2930,
      "qcmtl": 2931,
      "lock": 2932,
      "expos": 2933,
      "valid": 2934,
      "##ters": 2935,
      "d10": 2936,
      "eqam047": 2937,
      "parameter": 2938,
      "##115": 2939,
      "npa": 2940,
      "pg001": 2941,
      "##wick": 2942,
      "##ifier": 2943,
      "##201": 2944,
      "pg015": 2945,
      "##van": 2946,
      "protection": 2947,
      "drop": 2948,
      "transit": 2949,
      "92": 2950,
      "resp": 2951,
      "kwkw": 2952,
      "vpn": 2953,
      "purple": 2954,
      "##mbps": 2955,
      "1503": 2956,
      "##192": 2957,
      "intern": 2958,
      "finch": 2959,
      "2950": 2960,
      "##ah": 2961,
      "eqam034": 2962,
      "48v": 2963,
      "speed": 2964,
      "jumpers": 2965,
      "c04": 2966,
      "secur": 2967,
      "objective": 2968,
      "bel": 2969,
      "137": 2970,
      "based": 2971,
      "pg014": 2972,
      "##down": 2973,
      "cause": 2974,
      "diag": 2975,
      "113": 2976,
      "344": 2977,
      "accom": 2978,
      "previous": 2979,
      "##comm": 2980,
      "cross": 2981,
      "eqam041": 2982,
      "150": 2983,
      "##206": 2984,
      "channels": 2985,
      "mx960": 2986,
      "639000000": 2987,
      "133": 2988,
      "it": 2989,
      "1243": 2990,
      "163": 2991,
      "##004": 2992,
      "##cept": 2993,
      "westower": 2994,
      "##head": 2995,
      "##vxr": 2996,
      "su": 2997,
      "##7246": 2998,
      "left": 2999,
      "1468": 3000,
      "te0": 3001,
      "eqam043": 3002,
      "ubr7246": 3003,
      "ubr7246vxr": 3004,
      "modify": 3005,
      "##verse": 3006,
      "fuse": 3007,
      "1466": 3008,
      "##mm": 3009,
      "redundant": 3010,
      "sfp": 3011,
      "##icated": 3012,
      "1515": 3013,
      "client": 3014,
      "small": 3015,
      "interfaces": 3016,
      "115": 3017,
      "##ording": 3018,
      "confirm": 3019,
      "905": 3020,
      "##lon": 3021,
      "##ith": 3022,
      "##aining": 3023,
      "found": 3024,
      "tg": 3025,
      "mip": 3026,
      "1002": 3027,
      "e04": 3028,
      "##ino": 3029,
      "holes": 3030,
      "minimum": 3031,
      "approximately": 3032,
      "mounts": 3033,
      "initi": 3034,
      "dundas": 3035,
      "ra": 3036,
      "primary": 3037,
      "##gro": 3038,
      "bypass": 3039,
      "##ek": 3040,
      "##itions": 3041,
      "proble": 3042,
      "800": 3043,
      "maintain": 3044,
      "status": 3045,
      "e911": 3046,
      "hr": 3047,
      "##erc": 3048,
      "pg012": 3049,
      "urgent": 3050,
      "documents": 3051,
      "bur": 3052,
      "##210": 3053,
      "center": 3054,
      "broadcast": 3055,
      "w09": 3056,
      "##ually": 3057,
      "##094": 3058,
      "mail": 3059,
      "##ei": 3060,
      "##hip": 3061,
      "char": 3062,
      "lawr": 3063,
      "##ls": 3064,
      "cases": 3065,
      "cx": 3066,
      "pg011": 3067,
      "sci": 3068,
      "a01": 3069,
      "fu": 3070,
      "errors": 3071,
      "##rx": 3072,
      "rns": 3073,
      "relief": 3074,
      "tv": 3075,
      "##112": 3076,
      "pg005": 3077,
      "lawrence": 3078,
      "90": 3079,
      "black": 3080,
      "c18": 3081,
      "stream": 3082,
      "##ased": 3083,
      "hole": 3084,
      "single": 3085,
      "messaging": 3086,
      "gator": 3087,
      "changing": 3088,
      "junip": 3089,
      "newly": 3090,
      "##ative": 3091,
      "colling": 3092,
      "potent": 3093,
      "cur": 3094,
      "##tv": 3095,
      "comp": 3096,
      "##agon": 3097,
      "enodeb": 3098,
      "sprint": 3099,
      "##nes": 3100,
      "comverse": 3101,
      "collingwood": 3102,
      "##ke": 3103,
      "162": 3104,
      "232": 3105,
      "2273": 3106,
      "##plied": 3107,
      "saf": 3108,
      "msu": 3109,
      "media": 3110,
      "mtl": 3111,
      "mg": 3112,
      "deliver": 3113,
      "514": 3114,
      "##118": 3115,
      "tem": 3116,
      "pool": 3117,
      "moved": 3118,
      "ceragon": 3119,
      "oshawa": 3120,
      "##bro": 3121,
      "##fc": 3122,
      "pg004": 3123,
      "1533": 3124,
      "eqam042": 3125,
      "41": 3126,
      "c4": 3127,
      "126": 3128,
      "db": 3129,
      "sce": 3130,
      "##oms": 3131,
      "application": 3132,
      "34496000": 3133,
      "250": 3134,
      "procedural": 3135,
      "juniper": 3136,
      "16th": 3137,
      "removing": 3138,
      "pg15": 3139,
      "##ney": 3140,
      "ditch": 3141,
      "enh": 3142,
      "conduct": 3143,
      "poba1": 3144,
      "p2": 3145,
      "1238": 3146,
      "mini": 3147,
      "wil": 3148,
      "##gre": 3149,
      "alu": 3150,
      "direction": 3151,
      "off": 3152,
      "##114": 3153,
      "temporary": 3154,
      "##ero": 3155,
      "##urch": 3156,
      "##ome": 3157,
      "##vpx": 3158,
      "huaw": 3159,
      "trib": 3160,
      "valley": 3161,
      "changed": 3162,
      "according": 3163,
      "2016": 3164,
      "blue": 3165,
      "w08": 3166,
      "##7500": 3167,
      "iog": 3168,
      "nl": 3169,
      "##urnc0": 3170,
      "vgw": 3171,
      "##2k": 3172,
      "##hw": 3173,
      "1000": 3174,
      "quant": 3175,
      "failure": 3176,
      "eqam049": 3177,
      "reboo": 3178,
      "enclosure": 3179,
      "##pq": 3180,
      "lsms": 3181,
      "##ners": 3182,
      "##used": 3183,
      "flash": 3184,
      "huawei": 3185,
      "steps": 3186,
      "e5472": 3187,
      "ups": 3188,
      "addresses": 3189,
      "ddp": 3190,
      "brant": 3191,
      "##008": 3192,
      "##enting": 3193,
      "135": 3194,
      "bring": 3195,
      "rb1": 3196,
      "##ons": 3197,
      "##vpx308": 3198,
      "##dale": 3199,
      "host": 3200,
      "unlock": 3201,
      "anal": 3202,
      "nxx": 3203,
      "##111": 3204,
      "interruptions": 3205,
      "nbpm": 3206,
      "albert": 3207,
      "atx": 3208,
      "esna": 3209,
      "morning": 3210,
      "pg022": 3211,
      "failed": 3212,
      "rv": 3213,
      "pg021": 3214,
      "w18": 3215,
      "product": 3216,
      "22096": 3217,
      "functional": 3218,
      "security": 3219,
      "maxim": 3220,
      "70": 3221,
      "recomm": 3222,
      "10097": 3223,
      "pg046": 3224,
      "1523": 3225,
      "1526": 3226,
      "1453": 3227,
      "tunnel": 3228,
      "pg045": 3229,
      "eqam050": 3230,
      "provides": 3231,
      "space": 3232,
      "blink": 3233,
      "threatening": 3234,
      "quantity": 3235,
      "nvt": 3236,
      "##lett": 3237,
      "##coming": 3238,
      "eqam045": 3239,
      "amp": 3240,
      "don": 3241,
      "w3": 3242,
      "telco": 3243,
      "##loo": 3244,
      "tested": 3245,
      "##ido": 3246,
      "##mh": 3247,
      "include": 3248,
      "rp": 3249,
      "1444": 3250,
      "1514": 3251,
      "pg14": 3252,
      "22096000": 3253,
      "recommend": 3254,
      "firewall": 3255,
      "##tern": 3256,
      "specific": 3257,
      "vc": 3258,
      "aurora": 3259,
      "hol": 3260,
      "offic": 3261,
      "ris": 3262,
      "##024": 3263,
      "248": 3264,
      "oc3": 3265,
      "1113": 3266,
      "partners": 3267,
      "cat": 3268,
      "nove": 3269,
      "ann": 3270,
      "w27": 3271,
      "8am": 3272,
      "c16": 3273,
      "##207": 3274,
      "1097": 3275,
      "decommissioned": 3276,
      "e08": 3277,
      "1248": 3278,
      "pg017": 3279,
      "pg020": 3280,
      "patching": 3281,
      "preloading": 3282,
      "inside": 3283,
      "ten": 3284,
      "halton": 3285,
      "later": 3286,
      "vm": 3287,
      "pg018": 3288,
      "sde": 3289,
      "winn": 3290,
      "receive": 3291,
      "1464": 3292,
      "hi": 3293,
      "horner": 3294,
      "brantford": 3295,
      "##sn": 3296,
      "subscribers": 3297,
      "##2d": 3298,
      "##lq": 3299,
      "1546": 3300,
      "1220": 3301,
      "##ipeg": 3302,
      "maximum": 3303,
      "pipe": 3304,
      "periods": 3305,
      "november": 3306,
      "4l": 3307,
      "1246": 3308,
      "##np": 3309,
      "protected": 3310,
      "separ": 3311,
      "winnipeg": 3312,
      "ome": 3313,
      "##029": 3314,
      "nbba": 3315,
      "##ucture": 3316,
      "pg008": 3317,
      "notice": 3318,
      "w23": 3319,
      "1516": 3320,
      "ss7": 3321,
      "scarlett": 3322,
      "fido": 3323,
      "scripts": 3324,
      "##tc": 3325,
      "eqam048": 3326,
      "minimize": 3327,
      "a03": 3328,
      "1237": 3329,
      "miss": 3330,
      "##eric": 3331,
      "ds1s": 3332,
      "rsh": 3333,
      "avo": 3334,
      "mux": 3335,
      "church": 3336,
      "upstream": 3337,
      "dish": 3338,
      "pg010": 3339,
      "1227": 3340,
      "job": 3341,
      "trays": 3342,
      "pg028": 3343,
      "mpm": 3344,
      "fw7500": 3345,
      "p65": 3346,
      "enb": 3347,
      "cs2k": 3348,
      "cgn": 3349,
      "##vac": 3350,
      "##version": 3351,
      "dms": 3352,
      "e05": 3353,
      "cells": 3354,
      "tests": 3355,
      "##bu": 3356,
      "##work": 3357,
      "##augh": 3358,
      "advisement": 3359,
      "isolate": 3360,
      "pg013": 3361,
      "vaumsc2": 3362,
      "toumsc2": 3363,
      "1093": 3364,
      "ger": 3365,
      "##ular": 3366,
      "from": 3367,
      "crews": 3368,
      "da": 3369,
      "rshm": 3370,
      "ron": 3371,
      "will": 3372,
      "afwc": 3373,
      "c23": 3374,
      "##208": 3375,
      "##illia": 3376,
      "rcsin": 3377,
      "##7120": 3378,
      "##117": 3379,
      "adj": 3380,
      "thurs": 3381,
      "orillia": 3382,
      "transmit": 3383,
      "patches": 3384,
      "cd": 3385,
      "confli": 3386,
      "conflict": 3387,
      "##illing": 3388,
      "only": 3389,
      "0700k": 3390,
      "c55": 3391,
      "retro": 3392,
      "rectifier": 3393,
      "c27": 3394,
      "dul": 3395,
      "mill": 3396,
      "mud": 3397,
      "rcwin": 3398,
      "pg033": 3399,
      "surveying": 3400,
      "ld": 3401,
      "cmts42": 3402,
      "pg042": 3403,
      "led": 3404,
      "1606": 3405,
      "##085": 3406,
      "138": 3407,
      "##ather": 3408,
      "potential": 3409,
      "##mb": 3410,
      "##ety": 3411,
      "##974": 3412,
      "pnfr": 3413,
      "1247": 3414,
      "pg026": 3415,
      "edm": 3416,
      "execut": 3417,
      "##hw2": 3418,
      "avoid": 3419,
      "xhw2": 3420,
      "##ci": 3421,
      "pg016": 3422,
      "3960": 3423,
      "oo": 3424,
      "e09": 3425,
      "dcm": 3426,
      "pg043": 3427,
      "stb": 3428,
      "pg036": 3429,
      "rvvpx308": 3430,
      "hvac": 3431,
      "mh": 3432,
      "##ey": 3433,
      "video": 3434,
      "cul": 3435,
      "##6500": 3436,
      "queen": 3437,
      "##801155": 3438,
      "ds0": 3439,
      "upload": 3440,
      "oc48": 3441,
      "technicians": 3442,
      "s4": 3443,
      "ties": 3444,
      "w24": 3445,
      "##sb": 3446,
      "##040": 3447,
      "5g": 3448,
      "pas": 3449,
      "pg032": 3450,
      "retrofit": 3451,
      "hel": 3452,
      "pin": 3453,
      "1455": 3454,
      "1525": 3455,
      "operations": 3456,
      "jam": 3457,
      "##901": 3458,
      "thank": 3459,
      "steele": 3460,
      "defin": 3461,
      "base": 3462,
      "directional": 3463,
      "1513": 3464,
      "1529": 3465,
      "pg027": 3466,
      "cgw": 3467,
      "prin": 3468,
      "1507": 3469,
      "pg037": 3470,
      "pg023": 3471,
      "c0009": 3472,
      "communicated": 3473,
      "exposed": 3474,
      "otw": 3475,
      "1229": 3476,
      "office": 3477,
      "thursday": 3478,
      "tar": 3479,
      "w26": 3480,
      "creek": 3481,
      "indicated": 3482,
      "assist": 3483,
      "##250": 3484,
      "1511": 3485,
      "interconnect": 3486,
      "interval": 3487,
      "trunks": 3488,
      "americ": 3489,
      "assignment": 3490,
      "n2": 3491,
      "##bw": 3492,
      "shutdown": 3493,
      "risk": 3494,
      "hrs": 3495,
      "repar": 3496,
      "harmonics": 3497,
      "1st": 3498,
      "403": 3499,
      "1406": 3500,
      "30th": 3501,
      "mr": 3502,
      "requis": 3503,
      "steeles": 3504,
      "wall": 3505,
      "conversion": 3506,
      "junos": 3507,
      "##group": 3508,
      "##016": 3509,
      "##ements": 3510,
      "pg030": 3511,
      "poba2": 3512,
      "original": 3513,
      "202": 3514,
      "short": 3515,
      "##mod": 3516,
      "pg024": 3517,
      "problem": 3518,
      "sk": 3519,
      "sess": 3520,
      "95": 3521,
      "ton": 3522,
      "##az": 3523,
      "##iday": 3524,
      "1483": 3525,
      "##ds0": 3526,
      "toroonlq": 3527,
      "hlr": 3528,
      "1536": 3529,
      "peering": 3530,
      "sal": 3531,
      "##ina": 3532,
      "1476": 3533,
      "c0197": 3534,
      "woms": 3535,
      "none": 3536,
      "land": 3537,
      "sg": 3538,
      "align": 3539,
      "##ov": 3540,
      "corner": 3541,
      "##113": 3542,
      "174": 3543,
      "##fs": 3544,
      "cour": 3545,
      "911": 3546,
      "ucn": 3547,
      "1218": 3548,
      "pg035": 3549,
      "##4100": 3550,
      "008": 3551,
      "npt00000006": 3552,
      "proposed": 3553,
      "xe": 3554,
      "detail": 3555,
      "infra": 3556,
      "templ": 3557,
      "bul": 3558,
      "mobile": 3559,
      "dan": 3560,
      "mand": 3561,
      "snmp": 3562,
      "wave": 3563,
      "##005": 3564,
      "##ona": 3565,
      "1527": 3566,
      "##mount": 3567,
      "vr": 3568,
      "##ram": 3569,
      "commit": 3570,
      "pg050": 3571,
      "385": 3572,
      "##ert": 3573,
      "1506": 3574,
      "mo1": 3575,
      "00pm": 3576,
      "glen": 3577,
      "1612": 3578,
      "swapped": 3579,
      "1178": 3580,
      "1094": 3581,
      "to3": 3582,
      "e13": 3583,
      "##265": 3584,
      "rpa": 3585,
      "##ex": 3586,
      "stor": 3587,
      "ends": 3588,
      "ewo": 3589,
      "##196": 3590,
      "##nm": 3591,
      "nsd": 3592,
      "value": 3593,
      "dix": 3594,
      "##arro": 3595,
      "139": 3596,
      "values": 3597,
      "downtime": 3598,
      "##rxm": 3599,
      "##cat": 3600,
      "##ric": 3601,
      "##mills": 3602,
      "##any": 3603,
      "10rxm": 3604,
      "pg031": 3605,
      "##015": 3606,
      "##rl": 3607,
      "10000": 3608,
      "nor": 3609,
      "##cell": 3610,
      "pg051": 3611,
      "partnership": 3612,
      "##aster": 3613,
      "rpats": 3614,
      "##091": 3615,
      "##umb": 3616,
      "nbmm": 3617,
      "pub": 3618,
      "##zf": 3619,
      "##167": 3620,
      "safety": 3621,
      "call": 3622,
      "##itt": 3623,
      "159": 3624,
      "10002": 3625,
      "##ush": 3626,
      "wire": 3627,
      "##bm": 3628,
      "##uts": 3629,
      "roy": 3630,
      "npt00000004": 3631,
      "best": 3632,
      "requirements": 3633,
      "pg040": 3634,
      "##bred": 3635,
      "green": 3636,
      "maj": 3637,
      "ome6500": 3638,
      "cwdm": 3639,
      "completion": 3640,
      "pg041": 3641,
      "optic": 3642,
      "febr": 3643,
      "extended": 3644,
      "77": 3645,
      "##vi": 3646,
      "pg034": 3647,
      "february": 3648,
      "##ws1": 3649,
      "staging": 3650,
      "times": 3651,
      "eon": 3652,
      "fro": 3653,
      "ext": 3654,
      "reset": 3655,
      "1700k": 3656,
      "sf": 3657,
      "serving": 3658,
      "##ige": 3659,
      "##ull": 3660,
      "##hub": 3661,
      "##mx96": 3662,
      "adjust": 3663,
      "##013": 3664,
      "shown": 3665,
      "yorkmills": 3666,
      "73": 3667,
      "114": 3668,
      "4960": 3669,
      "greens": 3670,
      "##borough": 3671,
      "platforms": 3672,
      "##258": 3673,
      "csnt": 3674,
      "reduce": 3675,
      "wolfd": 3676,
      "x11": 3677,
      "##vr": 3678,
      "##icoke": 3679,
      "sher": 3680,
      "friday": 3681,
      "narro": 3682,
      "albred": 3683,
      "albreda": 3684,
      "eqam051": 3685,
      "les": 3686,
      "pg025": 3687,
      "w12b": 3688,
      "4th": 3689,
      "e12": 3690,
      "effect": 3691,
      "##278": 3692,
      "etobicoke": 3693,
      "dry": 3694,
      "hits": 3695,
      "##cc": 3696,
      "##ange": 3697,
      "1504": 3698,
      "accept": 3699,
      "condition": 3700,
      "##ug": 3701,
      "template": 3702,
      "levels": 3703,
      "wolfdale": 3704,
      "page": 3705,
      "san": 3706,
      "##sr": 3707,
      "##129": 3708,
      "251": 3709,
      "t1zf": 3710,
      "3950": 3711,
      "1478": 3712,
      "221": 3713,
      "rx": 3714,
      "1224": 3715,
      "pg029": 3716,
      "greensboro": 3717,
      "##atory": 3718,
      "##ester": 3719,
      "paul": 3720,
      "annual": 3721,
      "ct": 3722,
      "##point": 3723,
      "ready": 3724,
      "proper": 3725,
      "size": 3726,
      "##006": 3727,
      "##011": 3728,
      "##bers": 3729,
      "kn": 3730,
      "1458": 3731,
      "blade": 3732,
      "##esh": 3733,
      "aer": 3734,
      "##pc": 3735,
      "cmts43": 3736,
      "major": 3737,
      "tb": 3738,
      "##ous": 3739,
      "agw01": 3740,
      "user": 3741,
      "##052": 3742,
      "indust": 3743,
      "395": 3744,
      "##030": 3745,
      "131": 3746,
      "starting": 3747,
      "e03": 3748,
      "1548": 3749,
      "guy": 3750,
      "214": 3751,
      "##eland": 3752,
      "##aps": 3753,
      "powered": 3754,
      "form": 3755,
      "##eters": 3756,
      "diagram": 3757,
      "indiv": 3758,
      "updated": 3759,
      "aerial": 3760,
      "fed": 3761,
      "##wdn": 3762,
      "csg": 3763,
      "rhsi": 3764,
      "americas": 3765,
      "sts": 3766,
      "##nb": 3767,
      "pg044": 3768,
      "individ": 3769,
      "nwdn": 3770,
      "wi": 3771,
      "energ": 3772,
      "frequencies": 3773,
      "##burn": 3774,
      "##ington": 3775,
      "##755": 3776,
      "fixes": 3777,
      "involve": 3778,
      "dpc": 3779,
      "1219": 3780,
      "##045": 3781,
      "moumsc2": 3782,
      "forced": 3783,
      "pres": 3784,
      "##218": 3785,
      "nfnd": 3786,
      "mbps": 3787,
      "##iers": 3788,
      "##020": 3789,
      "ml2": 3790,
      "##vcvc": 3791,
      "600": 3792,
      "844": 3793,
      "a04": 3794,
      "##using": 3795,
      "prepare": 3796,
      "crt": 3797,
      "dti": 3798,
      "begin": 3799,
      "1096": 3800,
      "contain": 3801,
      "corrective": 3802,
      "##monton": 3803,
      "##023": 3804,
      "##app": 3805,
      "soft": 3806,
      "##col": 3807,
      "##028": 3808,
      "uplink": 3809,
      "edmonton": 3810,
      "oob": 3811,
      "c25": 3812,
      "##vm": 3813,
      "final": 3814,
      "period": 3815,
      "lerg": 3816,
      "sms": 3817,
      "instr": 3818,
      "gi0": 3819,
      "##law": 3820,
      "follows": 3821,
      "pg019": 3822,
      "orange": 3823,
      "##tember": 3824,
      "1311": 3825,
      "overhead": 3826,
      "send": 3827,
      "tues": 3828,
      "switching": 3829,
      "bank": 3830,
      "g11": 3831,
      "prefix": 3832,
      "september": 3833,
      "1617": 3834,
      "##grad": 3835,
      "carry": 3836,
      "parameters": 3837,
      "occur": 3838,
      "##255": 3839,
      "1544": 3840,
      "noise": 3841,
      "1615": 3842,
      "performance": 3843,
      "loaded": 3844,
      "hit": 3845,
      "csr": 3846,
      "kingston": 3847,
      "like": 3848,
      "yale": 3849,
      "nbed": 3850,
      "##coe": 3851,
      "waterloo": 3852,
      "##greg": 3853,
      "commitment": 3854,
      "##catel": 3855,
      "filter": 3856,
      "wel": 3857,
      "portgroup": 3858,
      "tension": 3859,
      "techs": 3860,
      "resolve": 3861,
      "##047": 3862,
      "5951": 3863,
      "38596000": 3864,
      "##arren": 3865,
      "##x10ge": 3866,
      "ce": 3867,
      "hstr": 3868,
      "vhub": 3869,
      "alcatel": 3870,
      "woodbridge": 3871,
      "dom": 3872,
      "##atro": 3873,
      "mw1": 3874,
      "flx": 3875,
      "##tely": 3876,
      "##hill": 3877,
      "fuj": 3878,
      "tuesday": 3879,
      "fall": 3880,
      "tc": 3881,
      "input": 3882,
      "##urnc1": 3883,
      "mscs": 3884,
      "cambridge": 3885,
      "fw7120": 3886,
      "including": 3887,
      "var": 3888,
      "cost": 3889,
      "cool": 3890,
      "enhance": 3891,
      "c0009e": 3892,
      "flow": 3893,
      "##utions": 3894,
      "august": 3895,
      "missing": 3896,
      "fort": 3897,
      "tm": 3898,
      "##951": 3899,
      "bom": 3900,
      "rbc": 3901,
      "pg039": 3902,
      "##iplex": 3903,
      "midland": 3904,
      "downstream": 3905,
      "ggsn": 3906,
      "##gus": 3907,
      "##cover": 3908,
      "updating": 3909,
      "campb": 3910,
      "ear": 3911,
      "mgw01": 3912,
      "##ane": 3913,
      "5920": 3914,
      "##bury": 3915,
      "gqam": 3916,
      "1001": 3917,
      "245": 3918,
      "pg048": 3919,
      "hos": 3920,
      "mlo": 3921,
      "crit": 3922,
      "strat": 3923,
      "mts": 3924,
      "##ans": 3925,
      "##ings": 3926,
      "1488": 3927,
      "1512": 3928,
      "##134": 3929,
      "209": 3930,
      "internal": 3931,
      "infrastr": 3932,
      "670": 3933,
      "c07": 3934,
      "79": 3935,
      "wide": 3936,
      "1501": 3937,
      "##ift": 3938,
      "tickets": 3939,
      "05lo": 3940,
      "1235": 3941,
      "diplex": 3942,
      "emo": 3943,
      "##cd": 3944,
      "##du": 3945,
      "##448": 3946,
      "meet": 3947,
      "controller": 3948,
      "om": 3949,
      "rt": 3950,
      "##ni": 3951,
      "##123": 3952,
      "1472": 3953,
      "pg047": 3954,
      "smsc": 3955,
      "71": 3956,
      "c26": 3957,
      "##wr": 3958,
      "cms": 3959,
      "ple": 3960,
      "##ement": 3961,
      "##go": 3962,
      "##gon": 3963,
      "##447": 3964,
      "manually": 3965,
      "restore": 3966,
      "infrastructure": 3967,
      "##dd": 3968,
      "##ication": 3969,
      "##ades": 3970,
      "ntp": 3971,
      "instruction": 3972,
      "301": 3973,
      "near": 3974,
      "culvert": 3975,
      "ons": 3976,
      "##288": 3977,
      "eqam044": 3978,
      "mlo2": 3979,
      "##272": 3980,
      "clos": 3981,
      "sun": 3982,
      "##atp": 3983,
      "1473": 3984,
      "pc01": 3985,
      "##ito": 3986,
      "141": 3987,
      "degrad": 3988,
      "cp2": 3989,
      "audits": 3990,
      "##mxq": 3991,
      "facilities": 3992,
      "161": 3993,
      "pg049": 3994,
      "special": 3995,
      "bill": 3996,
      "##flow": 3997,
      "##13a": 3998,
      "pg053": 3999,
      "1445": 4000,
      "cliff": 4001,
      "##130": 4002,
      "05loxx": 4003,
      "cgy": 4004,
      "##141": 4005,
      "alberta": 4006,
      "c37": 4007,
      "darren": 4008,
      "##048": 4009,
      "##122": 4010,
      "reparenting": 4011,
      "1179": 4012,
      "pg038": 4013,
      "error": 4014,
      "arch": 4015,
      "emop": 4016,
      "syn": 4017,
      "pbm": 4018,
      "geor": 4019,
      "##iac": 4020,
      "sem": 4021,
      "##tempt": 4022,
      "evpl": 4023,
      "eol": 4024,
      "far": 4025,
      "w8": 4026,
      "##ty": 4027,
      "##bar": 4028,
      "##band": 4029,
      "##icip": 4030,
      "##166": 4031,
      "##umber": 4032,
      "elap": 4033,
      "configured": 4034,
      "simcoe": 4035,
      "lmxq": 4036,
      "rg": 4037,
      "1616": 4038,
      "pg125": 4039,
      "info": 4040,
      "triband": 4041,
      "bullet": 4042,
      "cooling": 4043,
      "onsite": 4044,
      "nk": 4045,
      "wed": 4046,
      "##083": 4047,
      "receiv": 4048,
      "fro200": 4049,
      "kee": 4050,
      "sele": 4051,
      "foa": 4052,
      "4fp": 4053,
      "bir": 4054,
      "##119": 4055,
      "trk": 4056,
      "campbell": 4057,
      "1401": 4058,
      "alt": 4059,
      "##245": 4060,
      "previously": 4061,
      "burn": 4062,
      "##169": 4063,
      "##ipal": 4064,
      "##144": 4065,
      "w07": 4066,
      "##098": 4067,
      "##110": 4068,
      "nbck": 4069,
      "unused": 4070,
      "forces": 4071,
      "feeds": 4072,
      "proposing": 4073,
      "1618": 4074,
      "nbct": 4075,
      "asw": 4076,
      "c22": 4077,
      "##dc": 4078,
      "##bsc0": 4079,
      "##iversity": 4080,
      "sar": 4081,
      "1015": 4082,
      "##mme00": 4083,
      "analog": 4084,
      "instructions": 4085,
      "kenn": 4086,
      "##ered": 4087,
      "##erling": 4088,
      "##acle": 4089,
      "110": 4090,
      "meas": 4091,
      "mandatory": 4092,
      "##tl": 4093,
      "po001": 4094,
      "##ifax": 4095,
      "industr": 4096,
      "mir": 4097,
      "mall": 4098,
      "##name": 4099,
      "prime": 4100,
      "1600": 4101,
      "content": 4102,
      "##267": 4103,
      "decomm": 4104,
      "radius": 4105,
      "bulletin": 4106,
      "##ound": 4107,
      "ipg": 4108,
      "framing": 4109,
      "##af": 4110,
      "##ven": 4111,
      "5960": 4112,
      "##455": 4113,
      "##049": 4114,
      "eqam052": 4115,
      "##we": 4116,
      "1545": 4117,
      "loop": 4118,
      "##achange": 4119,
      "etc": 4120,
      "otwa": 4121,
      "stratford": 4122,
      "c33": 4123,
      "1308": 4124,
      "seachange": 4125,
      "pg052": 4126,
      "guide": 4127,
      "ssr": 4128,
      "##ict": 4129,
      "cutting": 4130,
      "class": 4131,
      "thanks": 4132,
      "az": 4133,
      "root": 4134,
      "##rew": 4135,
      "dead": 4136,
      "1477": 4137,
      "halifax": 4138,
      "##abled": 4139,
      "##brook": 4140,
      "cnt": 4141,
      "##262": 4142,
      "slots": 4143,
      "ca1": 4144,
      "cra": 4145,
      "spur": 4146,
      "position": 4147,
      "011": 4148,
      "ims": 4149,
      "##075": 4150,
      "254": 4151,
      "blades": 4152,
      "logical": 4153,
      "royal": 4154,
      "2000": 4155,
      "##012": 4156,
      "1547": 4157,
      "##ences": 4158,
      "argus": 4159,
      "99": 4160,
      "##bh": 4161,
      "##den": 4162,
      "##263": 4163,
      "c8": 4164,
      "e2": 4165,
      "##night": 4166,
      "175": 4167,
      "##urnc2": 4168,
      "vrf": 4169,
      "##053": 4170,
      "##152": 4171,
      "83": 4172,
      "go": 4173,
      "x1": 4174,
      "brit": 4175,
      "buff": 4176,
      "sask": 4177,
      "##abling": 4178,
      "users": 4179,
      "loct": 4180,
      "created": 4181,
      "lt": 4182,
      "##lip": 4183,
      "planning": 4184,
      "poau1": 4185,
      "aggreg": 4186,
      "drops": 4187,
      "features": 4188,
      "1519": 4189,
      "proto": 4190,
      "##178": 4191,
      "modems": 4192,
      "1249": 4193,
      "##136": 4194,
      "1313": 4195,
      "##286": 4196,
      "cds": 4197,
      "weld": 4198,
      "##800": 4199,
      "##itate": 4200,
      "1273": 4201,
      "pol": 4202,
      "##nects": 4203,
      "proj": 4204,
      "##243": 4205,
      "maple": 4206,
      "define": 4207,
      "hyr": 4208,
      "boards": 4209,
      "86": 4210,
      "c08": 4211,
      "1239": 4212,
      "enco": 4213,
      "234": 4214,
      "sperling": 4215,
      "emerson": 4216,
      "csd1": 4217,
      "directly": 4218,
      "dus": 4219,
      "e14": 4220,
      "mond": 4221,
      "##cb": 4222,
      "1538": 4223,
      "dgw41": 4224,
      "e0002": 4225,
      "subscriber": 4226,
      "##235": 4227,
      "toroonlqca": 4228,
      "##ica": 4229,
      "237": 4230,
      "command": 4231,
      "##mme1": 4232,
      "individual": 4233,
      "bol": 4234,
      "##ges": 4235,
      "##259": 4236,
      "##sid": 4237,
      "find": 4238,
      "##019": 4239,
      "##ading": 4240,
      "183": 4241,
      "heure": 4242,
      "cp3": 4243,
      "ireland": 4244,
      "monday": 4245,
      "zone": 4246,
      "##lord": 4247,
      "##bour": 4248,
      "auth": 4249,
      "mn": 4250,
      "neigh": 4251,
      "##131": 4252,
      "##148": 4253,
      "memory": 4254,
      "storage": 4255,
      "009": 4256,
      "rau": 4257,
      "##8k": 4258,
      "mtrl": 4259,
      "deficiency": 4260,
      "protocol": 4261,
      "##032": 4262,
      "##iron": 4263,
      "##165": 4264,
      "##ube": 4265,
      "##337": 4266,
      "wednes": 4267,
      "iatp": 4268,
      "##ilt": 4269,
      "rcab": 4270,
      "pg055": 4271,
      "pg056": 4272,
      "splitter": 4273,
      "foc": 4274,
      "##248": 4275,
      "1467": 4276,
      "turned": 4277,
      "taps": 4278,
      "solution": 4279,
      "yes": 4280,
      "##253": 4281,
      "mtu": 4282,
      "togsn": 4283,
      "1535": 4284,
      "operation": 4285,
      "401": 4286,
      "##sive": 4287,
      "##027": 4288,
      "##164": 4289,
      "this": 4290,
      "netco": 4291,
      "wednesday": 4292,
      "300": 4293,
      "aff": 4294,
      "e16": 4295,
      "##o2d": 4296,
      "186": 4297,
      "improvements": 4298,
      "pedest": 4299,
      "taking": 4300,
      "true": 4301,
      "##185": 4302,
      "pg057": 4303,
      "eclip": 4304,
      "gold": 4305,
      "po00": 4306,
      "##086": 4307,
      "##berry": 4308,
      "eqam055": 4309,
      "remaining": 4310,
      "requisite": 4311,
      "##018": 4312,
      "##022": 4313,
      "##igg": 4314,
      "continue": 4315,
      "initiated": 4316,
      "fee": 4317,
      "w28": 4318,
      "##aions": 4319,
      "##pond": 4320,
      "##ald": 4321,
      "try": 4322,
      "##292": 4323,
      "present": 4324,
      "loctaions": 4325,
      "insis": 4326,
      "##043": 4327,
      "##153": 4328,
      "adc": 4329,
      "##133": 4330,
      "10006": 4331,
      "thor": 4332,
      "oracle": 4333,
      "johns": 4334,
      "range": 4335,
      "disconnected": 4336,
      "resource": 4337,
      "85": 4338,
      "##142": 4339,
      "1800": 4340,
      "##183": 4341,
      "measure": 4342,
      "eclipse": 4343,
      "##bone": 4344,
      "poor": 4345,
      "173": 4346,
      "##290": 4347,
      "eqam054": 4348,
      "handover": 4349,
      "##031": 4350,
      "reli": 4351,
      "7210": 4352,
      "##126": 4353,
      "adap": 4354,
      "130": 4355,
      "autom": 4356,
      "206": 4357,
      "##121": 4358,
      "##242": 4359,
      "applied": 4360,
      "##bsc1": 4361,
      "##cre": 4362,
      "##uns": 4363,
      "mox": 4364,
      "manito": 4365,
      "island": 4366,
      "dixie": 4367,
      "97": 4368,
      "##aa": 4369,
      "##257": 4370,
      "##140": 4371,
      "backbone": 4372,
      "w25": 4373,
      "env": 4374,
      "element": 4375,
      "settings": 4376,
      "p2p": 4377,
      "landlord": 4378,
      "c29": 4379,
      "cast": 4380,
      "igw01": 4381,
      "x2": 4382,
      "##mal": 4383,
      "1275": 4384,
      "##151": 4385,
      "##077": 4386,
      "##270": 4387,
      "mins": 4388,
      "shelves": 4389,
      "78": 4390,
      "req": 4391,
      "121": 4392,
      "##itsu": 4393,
      "sae": 4394,
      "vaugh": 4395,
      "##055": 4396,
      "##191": 4397,
      "1539": 4398,
      "bcvan": 4399,
      "james": 4400,
      "session": 4401,
      "mss": 4402,
      "##095": 4403,
      "sta": 4404,
      "##rag": 4405,
      "##imt": 4406,
      "##149": 4407,
      "##276": 4408,
      "##mtn": 4409,
      "arl": 4410,
      "bayview": 4411,
      "included": 4412,
      "recent": 4413,
      "acceptance": 4414,
      "##ene": 4415,
      "##442": 4416,
      "##198": 4417,
      "trav": 4418,
      "##384": 4419,
      "##147": 4420,
      "1042": 4421,
      "##785": 4422,
      "pg058": 4423,
      "involves": 4424,
      "mtrlpq": 4425,
      "ipx": 4426,
      "##172": 4427,
      "trail": 4428,
      "reporting": 4429,
      "bors": 4430,
      "cud": 4431,
      "tom": 4432,
      "ips": 4433,
      "##ellino": 4434,
      "highway": 4435,
      "mil": 4436,
      "##8z": 4437,
      "reconfigure": 4438,
      "attempt": 4439,
      "##231": 4440,
      "##176": 4441,
      "05fix": 4442,
      "c06": 4443,
      "c35": 4444,
      "mer": 4445,
      "##nr": 4446,
      "inten": 4447,
      "pl02": 4448,
      "##274": 4449,
      "syd": 4450,
      "1452": 4451,
      "##iverse": 4452,
      "borsellino": 4453,
      "covers": 4454,
      "basic": 4455,
      "false": 4456,
      "fujitsu": 4457,
      "##dp": 4458,
      "##jj": 4459,
      "eqams": 4460,
      "##pex": 4461,
      "##297": 4462,
      "1479": 4463,
      "emms": 4464,
      "1493": 4465,
      "sce8k": 4466,
      "industrial": 4467,
      "welding": 4468,
      "05fixx": 4469,
      "ve": 4470,
      "locating": 4471,
      "c0031": 4472,
      "extra": 4473,
      "##arden": 4474,
      "##443": 4475,
      "blocks": 4476,
      "##058": 4477,
      "##mision": 4478,
      "forward": 4479,
      "ok": 4480,
      "wal": 4481,
      "##128": 4482,
      "dev": 4483,
      "##158": 4484,
      "lower": 4485,
      "va1": 4486,
      "packet": 4487,
      "urgently": 4488,
      "drywall": 4489,
      "manitoba": 4490,
      "##ris": 4491,
      "subnet": 4492,
      "##180": 4493,
      "advised": 4494,
      "1494": 4495,
      "whit": 4496,
      "##251": 4497,
      "functionality": 4498,
      "reliability": 4499,
      "mag": 4500,
      "##103": 4501,
      "##road": 4502,
      "233": 4503,
      "##097": 4504,
      "nodebs": 4505,
      "##bris": 4506,
      "1499": 4507,
      "accomod": 4508,
      "son": 4509,
      "sil": 4510,
      "##var": 4511,
      "##073": 4512,
      "##146": 4513,
      "util": 4514,
      "flashing": 4515,
      "##010": 4516,
      "incoming": 4517,
      "##093": 4518,
      "##160": 4519,
      "##753": 4520,
      "csa": 4521,
      "critical": 4522,
      "c14": 4523,
      "##usp": 4524,
      "actual": 4525,
      "##279": 4526,
      "able": 4527,
      "person": 4528,
      "##erry": 4529,
      "1598": 4530,
      "debris": 4531,
      "pg054": 4532,
      "##ective": 4533,
      "1403": 4534,
      "eqam057": 4535,
      "convert": 4536,
      "rate": 4537,
      "##156": 4538,
      "import": 4539,
      "tow": 4540,
      "sgs": 4541,
      "ttc": 4542,
      "##ata": 4543,
      "##ention": 4544,
      "remotely": 4545,
      "causing": 4546,
      "queue": 4547,
      "4000": 4548,
      "780": 4549,
      "alex": 4550,
      "rese": 4551,
      "quar": 4552,
      "configurations": 4553,
      "##iam": 4554,
      "action": 4555,
      "##171": 4556,
      "turnc": 4557,
      "fran": 4558,
      "oam": 4559,
      "118": 4560,
      "super": 4561,
      "3514": 4562,
      "lp": 4563,
      "##iqu": 4564,
      "drawings": 4565,
      "##xs": 4566,
      "oc192": 4567,
      "court": 4568,
      "ghz": 4569,
      "late": 4570,
      "inuk": 4571,
      "poal": 4572,
      "1609": 4573,
      "##ards": 4574,
      "6500": 4575,
      "dowe": 4576,
      "happ": 4577,
      "may": 4578,
      "sig": 4579,
      "1624": 4580,
      "##269": 4581,
      "coordinated": 4582,
      "cm000000": 4583,
      "consi": 4584,
      "##168": 4585,
      "sources": 4586,
      "accomodate": 4587,
      "##vo": 4588,
      "soil": 4589,
      "grading": 4590,
      "continu": 4591,
      "74": 4592,
      "mk": 4593,
      "ts": 4594,
      "##xi": 4595,
      "adv": 4596,
      "##076": 4597,
      "##139": 4598,
      "##289": 4599,
      "pg059": 4600,
      "differ": 4601,
      "dhcp": 4602,
      "cip": 4603,
      "##hp": 4604,
      "##138": 4605,
      "##453": 4606,
      "##resh": 4607,
      "flood": 4608,
      "##x10g": 4609,
      "radios": 4610,
      "prair": 4611,
      "w53": 4612,
      "northern": 4613,
      "keith": 4614,
      "modules": 4615,
      "bs": 4616,
      "duct": 4617,
      "nights": 4618,
      "peter": 4619,
      "##ou": 4620,
      "##gu": 4621,
      "##issi": 4622,
      "tool": 4623,
      "##219": 4624,
      "##190": 4625,
      "clair": 4626,
      "roadway": 4627,
      "clusters": 4628,
      "im2024": 4629,
      "fcaps": 4630,
      "recommended": 4631,
      "poal1": 4632,
      "##mr": 4633,
      "##137": 4634,
      "1307": 4635,
      "1537": 4636,
      "multi": 4637,
      "overflow": 4638,
      "cbs": 4639,
      "##eng": 4640,
      "reconnect": 4641,
      "inver": 4642,
      "##adow": 4643,
      "app": 4644,
      "##759": 4645,
      "##756": 4646,
      "cred": 4647,
      "distribut": 4648,
      "scan": 4649,
      "pg137": 4650,
      "epa": 4651,
      "ll": 4652,
      "vir": 4653,
      "scf": 4654,
      "one": 4655,
      "scripting": 4656,
      "##gt": 4657,
      "##298": 4658,
      "rfu": 4659,
      "eqam062": 4660,
      "billing": 4661,
      "if": 4662,
      "##088": 4663,
      "eqam059": 4664,
      "##msc0": 4665,
      "##iel": 4666,
      "##268": 4667,
      "##293": 4668,
      "##350": 4669,
      "eqam058": 4670,
      "visual": 4671,
      "facilitate": 4672,
      "pad": 4673,
      "yah": 4674,
      "pod": 4675,
      "##057": 4676,
      "##061": 4677,
      "##642": 4678,
      "230": 4679,
      "nni": 4680,
      "##c01": 4681,
      "##iting": 4682,
      "##ivate": 4683,
      "##iston": 4684,
      "sdp": 4685,
      "pmr": 4686,
      "##ds1": 4687,
      "popf": 4688,
      "railroad": 4689,
      "validate": 4690,
      "rebooted": 4691,
      "1607": 4692,
      "##shuk": 4693,
      "terti": 4694,
      "##fferlaw": 4695,
      "wellington": 4696,
      "yahoo": 4697,
      "ldf": 4698,
      "sand": 4699,
      "##cle": 4700,
      "##090": 4701,
      "##get": 4702,
      "pefferlaw": 4703,
      "98": 4704,
      "ade": 4705,
      "##red": 4706,
      "##edy": 4707,
      "crq": 4708,
      "##hl": 4709,
      "10085": 4710,
      "jumper": 4711,
      "environ": 4712,
      "quarter": 4713,
      "6am": 4714,
      "bet": 4715,
      "home": 4716,
      "sark": 4717,
      "##ool": 4718,
      "##rett": 4719,
      "##334": 4720,
      "duffer": 4721,
      "priority": 4722,
      "conflicting": 4723,
      "degraded": 4724,
      "intended": 4725,
      "inukshuk": 4726,
      "tertiary": 4727,
      "##275": 4728,
      "migrations": 4729,
      "##179": 4730,
      "eqam053": 4731,
      "turning": 4732,
      "##msc1": 4733,
      "cudb": 4734,
      "dufferin": 4735,
      "##tran": 4736,
      "##026": 4737,
      "##mpg": 4738,
      "eb": 4739,
      "rmh": 4740,
      "walls": 4741,
      "rock": 4742,
      "mournc": 4743,
      "##271": 4744,
      "orangeville": 4745,
      "##017": 4746,
      "altern": 4747,
      "198": 4748,
      "acl": 4749,
      "##261": 4750,
      "provider": 4751,
      "##burg": 4752,
      "coupling": 4753,
      "quarterly": 4754,
      "##124": 4755,
      "poov": 4756,
      "##135": 4757,
      "crs": 4758,
      "model": 4759,
      "csc": 4760,
      "##utting": 4761,
      "##338": 4762,
      "united": 4763,
      "barrett": 4764,
      "##sworth": 4765,
      "mgmt": 4766,
      "##unswick": 4767,
      "poov1": 4768,
      "93": 4769,
      "##gq": 4770,
      "##252": 4771,
      "##034": 4772,
      "##234": 4773,
      "##280": 4774,
      "phone": 4775,
      "##well": 4776,
      "##tevar": 4777,
      "dea": 4778,
      "subs": 4779,
      "w0021": 4780,
      "irat": 4781,
      "vartevar": 4782,
      "different": 4783,
      "wan": 4784,
      "wick": 4785,
      "3gtac": 4786,
      "gear": 4787,
      "domain": 4788,
      "birch": 4789,
      "dun": 4790,
      "fence": 4791,
      "je": 4792,
      "sat": 4793,
      "##her": 4794,
      "##acts": 4795,
      "1405": 4796,
      "##127": 4797,
      "##449": 4798,
      "restor": 4799,
      "otwaon": 4800,
      "mit": 4801,
      "n3": 4802,
      "nat": 4803,
      "xfp": 4804,
      "montek": 4805,
      "##473": 4806,
      "agw06": 4807,
      "eqam060": 4808,
      "maintainer": 4809,
      "azim": 4810,
      "c6": 4811,
      "mich": 4812,
      "pk": 4813,
      "v2": 4814,
      "##182": 4815,
      "rcci": 4816,
      "00000": 4817,
      "##051": 4818,
      "##958": 4819,
      "w56": 4820,
      "reinforcement": 4821,
      "george": 4822,
      "prairie": 4823,
      "##ists": 4824,
      "##rein": 4825,
      "tog": 4826,
      "##ieve": 4827,
      "##240": 4828,
      "configs": 4829,
      "the": 4830,
      "eqam063": 4831,
      "vaughan": 4832,
      "##issian": 4833,
      "credit": 4834,
      "4x": 4835,
      "62": 4836,
      "##do": 4837,
      "##081": 4838,
      "comstock": 4839,
      "##ache": 4840,
      "##ao": 4841,
      "usr": 4842,
      "##239": 4843,
      "enabling": 4844,
      "taken": 4845,
      "environment": 4846,
      "sarkissian": 4847,
      "##atic": 4848,
      "##967": 4849,
      "nbwd": 4850,
      "##ose": 4851,
      "##380": 4852,
      "keele": 4853,
      "cst": 4854,
      "##va": 4855,
      "underc": 4856,
      "tonight": 4857,
      "diplexer": 4858,
      "c28": 4859,
      "ivp": 4860,
      "vag": 4861,
      "##sen": 4862,
      "1521": 4863,
      "augment": 4864,
      "##4500": 4865,
      "integrate": 4866,
      "confirmed": 4867,
      "dmz": 4868,
      "dl": 4869,
      "##pts": 4870,
      "##070": 4871,
      "##283": 4872,
      "205": 4873,
      "##217": 4874,
      "clgr": 4875,
      "below": 4876,
      "clients": 4877,
      "##uy": 4878,
      "##441": 4879,
      "numero": 4880,
      "weston": 4881,
      "fttc": 4882,
      "azimuth": 4883,
      "gp": 4884,
      "minute": 4885,
      "alliston": 4886,
      "refle": 4887,
      "silver": 4888,
      "outs": 4889,
      "sam": 4890,
      "1608": 4891,
      "vanc": 4892,
      "communication": 4893,
      "separate": 4894,
      "e11": 4895,
      "of": 4896,
      "##more": 4897,
      "cmtss": 4898,
      "##cted": 4899,
      "columb": 4900,
      "quam": 4901,
      "l13a": 4902,
      "##amp": 4903,
      "cmt": 4904,
      "##042": 4905,
      "embar": 4906,
      "pg131": 4907,
      "##laim": 4908,
      "##don": 4909,
      "reach": 4910,
      "##035": 4911,
      "const": 4912,
      "##150": 4913,
      "##inets": 4914,
      "##953": 4915,
      "tortek": 4916,
      "sprag": 4917,
      "baseline": 4918,
      "clgrab": 4919,
      "dav": 4920,
      "pick": 4921,
      "nbcm": 4922,
      "##236": 4923,
      "university": 4924,
      "quad": 4925,
      "alignment": 4926,
      "sonet": 4927,
      "embargo": 4928,
      "1g": 4929,
      "855": 4930,
      "n4": 4931,
      "##enet": 4932,
      "##331": 4933,
      "##452": 4934,
      "strings": 4935,
      "hansen": 4936,
      "college": 4937,
      "##284": 4938,
      "bug": 4939,
      "message": 4940,
      "vgw41": 4941,
      "latest": 4942,
      "apex": 4943,
      "harr": 4944,
      "cabinets": 4945,
      "##ray": 4946,
      "##089": 4947,
      "##757": 4948,
      "##291": 4949,
      "etm": 4950,
      "entire": 4951,
      "asp": 4952,
      "aws": 4953,
      "##ny": 4954,
      "##himt": 4955,
      "##pted": 4956,
      "reh": 4957,
      "##457": 4958,
      "##383": 4959,
      "1457": 4960,
      "w54": 4961,
      "contractors": 4962,
      "toroonjj": 4963,
      "c0325": 4964,
      "energize": 4965,
      "82": 4966,
      "1225": 4967,
      "##132": 4968,
      "##143": 4969,
      "010": 4970,
      "accounts": 4971,
      "reboots": 4972,
      "kennedy": 4973,
      "qual": 4974,
      "sbc": 4975,
      "pobl": 4976,
      "##054": 4977,
      "##159": 4978,
      "repairs": 4979,
      "hanging": 4980,
      "vtl": 4981,
      "##758": 4982,
      "pg061": 4983,
      "lakesh": 4984,
      "##wcast": 4985,
      "narrowcast": 4986,
      "pobl1": 4987,
      "lakeshore": 4988,
      "7am": 4989,
      "##099": 4990,
      "##754": 4991,
      "voic": 4992,
      "andrew": 4993,
      "compon": 4994,
      "210": 4995,
      "##ench": 4996,
      "##033": 4997,
      "##162": 4998,
      "equipement": 4999,
      "provisioned": 5000,
      "494": 5001,
      "##cent": 5002,
      "1092": 5003,
      "1254": 5004,
      "coverage": 5005,
      "bolton": 5006,
      "t11": 5007,
      "##u1": 5008,
      "allo": 5009,
      "buffer": 5010,
      "meg": 5011,
      "##umgw1": 5012,
      "nom": 5013,
      "1305": 5014,
      "##277": 5015,
      "##387": 5016,
      "##gress": 5017,
      "700mhz": 5018,
      "market": 5019,
      "protect": 5020,
      "ber": 5021,
      "##atr": 5022,
      "1287": 5023,
      "1619": 5024,
      "perman": 5025,
      "##880": 5026,
      "am1": 5027,
      "bbu": 5028,
      "##ault": 5029,
      "##ords": 5030,
      "rex": 5031,
      "1614": 5032,
      "toumsc": 5033,
      "initial": 5034,
      "asr901": 5035,
      "ow": 5036,
      "##072": 5037,
      "brunswick": 5038,
      "##dson": 5039,
      "beach": 5040,
      "higher": 5041,
      "pedestal": 5042,
      "ol": 5043,
      "##led": 5044,
      "##fers": 5045,
      "##xy": 5046,
      "adam": 5047,
      "town": 5048,
      "##thor": 5049,
      "190": 5050,
      "##247": 5051,
      "modulator": 5052,
      "multic": 5053,
      "pg065": 5054,
      "standby": 5055,
      "accommod": 5056,
      "accommodate": 5057,
      "g1": 5058,
      "##vin": 5059,
      "##037": 5060,
      "##163": 5061,
      "##078": 5062,
      "##vest": 5063,
      "2525": 5064,
      "##249": 5065,
      "##bson": 5066,
      "##487": 5067,
      "289": 5068,
      "airport": 5069,
      "static": 5070,
      "transmitter": 5071,
      "219": 5072,
      "t5": 5073,
      "##087": 5074,
      "1310": 5075,
      "slide": 5076,
      "output": 5077,
      "association": 5078,
      "##gar": 5079,
      "##0238": 5080,
      "imsi": 5081,
      "tournc": 5082,
      "##888": 5083,
      "spare": 5084,
      "##ichi": 5085,
      "kath": 5086,
      "vart": 5087,
      "##036": 5088,
      "states": 5089,
      "connecting": 5090,
      "##222": 5091,
      "##mpc": 5092,
      "reclaim": 5093,
      "configuring": 5094,
      "dn": 5095,
      "e15": 5096,
      "##under": 5097,
      "deb": 5098,
      "117": 5099,
      "##177": 5100,
      "1463": 5101,
      "lane": 5102,
      "automatic": 5103,
      "dts": 5104,
      "ip10": 5105,
      "##189": 5106,
      "##iumc": 5107,
      "prince": 5108,
      "projects": 5109,
      "vancbc": 5110,
      "cpl": 5111,
      "gar": 5112,
      "mb": 5113,
      "star": 5114,
      "1646": 5115,
      "178": 5116,
      "##389": 5117,
      "balance": 5118,
      "fab": 5119,
      "##arth": 5120,
      "##email": 5121,
      "restarted": 5122,
      "89": 5123,
      "dy": 5124,
      "fpp": 5125,
      "s37": 5126,
      "coax": 5127,
      "##339": 5128,
      "##889": 5129,
      "1255": 5130,
      "vaurnc": 5131,
      "pg060": 5132,
      "brook": 5133,
      "apnn": 5134,
      "atm2": 5135,
      "permanent": 5136,
      "##ports": 5137,
      "##145": 5138,
      "csrs": 5139,
      "positions": 5140,
      "congested": 5141,
      "hosp": 5142,
      "6pm": 5143,
      "surr": 5144,
      "vac": 5145,
      "1409": 5146,
      "##181": 5147,
      "##187": 5148,
      "gi3": 5149,
      "failing": 5150,
      "pts": 5151,
      "##bility": 5152,
      "##9k": 5153,
      "robson": 5154,
      "##161": 5155,
      "##read": 5156,
      "##237": 5157,
      "##184": 5158,
      "##478": 5159,
      "wickies": 5160,
      "voicemail": 5161,
      "den": 5162,
      "rule": 5163,
      "sure": 5164,
      "logs": 5165,
      "##336": 5166,
      "supplied": 5167,
      "csde": 5168,
      "c36": 5169,
      "1265": 5170,
      "released": 5171,
      "##285": 5172,
      "##065": 5173,
      "minor": 5174,
      "intermit": 5175,
      "hostname": 5176,
      "adela": 5177,
      "901": 5178,
      "brand": 5179,
      "giv": 5180,
      "##set": 5181,
      "##041": 5182,
      "10065": 5183,
      "##332": 5184,
      "##top": 5185,
      "##199": 5186,
      "##886": 5187,
      "##787": 5188,
      "transfers": 5189,
      "steve": 5190,
      "limited": 5191,
      "poor2": 5192,
      "lat": 5193,
      "l14": 5194,
      "sud": 5195,
      "##ened": 5196,
      "##079": 5197,
      "hsd": 5198,
      "county": 5199,
      "mrh": 5200,
      "kathrein": 5201,
      "hospital": 5202,
      "b8z": 5203,
      "gab": 5204,
      "pay": 5205,
      "vic": 5206,
      "xp": 5207,
      "##wan": 5208,
      "##335": 5209,
      "##ago": 5210,
      "corp": 5211,
      "backups": 5212,
      "rebu": 5213,
      "55dh": 5214,
      "demand": 5215,
      "validation": 5216,
      "b8zs": 5217,
      "812": 5218,
      "c21": 5219,
      "##039": 5220,
      "worked": 5221,
      "##445": 5222,
      "##382": 5223,
      "cleaning": 5224,
      "eqam061": 5225,
      "balanc": 5226,
      "hudson": 5227,
      "detailed": 5228,
      "sigtran": 5229,
      "crq000000": 5230,
      "columbia": 5231,
      "##hd": 5232,
      "dec": 5233,
      "##281": 5234,
      "##385": 5235,
      "##dsb": 5236,
      "esxi": 5237,
      "executed": 5238,
      "hur": 5239,
      "munic": 5240,
      "tan": 5241,
      "tls": 5242,
      "##base": 5243,
      "##pk": 5244,
      "iddd": 5245,
      "early": 5246,
      "5th": 5247,
      "igs": 5248,
      "stage": 5249,
      "##060": 5250,
      "1706": 5251,
      "##440": 5252,
      "meadow": 5253,
      "queens": 5254,
      "intro": 5255,
      "municipal": 5256,
      "push": 5257,
      "##lish": 5258,
      "##2s": 5259,
      "1404": 5260,
      "1236": 5261,
      "upper": 5262,
      "##069": 5263,
      "##197": 5264,
      "##299": 5265,
      "torbsc": 5266,
      "default": 5267,
      "delivery": 5268,
      "hld": 5269,
      "##gle": 5270,
      "##046": 5271,
      "1601": 5272,
      "##066": 5273,
      "##435": 5274,
      "beac": 5275,
      "netcool": 5276,
      "adelaide": 5277,
      "81": 5278,
      "900": 5279,
      "bow": 5280,
      "##itect": 5281,
      "1436": 5282,
      "##ults": 5283,
      "##195": 5284,
      "thunder": 5285,
      "supports": 5286,
      "psap": 5287,
      "truepoint": 5288,
      "sb": 5289,
      "##ana": 5290,
      "##stone": 5291,
      "##tex": 5292,
      "##751": 5293,
      "##956": 5294,
      "##437": 5295,
      "1489": 5296,
      "western": 5297,
      "##tor": 5298,
      "##hr": 5299,
      "##080": 5300,
      "1099": 5301,
      "##959": 5302,
      "outgoing": 5303,
      "blocking": 5304,
      "os10": 5305,
      "hsdpa": 5306,
      "4120": 5307,
      "##att": 5308,
      "##968": 5309,
      "177": 5310,
      "##232": 5311,
      "##193": 5312,
      "##282": 5313,
      "##881": 5314,
      "##aux": 5315,
      "npt00000001": 5316,
      "termination": 5317,
      "seconds": 5318,
      "aggregated": 5319,
      "undercutting": 5320,
      "catch": 5321,
      "##254": 5322,
      "1418": 5323,
      "179": 5324,
      "187": 5325,
      "##266": 5326,
      "crac": 5327,
      "nort": 5328,
      "##01t": 5329,
      "1644": 5330,
      "admin": 5331,
      "trial": 5332,
      "##186": 5333,
      "##174": 5334,
      "forest": 5335,
      "##vcv": 5336,
      "web": 5337,
      "weather": 5338,
      "inverter": 5339,
      "c1": 5340,
      "##067": 5341,
      "##446": 5342,
      "##ook": 5343,
      "##480": 5344,
      "##550": 5345,
      "school": 5346,
      "bac": 5347,
      "cy": 5348,
      "##102": 5349,
      "##fb": 5350,
      "##err": 5351,
      "1433": 5352,
      "1112": 5353,
      "completing": 5354,
      "05himt": 5355,
      "pair": 5356,
      "key": 5357,
      "shooting": 5358,
      "foundation": 5359,
      "701": 5360,
      "ax": 5361,
      "lac": 5362,
      "##ead": 5363,
      "##394": 5364,
      "##463": 5365,
      "flatro": 5366,
      "esf": 5367,
      "offline": 5368,
      "normal": 5369,
      "architect": 5370,
      "miram": 5371,
      "flatrock": 5372,
      "##ster": 5373,
      "pokw": 5374,
      "feeding": 5375,
      "rebuild": 5376,
      "4951": 5377,
      "87": 5378,
      "##o01": 5379,
      "pour": 5380,
      "anticip": 5381,
      "sound": 5382,
      "brad": 5383,
      "##459": 5384,
      "idp": 5385,
      "regular": 5386,
      "sr1": 5387,
      "##bank": 5388,
      "##092": 5389,
      "show": 5390,
      "tracks": 5391,
      "pg126": 5392,
      "holling": 5393,
      "advance": 5394,
      "birchmount": 5395,
      "ft": 5396,
      "vl": 5397,
      "1522": 5398,
      "exits": 5399,
      "dgw20": 5400,
      "w1094": 5401,
      "snow": 5402,
      "rick": 5403,
      "##hod": 5404,
      "##coc": 5405,
      "##ption": 5406,
      "means": 5407,
      "life": 5408,
      "white": 5409,
      "auto": 5410,
      "miramichi": 5411,
      "gran": 5412,
      "tre": 5413,
      "##ung": 5414,
      "al2": 5415,
      "##973": 5416,
      "sync": 5417,
      "1456": 5418,
      "mkvi": 5419,
      "1a": 5420,
      "##iw": 5421,
      "cham": 5422,
      "##unity": 5423,
      "1045": 5424,
      "ocld": 5425,
      "tdm": 5426,
      "eqam064": 5427,
      "barney": 5428,
      "campbellton": 5429,
      "pokw1": 5430,
      "217": 5431,
      "good": 5432,
      "##038": 5433,
      "alg": 5434,
      "scarlettrd": 5435,
      "9th": 5436,
      "##007": 5437,
      "##anning": 5438,
      "1543": 5439,
      "grove": 5440,
      "relocated": 5441,
      "streaming": 5442,
      "harris": 5443,
      "exitsing": 5444,
      "csid": 5445,
      "master": 5446,
      "p1": 5447,
      "rsp": 5448,
      "##db": 5449,
      "cow": 5450,
      "##osa": 5451,
      "247": 5452,
      "method": 5453,
      "rmhlon": 5454,
      "223": 5455,
      "bor": 5456,
      "rim": 5457,
      "mcm": 5458,
      "##444": 5459,
      "##353": 5460,
      "vantek": 5461,
      "fixed": 5462,
      "toroonuy": 5463,
      "enhancements": 5464,
      "hollingsworth": 5465,
      "big": 5466,
      "fwd": 5467,
      "##ole": 5468,
      "##vale": 5469,
      "comments": 5470,
      "##645": 5471,
      "fair": 5472,
      "preparations": 5473,
      "scarborough": 5474,
      "having": 5475,
      "burlington": 5476,
      "gpb": 5477,
      "private": 5478,
      "plus": 5479,
      "tekt": 5480,
      "look": 5481,
      "##town": 5482,
      "##173": 5483,
      "mont": 5484,
      "nortel": 5485,
      "hunt": 5486,
      "##lie": 5487,
      "##062": 5488,
      "activite": 5489,
      "swaps": 5490,
      "conduits": 5491,
      "fabric": 5492,
      "1528": 5493,
      "##044": 5494,
      "16t": 5495,
      "##active": 5496,
      "frame": 5497,
      "##fram": 5498,
      "##cel": 5499,
      "rear": 5500,
      "1420": 5501,
      "1221": 5502,
      "##ily": 5503,
      "##12a": 5504,
      "upcoming": 5505,
      "portable": 5506,
      "##294": 5507,
      "##390": 5508,
      "harden": 5509,
      "cpu": 5510,
      "commerc": 5511,
      "anc": 5512,
      "qs1": 5513,
      "tl": 5514,
      "demo": 5515,
      "##074": 5516,
      "heights": 5517,
      "##482": 5518,
      "span": 5519,
      "carriers": 5520,
      "any": 5521,
      "entails": 5522,
      "##uche": 5523,
      "pleas": 5524,
      "toroonjjca": 5525,
      "##thorpe": 5526,
      "hmtn": 5527,
      "1211": 5528,
      "1274": 5529,
      "##287": 5530,
      "dci": 5531,
      "lighting": 5532,
      "npac": 5533,
      "5pm": 5534,
      "vms": 5535,
      "##sif": 5536,
      "##064": 5537,
      "##483": 5538,
      "edns": 5539,
      "##776": 5540,
      "modem": 5541,
      "16thto": 5542,
      "05fixx801155": 5543,
      "happen": 5544,
      "scf4": 5545,
      "multicast": 5546,
      "bk": 5547,
      "dust": 5548,
      "mater": 5549,
      "tcm": 5550,
      "tube": 5551,
      "1583": 5552,
      "##ador": 5553,
      "##962": 5554,
      "brief": 5555,
      "1014": 5556,
      "transform": 5557,
      "sprague": 5558,
      "55dhxs": 5559,
      "beacon": 5560,
      "il": 5561,
      "nw": 5562,
      "invest": 5563,
      "1312": 5564,
      "erin": 5565,
      "##485": 5566,
      "##780": 5567,
      "record": 5568,
      "hfc": 5569,
      "ib": 5570,
      "##ridge": 5571,
      "##ken": 5572,
      "cmg": 5573,
      "reuse": 5574,
      "##050": 5575,
      "apns": 5576,
      "strath": 5577,
      "international": 5578,
      "5gtac": 5579,
      "intermittent": 5580,
      "commercial": 5581,
      "kit": 5582,
      "od": 5583,
      "rm": 5584,
      "ucs": 5585,
      "vd": 5586,
      "cdt": 5587,
      "tektron": 5588,
      "rss": 5589,
      "##009": 5590,
      "imp": 5591,
      "05dhct": 5592,
      "rso": 5593,
      "personnel": 5594,
      "grade": 5595,
      "lar": 5596,
      "obs": 5597,
      "reduction": 5598,
      "enter": 5599,
      "reports": 5600,
      "229": 5601,
      "##ml": 5602,
      "##964": 5603,
      "##885": 5604,
      "##aud": 5605,
      "midnight": 5606,
      "susp": 5607,
      "##fe": 5608,
      "##anced": 5609,
      "##0205": 5610,
      "sw21": 5611,
      "sea": 5612,
      "built": 5613,
      "edw": 5614,
      "edward": 5615,
      "pg063": 5616,
      "weeks": 5617,
      "fp": 5618,
      "remed": 5619,
      "##igate": 5620,
      "##056": 5621,
      "##iding": 5622,
      "##363": 5623,
      "t238": 5624,
      "adapter": 5625,
      "components": 5626,
      "surrey": 5627,
      "3974": 5628,
      "983": 5629,
      "gall": 5630,
      "tier": 5631,
      "vsr": 5632,
      "1383": 5633,
      "##230": 5634,
      "##aking": 5635,
      "relations": 5636,
      "quest": 5637,
      "vlans": 5638,
      "softlock": 5639,
      "virt": 5640,
      "outside": 5641,
      "edwtek": 5642,
      "wid": 5643,
      "##gate": 5644,
      "##ient": 5645,
      "##ially": 5646,
      "toumgw": 5647,
      "119": 5648,
      "w52": 5649,
      "4220": 5650,
      "014": 5651,
      "##rel": 5652,
      "##so": 5653,
      "##ctc": 5654,
      "##log": 5655,
      "249": 5656,
      "##432": 5657,
      "##434": 5658,
      "c54": 5659,
      "grounding": 5660,
      "quality": 5661,
      "225": 5662,
      "n1": 5663,
      "##bine": 5664,
      "poke": 5665,
      "##082": 5666,
      "1107": 5667,
      "##955": 5668,
      "##887": 5669,
      "##781": 5670,
      "community": 5671,
      "pbms": 5672,
      "regions": 5673,
      "barrier": 5674,
      "dundee": 5675,
      "jj0": 5676,
      "207": 5677,
      "1625": 5678,
      "sept": 5679,
      "##477": 5680,
      "facility": 5681,
      "##ength": 5682,
      "aver": 5683,
      "tag": 5684,
      "##ru": 5685,
      "##bel": 5686,
      "poin": 5687,
      "##068": 5688,
      "##970": 5689,
      "##381": 5690,
      "##376": 5691,
      "##ctors": 5692,
      "identify": 5693,
      "row": 5694,
      "winds": 5695,
      "mileages": 5696,
      "usrm": 5697,
      "biac": 5698,
      "pkw": 5699,
      "wcom": 5700,
      "##vice": 5701,
      "##430": 5702,
      "sports": 5703,
      "spread": 5704,
      "c38": 5705,
      "deer": 5706,
      "1623": 5707,
      "##961": 5708,
      "##9500": 5709,
      "##aker": 5710,
      "thom": 5711,
      "crash": 5712,
      "staff": 5713,
      "json": 5714,
      "rer": 5715,
      "##00c01": 5716,
      "##014": 5717,
      "##969": 5718,
      "coss": 5719,
      "##490": 5720,
      "##493": 5721,
      "gui": 5722,
      "drain": 5723,
      "##mme0": 5724,
      "pleasant": 5725,
      "##yo": 5726,
      "recover": 5727,
      "instance": 5728,
      "##uption": 5729,
      "##connects": 5730,
      "headends": 5731,
      "c56": 5732,
      "deployed": 5733,
      "public": 5734,
      "05loxx801155": 5735,
      "british": 5736,
      "mention": 5737,
      "sas": 5738,
      "1408": 5739,
      "hois": 5740,
      "##976": 5741,
      "##466": 5742,
      "mpg": 5743,
      "records": 5744,
      "##heel": 5745,
      "613": 5746,
      "due": 5747,
      "##059": 5748,
      "##957": 5749,
      "##392": 5750,
      "1474": 5751,
      "windows": 5752,
      "pm01bw": 5753,
      "architecture": 5754,
      "virtual": 5755,
      "625": 5756,
      "m2": 5757,
      "pca": 5758,
      "1655": 5759,
      "##ibr": 5760,
      "brn": 5761,
      "elm": 5762,
      "regina": 5763,
      "geo": 5764,
      "widening": 5765,
      "pokemo": 5766,
      "falls": 5767,
      "##bctc": 5768,
      "installations": 5769,
      "sd1": 5770,
      "disable": 5771,
      "##379": 5772,
      "##sists": 5773,
      "srx": 5774,
      "sund": 5775,
      "##tr": 5776,
      "##mont": 5777,
      "##458": 5778,
      "##431": 5779,
      "csd3": 5780,
      "burnham": 5781,
      "pokemouche": 5782,
      "hester": 5783,
      "lc": 5784,
      "chic": 5785,
      "iptv": 5786,
      "sequ": 5787,
      "##188": 5788,
      "##471": 5789,
      "regist": 5790,
      "pg066": 5791,
      "william": 5792,
      "edmund": 5793,
      "alternate": 5794,
      "pkwy": 5795,
      "bn": 5796,
      "##gan": 5797,
      "238": 5798,
      "1485": 5799,
      "relay": 5800,
      "pg062": 5801,
      "duw": 5802,
      "ota": 5803,
      "members": 5804,
      "closure": 5805,
      "connector": 5806,
      "trfc": 5807,
      "enabled": 5808,
      "##451": 5809,
      "requesting": 5810,
      "shelters": 5811,
      "c53": 5812,
      "combiner": 5813,
      "cm00000003": 5814,
      "721": 5815,
      "8pm": 5816,
      "##063": 5817,
      "##450": 5818,
      "##354": 5819,
      "nfcb": 5820,
      "cpr": 5821,
      "3531": 5822,
      "preventative": 5823,
      "tsppts": 5824,
      "definition": 5825,
      "sre": 5826,
      "1520": 5827,
      "triple": 5828,
      "##361": 5829,
      "##smere": 5830,
      "eqam056": 5831,
      "fw9500": 5832,
      "pg069": 5833,
      "3949": 5834,
      "entre": 5835,
      "renumber": 5836,
      "suite": 5837,
      "willow": 5838,
      "7pm": 5839,
      "derry": 5840,
      "ful": 5841,
      "f4100": 5842,
      "mart": 5843,
      "##241": 5844,
      "##agher": 5845,
      "##783": 5846,
      "qcmtlbw": 5847,
      "##al2": 5848,
      "##965": 5849,
      "170": 5850,
      "gateways": 5851,
      "1500hp": 5852,
      "302": 5853,
      "flex": 5854,
      "pip": 5855,
      "nex": 5856,
      "##ume": 5857,
      "otdr": 5858,
      "pg145": 5859,
      "author": 5860,
      "debut": 5861,
      "remedy": 5862,
      "lk": 5863,
      "rap": 5864,
      "sow": 5865,
      "##eet": 5866,
      "##ats": 5867,
      "##fl": 5868,
      "consists": 5869,
      "##157": 5870,
      "##pso": 5871,
      "##752": 5872,
      "click": 5873,
      "batch": 5874,
      "##782": 5875,
      "boun": 5876,
      "elle": 5877,
      "notre": 5878,
      "demol": 5879,
      "sudbury": 5880,
      "tektronix": 5881,
      "dame": 5882,
      "pim": 5883,
      "r13": 5884,
      "##acs": 5885,
      "1323": 5886,
      "mpc": 5887,
      "neighbor": 5888,
      "012": 5889,
      "bpso": 5890,
      "diverse": 5891,
      "warden": 5892,
      "inn": 5893,
      "181": 5894,
      "##439": 5895,
      "##486": 5896,
      "jane": 5897,
      "regional": 5898,
      "##house": 5899,
      "synch": 5900,
      "265": 5901,
      "hom": 5902,
      "mpe": 5903,
      "wcoc": 5904,
      "##ged": 5905,
      "##966": 5906,
      "##963": 5907,
      "##238": 5908,
      "242": 5909,
      "sym": 5910,
      "070": 5911,
      "threatened": 5912,
      "203": 5913,
      "l12a": 5914,
      "rti": 5915,
      "##154": 5916,
      "cold": 5917,
      "barion": 5918,
      "coordinator": 5919,
      "reconfiguration": 5920,
      "blackberry": 5921,
      "ellesmere": 5922,
      "227": 5923,
      "902": 5924,
      "ae": 5925,
      "##ara": 5926,
      "extern": 5927,
      "##461": 5928,
      "rncs": 5929,
      "ccap": 5930,
      "technolog": 5931,
      "gallagher": 5932,
      "gas": 5933,
      "##ita": 5934,
      "pre5": 5935,
      "1306": 5936,
      "##377": 5937,
      "struct": 5938,
      "40g": 5939,
      "kings": 5940,
      "certain": 5941,
      "schem": 5942,
      "material": 5943,
      "747": 5944,
      "abs": 5945,
      "c34": 5946,
      "xr": 5947,
      "slave": 5948,
      "teks": 5949,
      "deletion": 5950,
      "3952": 5951,
      "gprs": 5952,
      "vs": 5953,
      "##rk": 5954,
      "1443": 5955,
      "uptime": 5956,
      "##084": 5957,
      "10k": 5958,
      "carried": 5959,
      "woodbine": 5960,
      "external": 5961,
      "7th": 5962,
      "##7x": 5963,
      "1402": 5964,
      "1605": 5965,
      "##330": 5966,
      "##iller": 5967,
      "designer": 5968,
      "successfully": 5969,
      "assistance": 5970,
      "salv": 5971,
      "e2e": 5972,
      "burnhamthorpe": 5973,
      "360": 5974,
      "##ng": 5975,
      "##eswick": 5976,
      "apnc": 5977,
      "leak": 5978,
      "1252": 5979,
      "messages": 5980,
      "assigned": 5981,
      "##enry": 5982,
      "1613": 5983,
      "##436": 5984,
      "pg077": 5985,
      "##iere": 5986,
      "lang": 5987,
      "roofing": 5988,
      "ak": 5989,
      "bond": 5990,
      "##bes": 5991,
      "placed": 5992,
      "1596": 5993,
      "activating": 5994,
      "256": 5995,
      "roger": 5996,
      "199": 5997,
      "195": 5998,
      "1049": 5999,
      "##481": 6000,
      "abn": 6001,
      "removals": 6002,
      "poi01": 6003,
      "visi": 6004,
      "called": 6005,
      "windsor": 6006,
      "drainage": 6007,
      "luc": 6008,
      "##yst": 6009,
      "inject": 6010,
      "prel": 6011,
      "##ison": 6012,
      "groom": 6013,
      "pg085": 6014,
      "remain": 6015,
      "execute": 6016,
      "bacc": 6017,
      "edmundston": 6018,
      "keswick": 6019,
      "w29": 6020,
      "x112": 6021,
      "1439": 6022,
      "serve": 6023,
      "##uses": 6024,
      "duplex": 6025,
      "received": 6026,
      "##109": 6027,
      "##esn": 6028,
      "instead": 6029,
      "ros": 6030,
      "coding": 6031,
      "portion": 6032,
      "##479": 6033,
      "##399": 6034,
      "1482": 6035,
      "##492": 6036,
      "opened": 6037,
      "purposes": 6038,
      "solutions": 6039,
      "gqams": 6040,
      "spreadsh": 6041,
      "teksav": 6042,
      "salvador": 6043,
      "5e": 6044,
      "e17": 6045,
      "##lers": 6046,
      "##overs": 6047,
      "##fm": 6048,
      "##eridge": 6049,
      "preca": 6050,
      "disc": 6051,
      "##bound": 6052,
      "shared": 6053,
      "bars": 6054,
      "originator": 6055,
      "hino": 6056,
      "toll": 6057,
      "##lines": 6058,
      "##h1": 6059,
      "##josa": 6060,
      "##ama": 6061,
      "##isf": 6062,
      "1317": 6063,
      "##the": 6064,
      "1044": 6065,
      "dacs": 6066,
      "downtown": 6067,
      "gerald": 6068,
      "983040": 6069,
      "chicago": 6070,
      "hinojosa": 6071,
      "519": 6072,
      "pul": 6073,
      "##sl": 6074,
      "##ites": 6075,
      "cords": 6076,
      "##474": 6077,
      "##ake": 6078,
      "agw41": 6079,
      "enodebs": 6080,
      "properly": 6081,
      "4100": 6082,
      "bra": 6083,
      "pull": 6084,
      "tay": 6085,
      "##sd": 6086,
      "##imin": 6087,
      "##071": 6088,
      "##340": 6089,
      "hwd": 6090,
      "##812": 6091,
      "mcc": 6092,
      "areas": 6093,
      "extend": 6094,
      "pg135": 6095,
      "213": 6096,
      "91": 6097,
      "iur": 6098,
      "squ": 6099,
      "##eration": 6100,
      "##ims": 6101,
      "activations": 6102,
      "1100": 6103,
      "##194": 6104,
      "##170": 6105,
      "##972": 6106,
      "advising": 6107,
      "pdnd": 6108,
      "mgt": 6109,
      "wilson": 6110,
      "cv": 6111,
      "##gra": 6112,
      "shift": 6113,
      "cp1": 6114,
      "parkway": 6115,
      "t237": 6116,
      "teksavv": 6117,
      "211": 6118,
      "ao": 6119,
      "omn": 6120,
      "rigg": 6121,
      "##ised": 6122,
      "1301": 6123,
      "##333": 6124,
      "##648": 6125,
      "##355": 6126,
      "partner": 6127,
      "brown": 6128,
      "overl": 6129,
      "timer": 6130,
      "contains": 6131,
      "##ponder": 6132,
      "travaux": 6133,
      "consider": 6134,
      "questions": 6135,
      "demolition": 6136,
      "mpeg": 6137,
      "aoip": 6138,
      "mms": 6139,
      "##lor": 6140,
      "##ances": 6141,
      "14th": 6142,
      "1437": 6143,
      "##forth": 6144,
      "mobr": 6145,
      "##982": 6146,
      "##mx96003": 6147,
      "craig": 6148,
      "important": 6149,
      "n200": 6150,
      "##ins": 6151,
      "commision": 6152,
      "appl": 6153,
      "expand": 6154,
      "pnct": 6155,
      "respon": 6156,
      "bil": 6157,
      "care": 6158,
      "iuc": 6159,
      "works": 6160,
      "1302": 6161,
      "##374": 6162,
      "implementing": 6163,
      "removable": 6164,
      "vault": 6165,
      "pnpk": 6166,
      "peer": 6167,
      "##tien": 6168,
      "ldap": 6169,
      "pinw": 6170,
      "pickering": 6171,
      "entretien": 6172,
      "g10": 6173,
      "ivr": 6174,
      "mal": 6175,
      "##fg": 6176,
      "1579": 6177,
      "1328": 6178,
      "##ending": 6179,
      "lead": 6180,
      "##359": 6181,
      "relocating": 6182,
      "rerout": 6183,
      "sre11": 6184,
      "spreadsheet": 6185,
      "##125": 6186,
      "##abit": 6187,
      "100base": 6188,
      "##ther": 6189,
      "##456": 6190,
      "coordinate": 6191,
      "pdnd1": 6192,
      "ccs": 6193,
      "pwr": 6194,
      "won": 6195,
      "qams": 6196,
      "swo": 6197,
      "exter": 6198,
      "lte15": 6199,
      "1810": 6200,
      "1016": 6201,
      "3520": 6202,
      "mapped": 6203,
      "jj4": 6204,
      "thorn": 6205,
      "synchron": 6206,
      "aqu": 6207,
      "earth": 6208,
      "pw": 6209,
      "paging": 6210,
      "##hu": 6211,
      "##lop": 6212,
      "1643": 6213,
      "sever": 6214,
      "cnr": 6215,
      "##789": 6216,
      "bugs": 6217,
      "approval": 6218,
      "pg064": 6219,
      "pg133": 6220,
      "pg121": 6221,
      "middle": 6222,
      "##ethernet": 6223,
      "reflectors": 6224,
      "li": 6225,
      "view": 6226,
      "##light": 6227,
      "##wire": 6228,
      "##abgt": 6229,
      "newf": 6230,
      "mogsn": 6231,
      "today": 6232,
      "##884": 6233,
      "##883": 6234,
      "##467": 6235,
      "##367": 6236,
      "creation": 6237,
      "asap": 6238,
      "10gige": 6239,
      "fax": 6240,
      "match": 6241,
      "##116": 6242,
      "##que": 6243,
      "##484": 6244,
      "thro": 6245,
      "unh": 6246,
      "arrange": 6247,
      "w0012": 6248,
      "agm": 6249,
      "snap": 6250,
      "fully": 6251,
      "taylor": 6252,
      "l1": 6253,
      "vip": 6254,
      "##ep": 6255,
      "##ger": 6256,
      "17th": 6257,
      "traps": 6258,
      "monbsc": 6259,
      "##774": 6260,
      "regards": 6261,
      "parenting": 6262,
      "isolated": 6263,
      "nd": 6264,
      "w21": 6265,
      "##grade": 6266,
      "##bb": 6267,
      "##ael": 6268,
      "##ission": 6269,
      "usage": 6270,
      "1202": 6271,
      "1204": 6272,
      "##pec": 6273,
      "portage": 6274,
      "##cg0": 6275,
      "known": 6276,
      "flows": 6277,
      "exterior": 6278,
      "bert": 6279,
      "bene": 6280,
      "uns": 6281,
      "vill": 6282,
      "ws": 6283,
      "1434": 6284,
      "##apping": 6285,
      "une": 6286,
      "pg074": 6287,
      "##venture": 6288,
      "pinwheel": 6289,
      "making": 6290,
      "##vment": 6291,
      "chatr": 6292,
      "trace": 6293,
      "##663": 6294,
      "1055": 6295,
      "kevin": 6296,
      "falling": 6297,
      "##crest": 6298,
      "ace": 6299,
      "own": 6300,
      "##gige": 6301,
      "##atoon": 6302,
      "1677": 6303,
      "246": 6304,
      "ed2": 6305,
      "appropr": 6306,
      "pg091": 6307,
      "pg123": 6308,
      "os11": 6309,
      "collect": 6310,
      "587": 6311,
      "ul": 6312,
      "wnc": 6313,
      "##ience": 6314,
      "##inity": 6315,
      "##ically": 6316,
      "##641": 6317,
      "hops": 6318,
      "modification": 6319,
      "##ttp": 6320,
      "7609": 6321,
      "x1501": 6322,
      "minimal": 6323,
      "pg122": 6324,
      "consum": 6325,
      "separation": 6326,
      "know": 6327,
      "mary": 6328,
      "10th": 6329,
      "##954": 6330,
      "##391": 6331,
      "3525": 6332,
      "x1321": 6333,
      "involvment": 6334,
      "pg157": 6335,
      "mallany": 6336,
      "wncm": 6337,
      "950": 6338,
      "bona": 6339,
      "l6": 6340,
      "vul": 6341,
      "##can": 6342,
      "##700": 6343,
      "##ilts": 6344,
      "trench": 6345,
      "spb": 6346,
      "vaumsc": 6347,
      "coupler": 6348,
      "publish": 6349,
      "fallback": 6350,
      "appropriate": 6351,
      "gra": 6352,
      "xf": 6353,
      "##arily": 6354,
      "plaz": 6355,
      "plumb": 6356,
      "stu": 6357,
      "see": 6358,
      "##386": 6359,
      "unav": 6360,
      "##870": 6361,
      "##box": 6362,
      "crescent": 6363,
      "saskatoon": 6364,
      "576": 6365,
      "rivers": 6366,
      "1675": 6367,
      "1645": 6368,
      "1396": 6369,
      "tou": 6370,
      "##784": 6371,
      "0001": 6372,
      "##661": 6373,
      "29th": 6374,
      "##bourn": 6375,
      "hwdsb": 6376,
      "bonaventure": 6377,
      "288": 6378,
      "bt": 6379,
      "gol": 6380,
      "##oor": 6381,
      "##ute": 6382,
      "proxy": 6383,
      "aux": 6384,
      "##356": 6385,
      "##3602": 6386,
      "pg071": 6387,
      "assets": 6388,
      "spring": 6389,
      "##ricom": 6390,
      "introd": 6391,
      "##bctc000": 6392,
      "iucs": 6393,
      "bad": 6394,
      "my": 6395,
      "##utran": 6396,
      "##ases": 6397,
      "##test": 6398,
      "5917": 6399,
      "ip20": 6400,
      "##978": 6401,
      "1484": 6402,
      "abc": 6403,
      "im228": 6404,
      "phubs": 6405,
      "wideband": 6406,
      "trylon": 6407,
      "vsw": 6408,
      "yard": 6409,
      "##lx1": 6410,
      "100m": 6411,
      "##ump": 6412,
      "##647": 6413,
      "retaining": 6414,
      "csfb": 6415,
      "##791": 6416,
      "##799": 6417,
      "##3400": 6418,
      "1553": 6419,
      "receiving": 6420,
      "mssgon": 6421,
      "walk": 6422,
      "restored": 6423,
      "222": 6424,
      "codes": 6425,
      "trf": 6426,
      "portal": 6427,
      "incon": 6428,
      "surge": 6429,
      "ranges": 6430,
      "##ucts": 6431,
      "increased": 6432,
      "mobility": 6433,
      "delivered": 6434,
      "select": 6435,
      "david": 6436,
      "injection": 6437,
      "newfound": 6438,
      "plaza": 6439,
      "bon": 6440,
      "gen": 6441,
      "ham": 6442,
      "wb": 6443,
      "wash": 6444,
      "##iance": 6445,
      "##a1": 6446,
      "1648": 6447,
      "los": 6448,
      "189": 6449,
      "switched": 6450,
      "folder": 6451,
      "1253": 6452,
      "3602": 6453,
      "agre": 6454,
      "metro": 6455,
      "conducting": 6456,
      "leslie": 6457,
      "cscf": 6458,
      "mrhmon": 6459,
      "esc": 6460,
      "e100": 6461,
      "gwc": 6462,
      "nap": 6463,
      "tas": 6464,
      "##476": 6465,
      "231": 6466,
      "addressing": 6467,
      "rruw": 6468,
      "ec04": 6469,
      "specification": 6470,
      "diam": 6471,
      "initiative": 6472,
      "enhanced": 6473,
      "narrow": 6474,
      "iwo": 6475,
      "os1": 6476,
      "##lh": 6477,
      "cmd": 6478,
      "upl": 6479,
      "exiting": 6480,
      "tosp": 6481,
      "drilling": 6482,
      "ec01": 6483,
      "excavating": 6484,
      "ltd": 6485,
      "touched": 6486,
      "newfoundland": 6487,
      "c17": 6488,
      "fms": 6489,
      "ucc": 6490,
      "w20": 6491,
      "##ii": 6492,
      "##erving": 6493,
      "##ively": 6494,
      "rdi": 6495,
      "ids": 6496,
      "##494": 6497,
      "pg070": 6498,
      "pg073": 6499,
      "x130238": 6500,
      "pineridge": 6501,
      "vagsn": 6502,
      "sunday": 6503,
      "vswr": 6504,
      "baker": 6505,
      "##ear": 6506,
      "ingress": 6507,
      "##dex": 6508,
      "##985": 6509,
      "##358": 6510,
      "##786": 6511,
      "arr": 6512,
      "rebrand": 6513,
      "rhpc": 6514,
      "richard": 6515,
      "volume": 6516,
      "paths": 6517,
      "carrying": 6518,
      "utilization": 6519,
      "rehab": 6520,
      "rmhlonay": 6521,
      "xfps": 6522,
      "464": 6523,
      "pic": 6524,
      "pms": 6525,
      "wnp": 6526,
      "compl": 6527,
      "1303": 6528,
      "as812": 6529,
      "pg086": 6530,
      "pg097": 6531,
      "x1400": 6532,
      "harbour": 6533,
      "fc96": 6534,
      "afin": 6535,
      "asr9k": 6536,
      "cgw20": 6537,
      "farm": 6538,
      "##reshold": 6539,
      "##yx": 6540,
      "1555": 6541,
      "##469": 6542,
      "pg129": 6543,
      "##umgw3": 6544,
      "liv": 6545,
      "mack": 6546,
      "rb": 6547,
      "r14": 6548,
      "rating": 6549,
      "watro": 6550,
      "1242": 6551,
      "repairing": 6552,
      "loads": 6553,
      "spx": 6554,
      "##grp": 6555,
      "defective": 6556,
      "cellular": 6557,
      "canadian": 6558,
      "metrol": 6559,
      "belle": 6560,
      "sts1": 6561,
      "watrous": 6562,
      "kerr": 6563,
      "vsp": 6564,
      "##yption": 6565,
      "##stall": 6566,
      "series": 6567,
      "probe": 6568,
      "##ffe": 6569,
      "come": 6570,
      "1304": 6571,
      "##768": 6572,
      "353": 6573,
      "dropp": 6574,
      "cat6": 6575,
      "vancbcx": 6576,
      "suspected": 6577,
      "unhind": 6578,
      "750": 6579,
      "11th": 6580,
      "##454": 6581,
      "##462": 6582,
      "corruption": 6583,
      "##ktel": 6584,
      "##lands": 6585,
      "whitby": 6586,
      "magaz": 6587,
      "anticipated": 6588,
      "cath": 6589,
      "mike": 6590,
      "##tel": 6591,
      "##arch": 6592,
      "15th": 6593,
      "prec": 6594,
      "##ateral": 6595,
      "##871": 6596,
      "pg082": 6597,
      "pg067": 6598,
      "pmsg": 6599,
      "lists": 6600,
      "ni": 6601,
      "##xn": 6602,
      "1599": 6603,
      "1226": 6604,
      "stack": 6605,
      "deve": 6606,
      "powering": 6607,
      "##882": 6608,
      "notes": 6609,
      "occurr": 6610,
      "target": 6611,
      "togmsc": 6612,
      "1378": 6613,
      "171": 6614,
      "##gcn": 6615,
      "follo": 6616,
      "brid": 6617,
      "cslan": 6618,
      "cron": 6619,
      "##491": 6620,
      "eqam066": 6621,
      "volt": 6622,
      "ditching": 6623,
      "impacts": 6624,
      "bilateral": 6625,
      "benefit": 6626,
      "eutran": 6627,
      "ibm": 6628,
      "1232": 6629,
      "stbs": 6630,
      "##ales": 6631,
      "telica": 6632,
      "ask": 6633,
      "cancell": 6634,
      "feeder": 6635,
      "2100mhz": 6636,
      "indoor": 6637,
      "sheet": 6638,
      "retrofitted": 6639,
      "##sification": 6640,
      "technologies": 6641,
      "mps": 6642,
      "o13": 6643,
      "pile": 6644,
      "##card": 6645,
      "##bitt": 6646,
      "##mer": 6647,
      "##hlr": 6648,
      "##west": 6649,
      "12th": 6650,
      "nops": 6651,
      "stone": 6652,
      "##ola": 6653,
      "1621": 6654,
      "##row": 6655,
      "##quis": 6656,
      "switchover": 6657,
      "clas": 6658,
      "pp001": 6659,
      "##874": 6660,
      "ecs": 6661,
      "1029": 6662,
      "tony": 6663,
      "tcic": 6664,
      "bradford": 6665,
      "wnpg": 6666,
      "famil": 6667,
      "chris": 6668,
      "100g": 6669,
      "trs": 6670,
      "drill": 6671,
      "##urnc3": 6672,
      "nesbitt": 6673,
      "utc": 6674,
      "combiners": 6675,
      "vgw42": 6676,
      "devons": 6677,
      "uplift": 6678,
      "sj": 6679,
      "reject": 6680,
      "##03t": 6681,
      "pre4": 6682,
      "10977": 6683,
      "pnbh": 6684,
      "under": 6685,
      "cbcn": 6686,
      "help": 6687,
      "affects": 6688,
      "##bourne": 6689,
      "diameter": 6690,
      "mi": 6691,
      "pal": 6692,
      "pict": 6693,
      "wr": 6694,
      "yo": 6695,
      "zyo": 6696,
      "##ured": 6697,
      "##arm": 6698,
      "##cope": 6699,
      "##ella": 6700,
      "supported": 6701,
      "npt00000003": 6702,
      "pg138": 6703,
      "7500": 6704,
      "huront": 6705,
      "epl": 6706,
      "iain": 6707,
      "x16": 6708,
      "##igent": 6709,
      "nous": 6710,
      "comms": 6711,
      "equipments": 6712,
      "activated": 6713,
      "##393": 6714,
      "scheduler": 6715,
      "scott": 6716,
      "relieve": 6717,
      "454": 6718,
      "disconnection": 6719,
      "ampl": 6720,
      "aggr": 6721,
      "loopback": 6722,
      "bores": 6723,
      "considered": 6724,
      "215": 6725,
      "306": 6726,
      "fi": 6727,
      "##l1": 6728,
      "there": 6729,
      "numbers": 6730,
      "##794": 6731,
      "vanbsc": 6732,
      "camp": 6733,
      "conducted": 6734,
      "owen": 6735,
      "owned": 6736,
      "unavailable": 6737,
      "8th": 6738,
      "fences": 6739,
      "mus": 6740,
      "zero": 6741,
      "dsx": 6742,
      "eqam42": 6743,
      "##1500": 6744,
      "spid": 6745,
      "transl": 6746,
      "intell": 6747,
      "x120205": 6748,
      "expose": 6749,
      "encoder": 6750,
      "##abitethernet": 6751,
      "dur": 6752,
      "gps": 6753,
      "repe": 6754,
      "1702": 6755,
      "182": 6756,
      "##643": 6757,
      "##986": 6758,
      "##438": 6759,
      "suppl": 6760,
      "electric": 6761,
      "mx96": 6762,
      "estimation": 6763,
      "applicable": 6764,
      "morningside": 6765,
      "commands": 6766,
      "clgrabsp": 6767,
      "synchronization": 6768,
      "bw": 6769,
      "lite": 6770,
      "##108": 6771,
      "##hs": 6772,
      "##vation": 6773,
      "##wpr": 6774,
      "1705": 6775,
      "disrupt": 6776,
      "bea": 6777,
      "sessions": 6778,
      "family": 6779,
      "c45": 6780,
      "ga": 6781,
      "jas": 6782,
      "rig": 6783,
      "wav": 6784,
      "##cgc": 6785,
      "12am": 6786,
      "##olid": 6787,
      "modified": 6788,
      "basin": 6789,
      "1123": 6790,
      "online": 6791,
      "doesn": 6792,
      "eqam065": 6793,
      "operational": 6794,
      "ntk": 6795,
      "large": 6796,
      "cbcngcn": 6797,
      "##cgcg": 6798,
      "ced": 6799,
      "sq": 6800,
      "sie": 6801,
      "##opt": 6802,
      "rdc": 6803,
      "interconnects": 6804,
      "idns": 6805,
      "discover": 6806,
      "scb": 6807,
      "tracking": 6808,
      "caused": 6809,
      "##gn01": 6810,
      "coordination": 6811,
      "evs": 6812,
      "crossing": 6813,
      "ditches": 6814,
      "unlocked": 6815,
      "rgm": 6816,
      "transformation": 6817,
      "unhindered": 6818,
      "778": 6819,
      "br1": 6820,
      "kar": 6821,
      "rgw": 6822,
      "prere": 6823,
      "##tec": 6824,
      "chr": 6825,
      "lot": 6826,
      "11155": 6827,
      "235": 6828,
      "spect": 6829,
      "##prot": 6830,
      "npt00000002": 6831,
      "sch1": 6832,
      "collection": 6833,
      "raise": 6834,
      "350": 6835,
      "bfs": 6836,
      "get": 6837,
      "let": 6838,
      "r4": 6839,
      "##ress": 6840,
      "##espond": 6841,
      "##952": 6842,
      "##vlon": 6843,
      "intra": 6844,
      "jid00000004": 6845,
      "danforth": 6846,
      "w55": 6847,
      "##lam": 6848,
      "##dal2": 6849,
      "1407": 6850,
      "1636": 6851,
      "##ifiers": 6852,
      "##366": 6853,
      "0008": 6854,
      "options": 6855,
      "pg130": 6856,
      "dpon": 6857,
      "mailto": 6858,
      "dure": 6859,
      "last": 6860,
      "t2": 6861,
      "tr1": 6862,
      "##106": 6863,
      "##ili": 6864,
      "##468": 6865,
      "##cont": 6866,
      "w0025": 6867,
      "statut": 6868,
      "limits": 6869,
      "nyc": 6870,
      "consolid": 6871,
      "filters": 6872,
      "touching": 6873,
      "confirmation": 6874,
      "gerry": 6875,
      "defined": 6876,
      "pipes": 6877,
      "wnpgmb": 6878,
      "duree": 6879,
      "##bre": 6880,
      "installs": 6881,
      "1638": 6882,
      "##654": 6883,
      "decomission": 6884,
      "proceder": 6885,
      "##works": 6886,
      "police": 6887,
      "im2024030": 6888,
      "mct": 6889,
      "wos": 6890,
      "##qs": 6891,
      "##ional": 6892,
      "##aser": 6893,
      "##paid": 6894,
      "##fore": 6895,
      "1647": 6896,
      "prefer": 6897,
      "##10g": 6898,
      "##652": 6899,
      "dgw60": 6900,
      "correspond": 6901,
      "2012a": 6902,
      "0050": 6903,
      "speeds": 6904,
      "##venience": 6905,
      "thomas": 6906,
      "ly": 6907,
      "mach": 6908,
      "ry": 6909,
      "##105": 6910,
      "##aby": 6911,
      "##ellow": 6912,
      "instal": 6913,
      "1293": 6914,
      "ross": 6915,
      "1665": 6916,
      "##shaw": 6917,
      "e54": 6918,
      "flag": 6919,
      "pg124": 6920,
      "fci": 6921,
      "msuic": 6922,
      "corpor": 6923,
      "cossor": 6924,
      "cc1": 6925,
      "dor": 6926,
      "ee": 6927,
      "fpc": 6928,
      "lin": 6929,
      "na": 6930,
      "r1": 6931,
      "##ired": 6932,
      "##000bctc000": 6933,
      "##979": 6934,
      "spat": 6935,
      "scot": 6936,
      "procedures": 6937,
      "operating": 6938,
      "handle": 6939,
      "##ursor": 6940,
      "company": 6941,
      "##abgt000": 6942,
      "dropped": 6943,
      "wavier": 6944,
      "705": 6945,
      "a5": 6946,
      "ken": 6947,
      "kam": 6948,
      "t45": 6949,
      "year": 6950,
      "##ta": 6951,
      "revert": 6952,
      "169": 6953,
      "mdr": 6954,
      "cutovers": 6955,
      "1048": 6956,
      "##351": 6957,
      "redir": 6958,
      "pg068": 6959,
      "overall": 6960,
      "sgsns": 6961,
      "peterborough": 6962,
      "##sdv": 6963,
      "precursor": 6964,
      "##protected": 6965,
      "spatial": 6966,
      "3x": 6967,
      "dal": 6968,
      "ef": 6969,
      "mat": 6970,
      "t42": 6971,
      "w7": 6972,
      "##ones": 6973,
      "##inx": 6974,
      "1620": 6975,
      "##1503": 6976,
      "1703": 6977,
      "1534": 6978,
      "##651": 6979,
      "##659": 6980,
      "as3602": 6981,
      "##763": 6982,
      "converter": 6983,
      "concern": 6984,
      "isps": 6985,
      "##hole": 6986,
      "l14a": 6987,
      "payload": 6988,
      "##wa": 6989,
      "cmts76": 6990,
      "mdt": 6991,
      "requests": 6992,
      "##ife": 6993,
      "##373": 6994,
      "##lane": 6995,
      "array": 6996,
      "pg127": 6997,
      "x1418": 6998,
      "proceeding": 6999,
      "travail": 7000,
      "ancaster": 7001,
      "vulner": 7002,
      "##hlr0": 7003,
      "218": 7004,
      "mel": 7005,
      "pst": 7006,
      "connects": 7007,
      "cott": 7008,
      "mdc": 7009,
      "enum": 7010,
      "fox": 7011,
      "##769": 7012,
      "doug": 7013,
      "x132": 7014,
      "excavator": 7015,
      "nyrk": 7016,
      "aura": 7017,
      "corresponding": 7018,
      "085": 7019,
      "g13": 7020,
      "length": 7021,
      "##ery": 7022,
      "nsa": 7023,
      "rose": 7024,
      "##rale": 7025,
      "lost": 7026,
      "10086": 7027,
      "mcl": 7028,
      "tors": 7029,
      "channelized": 7030,
      "particip": 7031,
      "pg072": 7032,
      "reported": 7033,
      "inspect": 7034,
      "requisites": 7035,
      "##mx96004": 7036,
      "measurements": 7037,
      "supplies": 7038,
      "9am": 7039,
      "aware": 7040,
      "boo": 7041,
      "##00000": 7042,
      "##ivale": 7043,
      "1678": 7044,
      "adsl": 7045,
      "colo": 7046,
      "25th": 7047,
      "241": 7048,
      "brgsn": 7049,
      "##357": 7050,
      "dgw42": 7051,
      "##999": 7052,
      "fw4500": 7053,
      "hybr": 7054,
      "ssu": 7055,
      "timber": 7056,
      "##iumb": 7057,
      "mitigate": 7058,
      "riggers": 7059,
      "metrolinx": 7060,
      "prerequis": 7061,
      "nas": 7062,
      "##yz": 7063,
      "lou": 7064,
      "imts": 7065,
      "10003": 7066,
      "1913": 7067,
      "routed": 7068,
      "unprotected": 7069,
      "1459": 7070,
      "manual": 7071,
      "centrale": 7072,
      "1552": 7073,
      "mmsc": 7074,
      "delay": 7075,
      "10622": 7076,
      "##backup": 7077,
      "vpnv": 7078,
      "##hlr1": 7079,
      "obser": 7080,
      "introduce": 7081,
      "kre": 7082,
      "qsm": 7083,
      "##mar": 7084,
      "pri": 7085,
      "coming": 7086,
      "moves": 7087,
      "impacte": 7088,
      "18th": 7089,
      "1101": 7090,
      "changeout": 7091,
      "##984": 7092,
      "sys": 7093,
      "##352": 7094,
      "##499": 7095,
      "audio": 7096,
      "assem": 7097,
      "x1307": 7098,
      "standards": 7099,
      "tekelecs": 7100,
      "x1219": 7101,
      "please": 7102,
      "latency": 7103,
      "lucent": 7104,
      "commscope": 7105,
      "ct1": 7106,
      "gal": 7107,
      "pvc": 7108,
      "##8208": 7109,
      "cmts44": 7110,
      "ns1": 7111,
      "1542": 7112,
      "alb": 7113,
      "also": 7114,
      "##ifi": 7115,
      "##977": 7116,
      "edson": 7117,
      "##761": 7118,
      "1124": 7119,
      "eslan": 7120,
      "investig": 7121,
      "hurontario": 7122,
      "siebel": 7123,
      "lights": 7124,
      "lbh": 7125,
      "tab": 7126,
      "##lea": 7127,
      "##ips": 7128,
      "swact": 7129,
      "lee": 7130,
      "sd2": 7131,
      "emg": 7132,
      "##encing": 7133,
      "e52": 7134,
      "1054": 7135,
      "netricom": 7136,
      "signed": 7137,
      "scarlet": 7138,
      "omni": 7139,
      "kirk": 7140,
      "rue": 7141,
      "yellow": 7142,
      "##fo": 7143,
      "eqam44": 7144,
      "1212": 7145,
      "1637": 7146,
      "24th": 7147,
      "tasks": 7148,
      "damage": 7149,
      "sfps": 7150,
      "intelligent": 7151,
      "math": 7152,
      "q1": 7153,
      "v3": 7154,
      "##cor": 7155,
      "inactive": 7156,
      "1206": 7157,
      "1674": 7158,
      "grow": 7159,
      "pg075": 7160,
      "##6601": 7161,
      "3574": 7162,
      "4500": 7163,
      "##ucch": 7164,
      "extender": 7165,
      "harmonic": 7166,
      "combining": 7167,
      "##rum": 7168,
      "##ios": 7169,
      "1446": 7170,
      "im23": 7171,
      "1971": 7172,
      "##368": 7173,
      "decommision": 7174,
      "vert": 7175,
      "argent": 7176,
      "##682": 7177,
      "pdt": 7178,
      "terminal": 7179,
      "hubs": 7180,
      "cxp": 7181,
      "pg146": 7182,
      "jean": 7183,
      "thornhill": 7184,
      "4r": 7185,
      "asi": 7186,
      "n207": 7187,
      "smpc": 7188,
      "t4": 7189,
      "t117": 7190,
      "##mk": 7191,
      "##8008": 7192,
      "##teth": 7193,
      "image": 7194,
      "##aine": 7195,
      "##ista": 7196,
      "brt": 7197,
      "modern": 7198,
      "grp": 7199,
      "0005": 7200,
      "bays": 7201,
      "engineer": 7202,
      "towns": 7203,
      "cedar": 7204,
      "015": 7205,
      "vt1": 7206,
      "##uf": 7207,
      "##gers": 7208,
      "##3c": 7209,
      "revis": 7210,
      "##around": 7211,
      "demod": 7212,
      "##cepted": 7213,
      "exem": 7214,
      "soon": 7215,
      "##crib": 7216,
      "pnmh": 7217,
      "brock": 7218,
      "##loops": 7219,
      "transmitters": 7220,
      "given": 7221,
      "develop": 7222,
      "young": 7223,
      "disruption": 7224,
      "spectrum": 7225,
      "henry": 7226,
      "jack": 7227,
      "##ait": 7228,
      "##alo": 7229,
      "compos": 7230,
      "cnteth": 7231,
      "##653": 7232,
      "##489": 7233,
      "export": 7234,
      "unified": 7235,
      "##4679": 7236,
      "##992": 7237,
      "redes": 7238,
      "arm": 7239,
      "tdc": 7240,
      "5510": 7241,
      "3925": 7242,
      "pg090": 7243,
      "##aven": 7244,
      "wayne": 7245,
      "aspect": 7246,
      "cycle": 7247,
      "rpp": 7248,
      "sbs": 7249,
      "##w01": 7250,
      "10055": 7251,
      "mcf": 7252,
      "pg076": 7253,
      "pned": 7254,
      "receiver": 7255,
      "conserving": 7256,
      "recommendation": 7257,
      "passive": 7258,
      "princ": 7259,
      "hosts": 7260,
      "rules": 7261,
      "commisioning": 7262,
      "abcgy": 7263,
      "g0": 7264,
      "wor": 7265,
      "##life": 7266,
      "##alle": 7267,
      "conn": 7268,
      "1604": 7269,
      "workaround": 7270,
      "cos": 7271,
      "243": 7272,
      "unable": 7273,
      "rbs6601": 7274,
      "lineup": 7275,
      "ec03": 7276,
      "psn": 7277,
      "pulling": 7278,
      "growth": 7279,
      "redesign": 7280,
      "l31": 7281,
      "sct": 7282,
      "1209": 7283,
      "##onder": 7284,
      "##987": 7285,
      "disabled": 7286,
      "1487": 7287,
      "trunking": 7288,
      "05dhat9": 7289,
      "temporarily": 7290,
      "daqs": 7291,
      "definitions": 7292,
      "##800807": 7293,
      "1b": 7294,
      "bmc": 7295,
      "hiding": 7296,
      "lth": 7297,
      "capt": 7298,
      "##657": 7299,
      "pho": 7300,
      "attachment": 7301,
      "##izon": 7302,
      "pg098": 7303,
      "rooftop": 7304,
      "1967": 7305,
      "complexity": 7306,
      "##brooke": 7307,
      "mhsb": 7308,
      "rgweth": 7309,
      "8001": 7310,
      "lh": 7311,
      "sid": 7312,
      "##usi": 7313,
      "##enter": 7314,
      "##lot": 7315,
      "1502": 7316,
      "1597": 7317,
      "##olis": 7318,
      "##reg": 7319,
      "adr": 7320,
      "expl": 7321,
      "1715": 7322,
      "239": 7323,
      "##inder": 7324,
      "1492": 7325,
      "ml6": 7326,
      "##683": 7327,
      "amel": 7328,
      "cert": 7329,
      "resolved": 7330,
      "demux": 7331,
      "diagno": 7332,
      "mips": 7333,
      "churchill": 7334,
      "tensions": 7335,
      "recently": 7336,
      "structural": 7337,
      "kamloops": 7338,
      "nav": 7339,
      "song": 7340,
      "vn": 7341,
      "vvm": 7342,
      "##ew": 7343,
      "##175": 7344,
      "##9000": 7345,
      "##hrs": 7346,
      "##worth": 7347,
      "epg": 7348,
      "##656": 7349,
      "wires": 7350,
      "joint": 7351,
      "##872": 7352,
      "contracted": 7353,
      "pg083": 7354,
      "##liffe": 7355,
      "spruce": 7356,
      "sunlife": 7357,
      "##mpg0": 7358,
      "argentia": 7359,
      "lir": 7360,
      "r2": 7361,
      "tao": 7362,
      "##ration": 7363,
      "##ser": 7364,
      "##dn": 7365,
      "1412": 7366,
      "##ss00": 7367,
      "extre": 7368,
      "##2112": 7369,
      "depend": 7370,
      "detect": 7371,
      "netbackup": 7372,
      "colocate": 7373,
      "##aughlin": 7374,
      "visibility": 7375,
      "jasper": 7376,
      "prerequisite": 7377,
      "diagnost": 7378,
      "bics": 7379,
      "dmc": 7380,
      "lvd": 7381,
      "s15": 7382,
      "##sip": 7383,
      "1423": 7384,
      "1602": 7385,
      "019": 7386,
      "trigg": 7387,
      "erbs": 7388,
      "##minster": 7389,
      "##681": 7390,
      "documentation": 7391,
      "msdp": 7392,
      "handling": 7393,
      "execution": 7394,
      "problems": 7395,
      "pg151": 7396,
      "g15": 7397,
      "hl": 7398,
      "vf": 7399,
      "##720": 7400,
      "mocn": 7401,
      "##rane": 7402,
      "##axe": 7403,
      "describ": 7404,
      "pg087": 7405,
      "fw1": 7406,
      "apg40": 7407,
      "generate": 7408,
      "x1314": 7409,
      "associations": 7410,
      "##change": 7411,
      "winston": 7412,
      "polar": 7413,
      "vdgw": 7414,
      "renumbering": 7415,
      "fle": 7416,
      "gnb": 7417,
      "hat": 7418,
      "iub": 7419,
      "kan": 7420,
      "pending": 7421,
      "##arlane": 7422,
      "stability": 7423,
      "leon": 7424,
      "##773": 7425,
      "corrected": 7426,
      "pg128": 7427,
      "processes": 7428,
      "mah": 7429,
      "console": 7430,
      "##hoe": 7431,
      "raid": 7432,
      "hello": 7433,
      "hrsdc": 7434,
      "2334679": 7435,
      "inconvenience": 7436,
      "450": 7437,
      "bed": 7438,
      "cather": 7439,
      "##inger": 7440,
      "##abella": 7441,
      "1262": 7442,
      "probes": 7443,
      "noted": 7444,
      "##989": 7445,
      "##372": 7446,
      "results": 7447,
      "gigabitethernet": 7448,
      "isns": 7449,
      "respect": 7450,
      "##ittle": 7451,
      "n300": 7452,
      "gabe": 7453,
      "voltage": 7454,
      "4x10ge": 7455,
      "away": 7456,
      "hall": 7457,
      "##orn": 7458,
      "##stin": 7459,
      "##fort": 7460,
      "01am": 7461,
      "accepted": 7462,
      "swapping": 7463,
      "labelling": 7464,
      "##371": 7465,
      "2125": 7466,
      "##993": 7467,
      "contract": 7468,
      "restar": 7469,
      "sce4": 7470,
      "sr11": 7471,
      "##relation": 7472,
      "avertex": 7473,
      "aa": 7474,
      "gom": 7475,
      "r5": 7476,
      "##zie": 7477,
      "plate": 7478,
      "1510": 7479,
      "caps": 7480,
      "spliced": 7481,
      "##ifications": 7482,
      "crack": 7483,
      "dtc": 7484,
      "##684": 7485,
      "isabella": 7486,
      "ec02": 7487,
      "##iorer": 7488,
      "t239": 7489,
      "respective": 7490,
      "distributel": 7491,
      "hmtnon": 7492,
      "teksavvy": 7493,
      "stuart": 7494,
      "ameliorer": 7495,
      "6th": 7496,
      "8200": 7497,
      "bg": 7498,
      "kip": 7499,
      "smts": 7500,
      "##1000": 7501,
      "##7z": 7502,
      "##dy": 7503,
      "##urt": 7504,
      "##aco": 7505,
      "19th": 7506,
      "union": 7507,
      "dgws": 7508,
      "##777": 7509,
      "quick": 7510,
      "anch": 7511,
      "pg134": 7512,
      "pg095": 7513,
      "half": 7514,
      "enclosures": 7515,
      "merivale": 7516,
      "constant": 7517,
      "ntk5": 7518,
      "cator": 7519,
      "meter": 7520,
      "##hib": 7521,
      "16ch": 7522,
      "comwave": 7523,
      "253": 7524,
      "1530": 7525,
      "spad": 7526,
      "##370": 7527,
      "##arry": 7528,
      "oci": 7529,
      "##680": 7530,
      "e53": 7531,
      "optimum": 7532,
      "buffalo": 7533,
      "distributed": 7534,
      "toumsc3": 7535,
      "preferred": 7536,
      "c44": 7537,
      "c47": 7538,
      "dall": 7539,
      "hills": 7540,
      "jar": 7541,
      "smit": 7542,
      "##lton": 7543,
      "##oles": 7544,
      "##nam": 7545,
      "##fa": 7546,
      "##icine": 7547,
      "1300": 7548,
      "seen": 7549,
      "##cook": 7550,
      "shall": 7551,
      "shif": 7552,
      "1105": 7553,
      "24v": 7554,
      "contacts": 7555,
      "##369": 7556,
      "0600": 7557,
      "disconnections": 7558,
      "pg158": 7559,
      "dixon": 7560,
      "frank": 7561,
      "tools": 7562,
      "##2s7": 7563,
      "amplifier": 7564,
      "lasting": 7565,
      "mcfarlane": 7566,
      "principal": 7567,
      "dallas": 7568,
      "013": 7569,
      "daw": 7570,
      "gary": 7571,
      "w22": 7572,
      "##tim": 7573,
      "##u2": 7574,
      "##block": 7575,
      "dsan": 7576,
      "stj": 7577,
      "##aga": 7578,
      "opc": 7579,
      "occurs": 7580,
      "medicine": 7581,
      "400d": 7582,
      "measurement": 7583,
      "sbg": 7584,
      "spadina": 7585,
      "7120": 7586,
      "866": 7587,
      "bd": 7588,
      "ey": 7589,
      "little": 7590,
      "sap": 7591,
      "##uck": 7592,
      "##onb": 7593,
      "nsg9000": 7594,
      "1626": 7595,
      "1663": 7596,
      "cote": 7597,
      "193": 7598,
      "262": 7599,
      "creating": 7600,
      "##868": 7601,
      "##740": 7602,
      "ins3": 7603,
      "fixing": 7604,
      "mmes": 7605,
      "utran": 7606,
      "n203": 7607,
      "syniverse": 7608,
      "toroonlqca0": 7609,
      "scheme": 7610,
      "through": 7611,
      "village": 7612,
      "35396000": 7613,
      "getting": 7614,
      "mclaughlin": 7615,
      "475": 7616,
      "801": 7617,
      "b1": 7618,
      "rework": 7619,
      "nec": 7620,
      "5950": 7621,
      "prepaid": 7622,
      "upgd": 7623,
      "transp": 7624,
      "23rd": 7625,
      "14685": 7626,
      "rfgws": 7627,
      "mavis": 7628,
      "charge": 7629,
      "100977": 7630,
      "muxponder": 7631,
      "balancing": 7632,
      "martin": 7633,
      "##fre": 7634,
      "2521": 7635,
      "trm": 7636,
      "save": 7637,
      "bott": 7638,
      "261": 7639,
      "##990": 7640,
      "rebooting": 7641,
      "integrated": 7642,
      "##press": 7643,
      "improved": 7644,
      "identification": 7645,
      "preventive": 7646,
      "passw": 7647,
      "targe": 7648,
      "mtrlpqq": 7649,
      "cpe": 7650,
      "g112": 7651,
      "jose": 7652,
      "n206": 7653,
      "watch": 7654,
      "##aod": 7655,
      "##0001": 7656,
      "##urray": 7657,
      "##annia": 7658,
      "1210": 7659,
      "chme": 7660,
      "##000abgt000": 7661,
      "197": 7662,
      "tri": 7663,
      "##867": 7664,
      "pg081": 7665,
      "assum": 7666,
      "providing": 7667,
      "smc": 7668,
      "t116": 7669,
      "eqam071": 7670,
      "burnaby": 7671,
      "dyas": 7672,
      "reroute": 7673,
      "belleville": 7674,
      "cc1013": 7675,
      "restarts": 7676,
      "dvis": 7677,
      "ever": 7678,
      "fish": 7679,
      "g4": 7680,
      "lnp": 7681,
      "rct": 7682,
      "smo": 7683,
      "tw": 7684,
      "##lb": 7685,
      "##cl": 7686,
      "##anner": 7687,
      "1234": 7688,
      "stud": 7689,
      "impls": 7690,
      "ali": 7691,
      "##668": 7692,
      "reasons": 7693,
      "structure": 7694,
      "##board": 7695,
      "gi1": 7696,
      "overnight": 7697,
      "3330": 7698,
      "touches": 7699,
      "w2616": 7700,
      "specialist": 7701,
      "dnp": 7702,
      "d1503": 7703,
      "lace": 7704,
      "s01": 7705,
      "##ese": 7706,
      "12f": 7707,
      "1296": 7708,
      "1669": 7709,
      "11185": 7710,
      "rcats": 7711,
      "incor": 7712,
      "warm": 7713,
      "##991": 7714,
      "scp": 7715,
      "##873": 7716,
      "##rong": 7717,
      "##olog": 7718,
      "applications": 7719,
      "complexes": 7720,
      "rns100": 7721,
      "cgn3": 7722,
      "classical": 7723,
      "authent": 7724,
      "05himt8": 7725,
      "d150330": 7726,
      "788": 7727,
      "bdc": 7728,
      "pet": 7729,
      "##cis": 7730,
      "##dge": 7731,
      "re1": 7732,
      "tormsc": 7733,
      "clim": 7734,
      "headline": 7735,
      "##seq": 7736,
      "four": 7737,
      "correctly": 7738,
      "purch": 7739,
      "firew": 7740,
      "download": 7741,
      "rectifiers": 7742,
      "rsl": 7743,
      "##snap": 7744,
      "ldp": 7745,
      "23700000": 7746,
      "reseat": 7747,
      "cmt09": 7748,
      "mkviii": 7749,
      "langley": 7750,
      "800106": 7751,
      "1960": 7752,
      "555": 7753,
      "720": 7754,
      "eas": 7755,
      "##bon": 7756,
      "##ang": 7757,
      "1201": 7758,
      "additions": 7759,
      "apolog": 7760,
      "grims": 7761,
      "0006": 7762,
      "2625": 7763,
      "opening": 7764,
      "finished": 7765,
      "towers": 7766,
      "##vcvs": 7767,
      "grande": 7768,
      "prelaod": 7769,
      "exempted": 7770,
      "sctp": 7771,
      "grimsby": 7772,
      "3am": 7773,
      "ans": 7774,
      "ded": 7775,
      "tal": 7776,
      "nel": 7777,
      "##iling": 7778,
      "advan": 7779,
      "ip2": 7780,
      "allocation": 7781,
      "##649": 7782,
      "cord": 7783,
      "pg078": 7784,
      "##792": 7785,
      "verified": 7786,
      "relache": 7787,
      "##869": 7788,
      "terr": 7789,
      "jamie": 7790,
      "n202": 7791,
      "britannia": 7792,
      "sequence": 7793,
      "neighboring": 7794,
      "firewalls": 7795,
      "advanced": 7796,
      "504": 7797,
      "div": 7798,
      "her": 7799,
      "hib": 7800,
      "rnd": 7801,
      "##416": 7802,
      "##pi": 7803,
      "placing": 7804,
      "1421": 7805,
      "20th": 7806,
      "##izing": 7807,
      "##enced": 7808,
      "fec": 7809,
      "10306": 7810,
      "etu": 7811,
      "basement": 7812,
      "sherbrooke": 7813,
      "vicinity": 7814,
      "bn7": 7815,
      "square": 7816,
      "auxili": 7817,
      "respectively": 7818,
      "dw": 7819,
      "e07": 7820,
      "gmpc": 7821,
      "jim": 7822,
      "rain": 7823,
      "udp": 7824,
      "wrong": 7825,
      "xx": 7826,
      "zod": 7827,
      "##nn": 7828,
      "dsl": 7829,
      "1435": 7830,
      "uppc": 7831,
      "##646": 7832,
      "permit": 7833,
      "##65a": 7834,
      "10114": 7835,
      "##793": 7836,
      "manhole": 7837,
      "avs": 7838,
      "arp": 7839,
      "pcn": 7840,
      "rsbm": 7841,
      "##aneous": 7842,
      "chamcook": 7843,
      "oda": 7844,
      "enterpr": 7845,
      "tsppts01": 7846,
      "g10b": 7847,
      "vaumsc3": 7848,
      "zodiac": 7849,
      "888": 7850,
      "cit": 7851,
      "dial": 7852,
      "evol": 7853,
      "paint": 7854,
      "wy": 7855,
      "##ential": 7856,
      "##chester": 7857,
      "1712": 7858,
      "017": 7859,
      "backhoe": 7860,
      "1111": 7861,
      "##658": 7862,
      "interfer": 7863,
      "grace": 7864,
      "mounting": 7865,
      "schxx": 7866,
      "country": 7867,
      "michael": 7868,
      "auxiliary": 7869,
      "275": 7870,
      "601": 7871,
      "c39": 7872,
      "lag": 7873,
      "till": 7874,
      "##iq": 7875,
      "##ato": 7876,
      "##ira": 7877,
      "1575": 7878,
      "##temp": 7879,
      "store": 7880,
      "mcco": 7881,
      "1327": 7882,
      "10m": 7883,
      "emm": 7884,
      "##ernia": 7885,
      "oc12": 7886,
      "fw4100": 7887,
      "nmx": 7888,
      "to5iumc": 7889,
      "csdx": 7890,
      "ciktel": 7891,
      "watermark": 7892,
      "100017": 7893,
      "nc1500": 7894,
      "##ique": 7895,
      "lkf": 7896,
      "cg": 7897,
      "es1": 7898,
      "p14": 7899,
      "psp": 7900,
      "yy": 7901,
      "##ror": 7902,
      "##ha": 7903,
      "activi": 7904,
      "unre": 7905,
      "avail": 7906,
      "insfram": 7907,
      "w0001": 7908,
      "directed": 7909,
      "excavate": 7910,
      "##dhct": 7911,
      "integra": 7912,
      "isolation": 7913,
      "flx4100": 7914,
      "ldf4": 7915,
      "hibernia": 7916,
      "285": 7917,
      "gn": 7918,
      "pq": 7919,
      "was": 7920,
      "##cpe": 7921,
      "##rp": 7922,
      "##104": 7923,
      "##vine": 7924,
      "##vair": 7925,
      "##vgq": 7926,
      "##wp": 7927,
      "##eson": 7928,
      "##sible": 7929,
      "1205": 7930,
      "1291": 7931,
      "po002": 7932,
      "stps": 7933,
      "ipsm": 7934,
      "1713": 7935,
      "spdr": 7936,
      "vaumgw3": 7937,
      "c52": 7938,
      "teams": 7939,
      "afg": 7940,
      "##800167": 7941,
      "consumer": 7942,
      "psnfram": 7943,
      "gard": 7944,
      "gbe": 7945,
      "las": 7946,
      "##nnb": 7947,
      "##h00": 7948,
      "##ze": 7949,
      "newbridge": 7950,
      "##02t": 7951,
      "1400": 7952,
      "1549": 7953,
      "mtn": 7954,
      "exact": 7955,
      "exhib": 7956,
      "pto": 7957,
      "##983": 7958,
      "orch": 7959,
      "1554": 7960,
      "otl": 7961,
      "ldf2": 7962,
      "authorized": 7963,
      "precautions": 7964,
      "modernization": 7965,
      "vdgw50": 7966,
      "ainger": 7967,
      "gsr": 7968,
      "pch": 7969,
      "rj": 7970,
      "sst": 7971,
      "##ared": 7972,
      "1109": 7973,
      "##762": 7974,
      "caumgw1": 7975,
      "##t1ax": 7976,
      "eqam067": 7977,
      "otr": 7978,
      "wholes": 7979,
      "encyption": 7980,
      "##1014": 7981,
      "catal": 7982,
      "beginning": 7983,
      "consist": 7984,
      "bowman": 7985,
      "innisf": 7986,
      "vulnerability": 7987,
      "kipling": 7988,
      "e19": 7989,
      "h1": 7990,
      "nhl": 7991,
      "ou": 7992,
      "t3": 7993,
      "tata": 7994,
      "##ri": 7995,
      "##uille": 7996,
      "##bly": 7997,
      "##nat": 7998,
      "##hal": 7999,
      "##ares": 8000,
      "##upted": 8001,
      "acces": 8002,
      "epc": 8003,
      "##achable": 8004,
      "10113": 8005,
      "expect": 8006,
      "##770": 8007,
      "steph": 8008,
      "elgin": 8009,
      "front": 8010,
      "condens": 8011,
      "disconnecting": 8012,
      "miscell": 8013,
      "terminating": 8014,
      "primus": 8015,
      "gw03": 8016,
      "covered": 8017,
      "shows": 8018,
      "mrhmonb": 8019,
      "dedicated": 8020,
      "##vaird": 8021,
      "cag": 8022,
      "gord": 8023,
      "##rack": 8024,
      "inbound": 8025,
      "pris": 8026,
      "chill": 8027,
      "13a": 8028,
      "1709": 8029,
      "##sec": 8030,
      "builts": 8031,
      "fraser": 8032,
      "ange": 8033,
      "mgws": 8034,
      "couplers": 8035,
      "xpic": 8036,
      "magazine": 8037,
      "048": 8038,
      "cache": 8039,
      "dess": 8040,
      "hist": 8041,
      "vista": 8042,
      "w0": 8043,
      "##oned": 8044,
      "##amd": 8045,
      "13th": 8046,
      "1711": 8047,
      "faults": 8048,
      "cancel": 8049,
      "plane": 8050,
      "flr": 8051,
      "mobil": 8052,
      "flashwave": 8053,
      "millwood": 8054,
      "passport": 8055,
      "encount": 8056,
      "castle": 8057,
      "points": 8058,
      "bonding": 8059,
      "golf": 8060,
      "mccowan": 8061,
      "unreachable": 8062,
      "404": 8063,
      "g2": 8064,
      "mnc": 8065,
      "mask": 8066,
      "rax": 8067,
      "1266": 8068,
      "circle": 8069,
      "edtn": 8070,
      "bovaird": 8071,
      "22nd": 8072,
      "steven": 8073,
      "generated": 8074,
      "misc": 8075,
      "pg092": 8076,
      "ashburn": 8077,
      "jid00000005": 8078,
      "fuel": 8079,
      "dul20": 8080,
      "bigip": 8081,
      "nexus": 8082,
      "development": 8083,
      "077": 8084,
      "802": 8085,
      "cvm": 8086,
      "das": 8087,
      "hay": 8088,
      "##rc": 8089,
      "##ghz": 8090,
      "reve": 8091,
      "installl": 8092,
      "1664": 8093,
      "share": 8094,
      "##655": 8095,
      "##971": 8096,
      "elk": 8097,
      "woods": 8098,
      "entry": 8099,
      "splitters": 8100,
      "couple": 8101,
      "##ds0bk": 8102,
      "goes": 8103,
      "tomor": 8104,
      "christ": 8105,
      "authentication": 8106,
      "2953": 8107,
      "396": 8108,
      "602": 8109,
      "libr": 8110,
      "r9": 8111,
      "tcp": 8112,
      "vw": 8113,
      "##mill": 8114,
      "##als": 8115,
      "##igan": 8116,
      "deact": 8117,
      "018": 8118,
      "1486": 8119,
      "eqam069": 8120,
      "eqam068": 8121,
      "os12": 8122,
      "runs": 8123,
      "locked": 8124,
      "veuille": 8125,
      "mentioned": 8126,
      "x132109": 8127,
      "boost": 8128,
      "veuillez": 8129,
      "4755": 8130,
      "gore": 8131,
      "isp": 8132,
      "ram": 8133,
      "r12": 8134,
      "yet": 8135,
      "##rect": 8136,
      "1701": 8137,
      "traf": 8138,
      "rci": 8139,
      "dgw21": 8140,
      "pg089": 8141,
      "progress": 8142,
      "pdc": 8143,
      "broken": 8144,
      "gi4": 8145,
      "transferred": 8146,
      "iii": 8147,
      "x1200": 8148,
      "dishes": 8149,
      "davis": 8150,
      "tbx": 8151,
      "l14b": 8152,
      "matheson": 8153,
      "composite": 8154,
      "402": 8155,
      "boot": 8156,
      "c32": 8157,
      "esp": 8158,
      "garden": 8159,
      "n201": 8160,
      "rand": 8161,
      "##ops": 8162,
      "##uation": 8163,
      "##iation": 8164,
      "##map": 8165,
      "1241": 8166,
      "impl": 8167,
      "1707": 8168,
      "1012": 8169,
      "0002": 8170,
      "##779": 8171,
      "pg084": 8172,
      "pg080": 8173,
      "peg": 8174,
      "packaging": 8175,
      "##5200": 8176,
      "balm": 8177,
      "pg106": 8178,
      "signaling": 8179,
      "tables": 8180,
      "eqam072": 8181,
      "ncts": 8182,
      "mailbox": 8183,
      "adjustments": 8184,
      "ml2iumc": 8185,
      "ip20a": 8186,
      "agreed": 8187,
      "wholesale": 8188,
      "encountered": 8189,
      "033": 8190,
      "cct": 8191,
      "lind": 8192,
      "sv": 8193,
      "ssh": 8194,
      "##g1": 8195,
      "##b2": 8196,
      "##eria": 8197,
      "re0": 8198,
      "##abil": 8199,
      "instances": 8200,
      "1727": 8201,
      "##ffici": 8202,
      "10457": 8203,
      "legs": 8204,
      "asset": 8205,
      "##lined": 8206,
      "agent": 8207,
      "passed": 8208,
      "riverside": 8209,
      "##cggp": 8210,
      "ceiling": 8211,
      "##ields": 8212,
      "scotia": 8213,
      "evolution": 8214,
      "angeles": 8215,
      "036": 8216,
      "431": 8217,
      "g14": 8218,
      "gover": 8219,
      "rom": 8220,
      "v1": 8221,
      "wl": 8222,
      "##tes": 8223,
      "##rick": 8224,
      "##noc": 8225,
      "dsde": 8226,
      "plim": 8227,
      "1576": 8228,
      "5963": 8229,
      "nowick": 8230,
      "poles": 8231,
      "1627": 8232,
      "1635": 8233,
      "mds": 8234,
      "slack": 8235,
      "club": 8236,
      "labling": 8237,
      "boom": 8238,
      "dta": 8239,
      "resell": 8240,
      "me3400": 8241,
      "fw01": 8242,
      "##iumc1": 8243,
      "raised": 8244,
      "charles": 8245,
      "course": 8246,
      "selected": 8247,
      "giving": 8248,
      "##iwack": 8249,
      "exhibition": 8250,
      "tomorrow": 8251,
      "499": 8252,
      "ox": 8253,
      "##gl": 8254,
      "1415": 8255,
      "advert": 8256,
      "2010": 8257,
      "replication": 8258,
      "1017": 8259,
      "20g": 8260,
      "##362": 8261,
      "commer": 8262,
      "##7609": 8263,
      "##671": 8264,
      "realign": 8265,
      "rooms": 8266,
      "coordinating": 8267,
      "continuation": 8268,
      "garlock": 8269,
      "classification": 8270,
      "beaver": 8271,
      "788df": 8272,
      "bowmanville": 8273,
      "nowicki": 8274,
      "377": 8275,
      "803": 8276,
      "935": 8277,
      "ats": 8278,
      "ach": 8279,
      "overs": 8280,
      "rip": 8281,
      "s11": 8282,
      "##off": 8283,
      "##vs": 8284,
      "##kee": 8285,
      "##tsp": 8286,
      "##aton": 8287,
      "##less": 8288,
      "##isl": 8289,
      "##place": 8290,
      "imm": 8291,
      "194": 8292,
      "tr5": 8293,
      "distr": 8294,
      "notify": 8295,
      "notified": 8296,
      "ca2": 8297,
      "pg088": 8298,
      "x1315": 8299,
      "smu": 8300,
      "pasqu": 8301,
      "selection": 8302,
      "vertical": 8303,
      "anchor": 8304,
      "throughput": 8305,
      "joseph": 8306,
      "dvism": 8307,
      "cagsn": 8308,
      "chilliwack": 8309,
      "1256": 8310,
      "bmtn": 8311,
      "c48": 8312,
      "hook": 8313,
      "ju": 8314,
      "mas": 8315,
      "sle": 8316,
      "##tle": 8317,
      "##es1": 8318,
      "1200": 8319,
      "mov": 8320,
      "search": 8321,
      "utility": 8322,
      "combined": 8323,
      "cdn": 8324,
      "ds0s": 8325,
      "uploaded": 8326,
      "beta": 8327,
      "michaud": 8328,
      "pictures": 8329,
      "machines": 8330,
      "password": 8331,
      "watermarking": 8332,
      "341": 8333,
      "5m": 8334,
      "540": 8335,
      "ln": 8336,
      "si": 8337,
      "tt": 8338,
      "you": 8339,
      "##fw": 8340,
      "##ks": 8341,
      "ds2": 8342,
      "inv": 8343,
      "##sist": 8344,
      "rot": 8345,
      "1633": 8346,
      "ship": 8347,
      "brist": 8348,
      "##662": 8349,
      "vertec": 8350,
      "processor": 8351,
      "whist": 8352,
      "established": 8353,
      "sky": 8354,
      "golden": 8355,
      "toumgw5": 8356,
      "capture": 8357,
      "0967": 8358,
      "877": 8359,
      "ball": 8360,
      "dic": 8361,
      "svi": 8362,
      "tit": 8363,
      "tup": 8364,
      "wp": 8365,
      "##iss": 8366,
      "##alling": 8367,
      "##ident": 8368,
      "10955": 8369,
      "rrc": 8370,
      "pharm": 8371,
      "scheduling": 8372,
      "##0254": 8373,
      "door": 8374,
      "iru": 8375,
      "deleted": 8376,
      "resulting": 8377,
      "100015": 8378,
      "policies": 8379,
      "sydney": 8380,
      "symington": 8381,
      "x121995": 8382,
      "fisher": 8383,
      "rctin": 8384,
      "incorrect": 8385,
      "whistler": 8386,
      "bee": 8387,
      "der": 8388,
      "nic": 8389,
      "pucch": 8390,
      "rath": 8391,
      "##enal": 8392,
      "##ature": 8393,
      "news": 8394,
      "1416": 8395,
      "##ivan": 8396,
      "1668": 8397,
      "except": 8398,
      "returned": 8399,
      "lec": 8400,
      "dress": 8401,
      "threshold": 8402,
      "highlight": 8403,
      "enclosed": 8404,
      "om5200": 8405,
      "fc9682": 8406,
      "extreme": 8407,
      "bottom": 8408,
      "505": 8409,
      "ben": 8410,
      "ckt": 8411,
      "ctv": 8412,
      "diversity": 8413,
      "lu": 8414,
      "vp": 8415,
      "##witch": 8416,
      "eqam43": 8417,
      "##apolis": 8418,
      "mournc1": 8419,
      "mda": 8420,
      "##ided": 8421,
      "rrr": 8422,
      "verizon": 8423,
      "turnup": 8424,
      "purge": 8425,
      "fcr3": 8426,
      "##ext": 8427,
      "diplexers": 8428,
      "togsn06": 8429,
      "brooks": 8430,
      "strathmore": 8431,
      "vsr000000": 8432,
      "overlay": 8433,
      "severity": 8434,
      "nycmn": 8435,
      "library": 8436,
      "365": 8437,
      "550": 8438,
      "8x": 8439,
      "960": 8440,
      "ducts": 8441,
      "fnr": 8442,
      "just": 8443,
      "oos": 8444,
      "sen": 8445,
      "sca": 8446,
      "##2p": 8447,
      "##905": 8448,
      "##acin": 8449,
      "1428": 8450,
      "##roit": 8451,
      "prewire": 8452,
      "mog": 8453,
      "move": 8454,
      "exis": 8455,
      "soc": 8456,
      "00001": 8457,
      "saved": 8458,
      "option": 8459,
      "##ds2": 8460,
      "orient": 8461,
      "prepared": 8462,
      "##illet": 8463,
      "electrician": 8464,
      "5501": 8465,
      "2011a": 8466,
      "psa": 8467,
      "gerr": 8468,
      "tree": 8469,
      "wcomtor": 8470,
      "jarvis": 8471,
      "govern": 8472,
      "amo": 8473,
      "c43": 8474,
      "e10": 8475,
      "emt": 8476,
      "gvp": 8477,
      "l23": 8478,
      "o12": 8479,
      "##cal": 8480,
      "##state": 8481,
      "##2544": 8482,
      "rober": 8483,
      "##ilar": 8484,
      "exchange": 8485,
      "1316": 8486,
      "ipe": 8487,
      "1104": 8488,
      "191": 8489,
      "preperation": 8490,
      "distance": 8491,
      "elimin": 8492,
      "##862": 8493,
      "##863": 8494,
      "c57": 8495,
      "islington": 8496,
      "indic": 8497,
      "greg": 8498,
      "w0312": 8499,
      "counters": 8500,
      "e0170": 8501,
      "uplinks": 8502,
      "bulletins": 8503,
      "arrive": 8504,
      "rmhlonayo": 8505,
      "cancellation": 8506,
      "hybride": 8507,
      "graceful": 8508,
      "prisma": 8509,
      "038": 8510,
      "432": 8511,
      "aone": 8512,
      "b4": 8513,
      "but": 8514,
      "##tions": 8515,
      "##r01": 8516,
      "##300": 8517,
      "##p1": 8518,
      "##v2": 8519,
      "##uring": 8520,
      "1295": 8521,
      "nov": 8522,
      "chap": 8523,
      "##ulate": 8524,
      "##ulter": 8525,
      "motor": 8526,
      "mca": 8527,
      "##ander": 8528,
      "subrack": 8529,
      "##640": 8530,
      "brian": 8531,
      "ocp": 8532,
      "rings": 8533,
      "pnck": 8534,
      "##589": 8535,
      "cal8": 8536,
      "fttf": 8537,
      "101325": 8538,
      "0075": 8539,
      "tmux": 8540,
      "trkgrp": 8541,
      "quadra": 8542,
      "rexdale": 8543,
      "sea8": 8544,
      "batches": 8545,
      "kingsway": 8546,
      "##pects": 8547,
      "spatialnet": 8548,
      "80010622": 8549,
      "apologize": 8550,
      "gerrard": 8551,
      "0r": 8552,
      "2w": 8553,
      "496": 8554,
      "579": 8555,
      "c13": 8556,
      "df": 8557,
      "ipa": 8558,
      "leth": 8559,
      "t05": 8560,
      "wat": 8561,
      "xls": 8562,
      "##ots": 8563,
      "##hn": 8564,
      "##kn": 8565,
      "coch": 8566,
      "258": 8567,
      "top": 8568,
      "1838": 8569,
      "corn": 8570,
      "clar": 8571,
      "pg079": 8572,
      "managed": 8573,
      "detroit": 8574,
      "specified": 8575,
      "x1406": 8576,
      "pg105": 8577,
      "collector": 8578,
      "rejections": 8579,
      "albion": 8580,
      "targeted": 8581,
      "2178": 8582,
      "cf": 8583,
      "c256": 8584,
      "lor": 8585,
      "tort": 8586,
      "uam": 8587,
      "wes": 8588,
      "x111": 8589,
      "##ring": 8590,
      "usb": 8591,
      "dear": 8592,
      "##imo": 8593,
      "chass": 8594,
      "ip11": 8595,
      "shor": 8596,
      "sc6": 8597,
      "junction": 8598,
      "paralle": 8599,
      "brough": 8600,
      "terminated": 8601,
      "sweeping": 8602,
      "100775": 8603,
      "assignments": 8604,
      "carling": 8605,
      "charging": 8606,
      "salvo": 8607,
      "supervis": 8608,
      "satur": 8609,
      "##lhb": 8610,
      "r4b": 8611,
      "interference": 8612,
      "gardens": 8613,
      "edtnab": 8614,
      "tbxlhb": 8615,
      "pasquale": 8616,
      "lethbridge": 8617,
      "8642": 8618,
      "dds": 8619,
      "nab": 8620,
      "dsb": 8621,
      "premis": 8622,
      "1745": 8623,
      "##une": 8624,
      "pt005": 8625,
      "##code": 8626,
      "tacacs": 8627,
      "ability": 8628,
      "28th": 8629,
      "anu": 8630,
      "peel": 8631,
      "3400": 8632,
      "clearing": 8633,
      "a0001": 8634,
      "similar": 8635,
      "infin": 8636,
      "eqam073": 8637,
      "eqam081": 8638,
      "cgw21": 8639,
      "##1968": 8640,
      "litewave": 8641,
      "ey2": 8642,
      "government": 8643,
      "4g": 8644,
      "gcp": 8645,
      "rus": 8646,
      "##400": 8647,
      "##850": 8648,
      "pg117": 8649,
      "bundling": 8650,
      "##ifs": 8651,
      "ktn": 8652,
      "trilink": 8653,
      "house": 8654,
      "##767": 8655,
      "##ght": 8656,
      "force": 8657,
      "terry": 8658,
      "##oka": 8659,
      "6565a": 8660,
      "calibr": 8661,
      "globalive": 8662,
      "##lawn": 8663,
      "earl": 8664,
      "mournc4": 8665,
      "gabes": 8666,
      "agm021": 8667,
      "spx0": 8668,
      "niag": 8669,
      "bristol": 8670,
      "##acinthe": 8671,
      "318": 8672,
      "5120": 8673,
      "lx": 8674,
      "mqam": 8675,
      "rtc": 8676,
      "##rell": 8677,
      "##9z": 8678,
      "##hss00": 8679,
      "##oning": 8680,
      "pg111": 8681,
      "1298": 8682,
      "##tech": 8683,
      "ex82": 8684,
      "ap1": 8685,
      "clark": 8686,
      "##fficient": 8687,
      "##0251": 8688,
      "peb": 8689,
      "hyacinthe": 8690,
      "27th": 8691,
      "recept": 8692,
      "helios": 8693,
      "effecting": 8694,
      "sarn": 8695,
      "sandvine": 8696,
      "ryan": 8697,
      "ml6p": 8698,
      "trilinks": 8699,
      "029": 8700,
      "370": 8701,
      "5min": 8702,
      "lam": 8703,
      "pem": 8704,
      "vin": 8705,
      "##onw": 8706,
      "##edon": 8707,
      "##siz": 8708,
      "1657": 8709,
      "connectors": 8710,
      "timos": 8711,
      "pg109": 8712,
      "haz": 8713,
      "trailer": 8714,
      "reached": 8715,
      "protector": 8716,
      "starts": 8717,
      "tande": 8718,
      "adrenal": 8719,
      "dessous": 8720,
      "commerce": 8721,
      "chassing": 8722,
      "parallel": 8723,
      "saturday": 8724,
      "3a": 8725,
      "fast": 8726,
      "fich": 8727,
      "fuses": 8728,
      "lb": 8729,
      "lacing": 8730,
      "want": 8731,
      "##iton": 8732,
      "stan": 8733,
      "actifs": 8734,
      "completely": 8735,
      "##achi": 8736,
      "10132": 8737,
      "unpl": 8738,
      "unblock": 8739,
      "##eets": 8740,
      "optics": 8741,
      "267": 8742,
      "dtisl": 8743,
      "double": 8744,
      "signalling": 8745,
      "consulter": 8746,
      "calling": 8747,
      "subnetwork": 8748,
      "better": 8749,
      "creditview": 8750,
      "##door": 8751,
      "meadows": 8752,
      "##vcvf": 8753,
      "escort": 8754,
      "climb": 8755,
      "catalyst": 8756,
      "fichier": 8757,
      "dtislave": 8758,
      "cbm": 8759,
      "dave": 8760,
      "lv": 8761,
      "mf": 8762,
      "sel": 8763,
      "s13": 8764,
      "##ef": 8765,
      "##bell": 8766,
      "##puts": 8767,
      "##onth": 8768,
      "1550": 8769,
      "ald": 8770,
      "alloc": 8771,
      "##mote": 8772,
      "train": 8773,
      "typ": 8774,
      "express": 8775,
      "##alea": 8776,
      "##772": 8777,
      "ca0": 8778,
      "to5usp": 8779,
      "centralized": 8780,
      "pg094": 8781,
      "x1500": 8782,
      "improvement": 8783,
      "rollback": 8784,
      "101307": 8785,
      "respons": 8786,
      "recovery": 8787,
      "corporate": 8788,
      "world": 8789,
      "diagnostics": 8790,
      "roberts": 8791,
      "433": 8792,
      "bns": 8793,
      "benn": 8794,
      "m3": 8795,
      "mre": 8796,
      "nttp": 8797,
      "pain": 8798,
      "x4": 8799,
      "##list": 8800,
      "##tect": 8801,
      "##ius": 8802,
      "##00x": 8803,
      "qam25": 8804,
      "##roy": 8805,
      "10013": 8806,
      "mcle": 8807,
      "1714": 8808,
      "##unit": 8809,
      "pt008": 8810,
      "3120": 8811,
      "leased": 8812,
      "1462": 8813,
      "##utionary": 8814,
      "casa": 8815,
      "fc95": 8816,
      "ium7": 8817,
      "eqam085": 8818,
      "resolution": 8819,
      "ha1": 8820,
      "##web": 8821,
      "bbu39": 8822,
      "naptr": 8823,
      "responses": 8824,
      "304": 8825,
      "355": 8826,
      "4pm": 8827,
      "c49": 8828,
      "ebu": 8829,
      "fd": 8830,
      "gss": 8831,
      "hds": 8832,
      "pier": 8833,
      "##fill": 8834,
      "##0002": 8835,
      "##ico": 8836,
      "##ads": 8837,
      "##rose": 8838,
      "##ette": 8839,
      "como": 8840,
      "apz": 8841,
      "bron": 8842,
      "brurnc": 8843,
      "101141": 8844,
      "mls": 8845,
      "w14b": 8846,
      "horiz": 8847,
      "fans": 8848,
      "cat5": 8849,
      "cgn2": 8850,
      "effective": 8851,
      "protocols": 8852,
      "cottrell": 8853,
      "##aited": 8854,
      "fourth": 8855,
      "rathburn": 8856,
      "amos": 8857,
      "cochrane": 8858,
      "eul": 8859,
      "ireg": 8860,
      "n14": 8861,
      "rtv": 8862,
      "##las": 8863,
      "##mere": 8864,
      "##horn": 8865,
      "##fi": 8866,
      "##icing": 8867,
      "##arc": 8868,
      "##adig": 8869,
      "100021": 8870,
      "mo3": 8871,
      "##artment": 8872,
      "brack": 8873,
      "##981": 8874,
      "resched": 8875,
      "colon": 8876,
      "074": 8877,
      "280": 8878,
      "##loyd": 8879,
      "freq": 8880,
      "rfc2544": 8881,
      "verifying": 8882,
      "x1509": 8883,
      "##sw01": 8884,
      "gw10": 8885,
      "potentially": 8886,
      "enhancement": 8887,
      "guidelines": 8888,
      "neighbour": 8889,
      "huron": 8890,
      "mssgonpro": 8891,
      "mailboxes": 8892,
      "district": 8893,
      "eliminate": 8894,
      "bim": 8895,
      "bran": 8896,
      "cr1": 8897,
      "ite": 8898,
      "ng": 8899,
      "##jo": 8900,
      "mtas": 8901,
      "excess": 8902,
      "labels": 8903,
      "aspects": 8904,
      "relation": 8905,
      "rhps": 8906,
      "secure": 8907,
      "##new": 8908,
      "2600mhz": 8909,
      "periode": 8910,
      "srvc": 8911,
      "rene": 8912,
      "filling": 8913,
      "npu": 8914,
      "atm3": 8915,
      "hitachi": 8916,
      "adapt": 8917,
      "milton": 8918,
      "leakage": 8919,
      "participate": 8920,
      "brgsn02": 8921,
      "pharmacy": 8922,
      "264": 8923,
      "366": 8924,
      "4h": 8925,
      "4x10g": 8926,
      "mast": 8927,
      "v6": 8928,
      "##mg": 8929,
      "##ka": 8930,
      "##inum": 8931,
      "concess": 8932,
      "mtr": 8933,
      "1755": 8934,
      "1848": 8935,
      "outlined": 8936,
      "10458": 8937,
      "lease": 8938,
      "leave": 8939,
      "##ergrove": 8940,
      "peak": 8941,
      "pg093": 8942,
      "qcmt": 8943,
      "##vpn": 8944,
      "afftect": 8945,
      "ebgp": 8946,
      "balancer": 8947,
      "##dal2is": 8948,
      "concession": 8949,
      "bdivision": 8950,
      "cran": 8951,
      "ess": 8952,
      "fif": 8953,
      "ferg": 8954,
      "pent": 8955,
      "x3": 8956,
      "##107": 8957,
      "##watch": 8958,
      "##arde": 8959,
      "neil": 8960,
      "##olic": 8961,
      "##esse": 8962,
      "1737": 8963,
      "affectes": 8964,
      "coqu": 8965,
      "ptp": 8966,
      "scanning": 8967,
      "0313": 8968,
      "103008": 8969,
      "involving": 8970,
      "amps": 8971,
      "bramalea": 8972,
      "pg099": 8973,
      "ir21": 8974,
      "meters": 8975,
      "##poin": 8976,
      "ny8": 8977,
      "eqam070": 8978,
      "resolutions": 8979,
      "adjustment": 8980,
      "degradation": 8981,
      "mournc5": 8982,
      "compliance": 8983,
      "##wpr01": 8984,
      "hlrs": 8985,
      "sapc": 8986,
      "303": 8987,
      "hin": 8988,
      "u1": 8989,
      "##ym": 8990,
      "##install": 8991,
      "serves": 8992,
      "chau": 8993,
      "1046": 8994,
      "dram": 8995,
      "##771": 8996,
      "##4200": 8997,
      "agw02": 8998,
      "ca4": 8999,
      "bear": 9000,
      "fcr27": 9001,
      "pg132": 9002,
      "lakes": 9003,
      "duplic": 9004,
      "downgrade": 9005,
      "eqam074": 9006,
      "begins": 9007,
      "l1fm": 9008,
      "items": 9009,
      "srvcc": 9010,
      "581": 9011,
      "851": 9012,
      "dim": 9013,
      "http": 9014,
      "ilo": 9015,
      "nana": 9016,
      "t52": 9017,
      "ub": 9018,
      "##rian": 9019,
      "##s2": 9020,
      "##7750": 9021,
      "##bgon": 9022,
      "##ming": 9023,
      "##ano": 9024,
      "dsr": 9025,
      "##iter": 9026,
      "inns": 9027,
      "nova": 9028,
      "##rok": 9029,
      "10078": 9030,
      "ipworks": 9031,
      "phy": 9032,
      "checkpoint": 9033,
      "cp05": 9034,
      "ppr": 9035,
      "parent": 9036,
      "overview": 9037,
      "mltn11": 9038,
      "mx3": 9039,
      "timing": 9040,
      "x141014": 9041,
      "springs": 9042,
      "bbm": 9043,
      "dhyx": 9044,
      "daniel": 9045,
      "rtcs": 9046,
      "dunfield": 9047,
      "revised": 9048,
      "activiity": 9049,
      "reveiw": 9050,
      "ktnron": 9051,
      "nanaimo": 9052,
      "fields": 9053,
      "goo": 9054,
      "how": 9055,
      "ist": 9056,
      "isis": 9057,
      "riv": 9058,
      "##sk": 9059,
      "##dg": 9060,
      "##hut": 9061,
      "##fnr": 9062,
      "##eron": 9063,
      "##sight": 9064,
      "##omi": 9065,
      "##nton": 9066,
      "1726": 9067,
      "##2100": 9068,
      "maint": 9069,
      "outdoor": 9070,
      "thr": 9071,
      "elevation": 9072,
      "21st": 9073,
      "cp01": 9074,
      "48f": 9075,
      "4506": 9076,
      "##bc01": 9077,
      "conditions": 9078,
      "clover": 9079,
      "x1309": 9080,
      "x1311": 9081,
      "50ms": 9082,
      "assocaited": 9083,
      "##aves": 9084,
      "x1502": 9085,
      "msus": 9086,
      "legget": 9087,
      "ms1mme1": 9088,
      "c0214": 9089,
      "nt11": 9090,
      "stopped": 9091,
      "offload": 9092,
      "mo1mme1": 9093,
      "7210d": 9094,
      "resele": 9095,
      "fairview": 9096,
      "nyrkong": 9097,
      "fergus": 9098,
      "308": 9099,
      "bern": 9100,
      "igw": 9101,
      "o15": 9102,
      "penet": 9103,
      "sir": 9104,
      "vpr": 9105,
      "##ote": 9106,
      "##lev": 9107,
      "##urance": 9108,
      "##arie": 9109,
      "##ird": 9110,
      "1429": 9111,
      "1203": 9112,
      "##04t": 9113,
      "1325": 9114,
      "1746": 9115,
      "##istrib": 9116,
      "##idan": 9117,
      "##mouth": 9118,
      "brick": 9119,
      "1110": 9120,
      "porting": 9121,
      "294": 9122,
      "platinum": 9123,
      "providers": 9124,
      "10302": 9125,
      "repal": 9126,
      "lobbywatch": 9127,
      "satell": 9128,
      "average": 9129,
      "sportsnet": 9130,
      "registration": 9131,
      "bounce": 9132,
      "innisfil": 9133,
      "yetman": 9134,
      "trafal": 9135,
      "adrenalin": 9136,
      "##onthly": 9137,
      "horizont": 9138,
      "bimonthly": 9139,
      "823": 9140,
      "f2": 9141,
      "hast": 9142,
      "qew": 9143,
      "ray": 9144,
      "tid": 9145,
      "##lake": 9146,
      "prom": 9147,
      "1639": 9148,
      "moment": 9149,
      "##lfx": 9150,
      "259": 9151,
      "shomi": 9152,
      "##idns": 9153,
      "apple": 9154,
      "outlines": 9155,
      "ph01": 9156,
      "requestor": 9157,
      "boy": 9158,
      "w0035": 9159,
      "##uther": 9160,
      "duke": 9161,
      "temper": 9162,
      "cerm": 9163,
      "ms1mme00": 9164,
      "atlanta": 9165,
      "eqam080": 9166,
      "##ica5": 9167,
      "supervision": 9168,
      "automatically": 9169,
      "fi60": 9170,
      "translations": 9171,
      "nelson": 9172,
      "ny8th": 9173,
      "##fnr0": 9174,
      "satellite": 9175,
      "399": 9176,
      "billet": 9177,
      "dart": 9178,
      "ko": 9179,
      "past": 9180,
      "well": 9181,
      "##o1": 9182,
      "##iy": 9183,
      "1585": 9184,
      "##ada": 9185,
      "13b": 9186,
      "##oso": 9187,
      "hope": 9188,
      "tor416": 9189,
      "rcmp": 9190,
      "phil": 9191,
      "##ncliffe": 9192,
      "0016": 9193,
      "##858": 9194,
      "redistrib": 9195,
      "ins4": 9196,
      "1053": 9197,
      "overlea": 9198,
      "x1404": 9199,
      "##adeo": 9200,
      "sheridan": 9201,
      "tb0": 9202,
      "nombre": 9203,
      "dynam": 9204,
      "brandon": 9205,
      "bouncing": 9206,
      "douglas": 9207,
      "hazel": 9208,
      "lvxx": 9209,
      "415": 9210,
      "fern": 9211,
      "ig": 9212,
      "two": 9213,
      "vss": 9214,
      "##bt": 9215,
      "##itlam": 9216,
      "##anned": 9217,
      "1430": 9218,
      "##vices": 9219,
      "truck": 9220,
      "2300": 9221,
      "##3825": 9222,
      "00008": 9223,
      "redwood": 9224,
      "##689": 9225,
      "is4": 9226,
      "10gig": 9227,
      "indian": 9228,
      "pg107": 9229,
      "immedi": 9230,
      "obif": 9231,
      "2x10g": 9232,
      "trks": 9233,
      "toroonlqca3": 9234,
      "n400": 9235,
      "showing": 9236,
      "my5": 9237,
      "g4s": 9238,
      "cornwall": 9239,
      "niagara": 9240,
      "2021": 9241,
      "ahead": 9242,
      "btw": 9243,
      "book": 9244,
      "jay": 9245,
      "n2112": 9246,
      "pach": 9247,
      "pages": 9248,
      "parry": 9249,
      "rag": 9250,
      "tadig": 9251,
      "unk": 9252,
      "vpls": 9253,
      "##ugin": 9254,
      "##b01": 9255,
      "##hi": 9256,
      "eqpt": 9257,
      "pg110": 9258,
      "tex": 9259,
      "##11b": 9260,
      "destin": 9261,
      "1679": 9262,
      "1672": 9263,
      "lodge": 9264,
      "##853": 9265,
      "tape": 9266,
      "quurnc0": 9267,
      "4501": 9268,
      "physically": 9269,
      "gtg": 9270,
      "smart": 9271,
      "feeders": 9272,
      "netfl": 9273,
      "sep48": 9274,
      "ruel": 9275,
      "sending": 9276,
      "05loxx800807": 9277,
      "adc60": 9278,
      "mayfield": 9279,
      "05himt84": 9280,
      "response": 9281,
      "unshut": 9282,
      "vancbcxa": 9283,
      "eutranfre": 9284,
      "observed": 9285,
      "smith": 9286,
      "infinite": 9287,
      "aldergrove": 9288,
      "nyrkongmo": 9289,
      "n211245": 9290,
      "unkn": 9291,
      "016": 9292,
      "410": 9293,
      "6m": 9294,
      "610": 9295,
      "cb": 9296,
      "d99": 9297,
      "ice": 9298,
      "kern": 9299,
      "mau": 9300,
      "vow": 9301,
      "##yder": 9302,
      "##mi": 9303,
      "##ament": 9304,
      "rewire": 9305,
      "plug": 9306,
      "##is7": 9307,
      "1438": 9308,
      "1222": 9309,
      "1231": 9310,
      "##play": 9311,
      "housing": 9312,
      "10131": 9313,
      "suppress": 9314,
      "pnwd": 9315,
      "640": 9316,
      "parli": 9317,
      "pg096": 9318,
      "caledon": 9319,
      "agl": 9320,
      "pg101": 9321,
      "counting": 9322,
      "##iumb1": 9323,
      "hotel": 9324,
      "establishment": 9325,
      "pedestrian": 9326,
      "axe": 9327,
      "toroonjjca0": 9328,
      "campus": 9329,
      "effort": 9330,
      "vpnv6": 9331,
      "google": 9332,
      "a025": 9333,
      "jf": 9334,
      "kat": 9335,
      "kind": 9336,
      "side": 9337,
      "tank": 9338,
      "vest": 9339,
      "wales": 9340,
      "insight": 9341,
      "##0224": 9342,
      "##channel": 9343,
      "1450": 9344,
      "1267": 9345,
      "cousi": 9346,
      "alert": 9347,
      "hardning": 9348,
      "vanaxe": 9349,
      "licens": 9350,
      "mounted": 9351,
      "greater": 9352,
      "launching": 9353,
      "##fgd": 9354,
      "describes": 9355,
      "transponder": 9356,
      "netflix": 9357,
      "cousimc": 9358,
      "hull": 9359,
      "jos": 9360,
      "lr": 9361,
      "oh": 9362,
      "ssp": 9363,
      "sens": 9364,
      "##icular": 9365,
      "cablecard": 9366,
      "1667": 9367,
      "##cement": 9368,
      "ex8208": 9369,
      "se9": 9370,
      "##1405": 9371,
      "1839": 9372,
      "retain": 9373,
      "10155": 9374,
      "30pm": 9375,
      "settop": 9376,
      "##584": 9377,
      "##nets": 9378,
      "100018": 9379,
      "101319": 9380,
      "##power": 9381,
      "##umgw0": 9382,
      "##green": 9383,
      "holly": 9384,
      "im2024016": 9385,
      "wb28": 9386,
      "##service": 9387,
      "goreway": 9388,
      "earlier": 9389,
      "trafalgar": 9390,
      "vesta": 9391,
      "3206": 9392,
      "405": 9393,
      "967": 9394,
      "a10": 9395,
      "ht": 9396,
      "tuf": 9397,
      "##srx": 9398,
      "##a2": 9399,
      "##pan": 9400,
      "##december": 9401,
      "##r10": 9402,
      "##ives": 9403,
      "##rest": 9404,
      "shane": 9405,
      "al3": 9406,
      "##pson": 9407,
      "ap2": 9408,
      "1119": 9409,
      "##470": 9410,
      "mods": 9411,
      "##cry": 9412,
      "dgw70": 9413,
      "##857": 9414,
      "3573": 9415,
      "##lino": 9416,
      "shuter": 9417,
      "lans": 9418,
      "ossto": 9419,
      "possibly": 9420,
      "delta": 9421,
      "railway": 9422,
      "cgw41": 9423,
      "reparent": 9424,
      "wiurnc0": 9425,
[...]
