[PAD]
[UNK]
[CLS]
[SEP]
[MASK]
"
$
%
&
'
(
)
+
,
0
1
2
3
4
5
6
7
8
9
:
;
<
=
>
?
@
[
\
]
^
_
`
a
b
c
d
e
f
g
h
i
j
k
l
m
n
o
p
q
r
s
t
u
v
w
x
y
z
{
|
}
~
¡
¢
¦
§
©
«
®
°
±
²
´
·
¹
º
»
¼
½
¾
¿
ð
œ
ƒ
‐
–
—
‘
’
‚
“
”
„
•
…
€
™
➔
、
，
##l
##e
##c
##t
##r
##o
##s
##u
##g
##y
##1
##2
##4
##7
##b
##i
##n
##m
##9
##5
##d
##h
##a
##6
##0
##3
##f
##p
##x
##j
##8
##v
##w
##q
##k
##z
##€
##™
##°
##®
##œ
##ƒ
##º
##©
##´
##½
##¹
##00
##on
##er
##en
##in
##am
##ts
cm
##ed
cmts
##or
##at
##an
##ent
##le
##ion
##ur
##st
##ing
##ct
re
##0000
##ic
qam
##01
##al
##25
ds
##ar
##it
eq
##urr
curr
current
##es
##ation
in
##256
qam256
pg
##si
ne
pr
##ac
eqam
pl
hsi
##nd
##ann
##ect
##lo
##03
##de
##ab
##000000
##ment
plann
planned
##el
new
##02
ns
##ir
##r1
nsg
##om
##r1g
##is
##all
us
##ch
14
##09
con
##ut
ser
##und
##ork
##ig
##vic
15
inst
##as
12
pro
install
##04
cab
##te
59
##ad
no
ro
##il
8r1g
##12
##nt
##pa
po
##16
##05
st
bund
bundle
##iv
##ers
##ge
servic
##ra
te
##ol
cable
##ip
##up
##re
##for
##11
de
16
##ate
##im
##ap
##15
##ff
##ce
up
mt
##ro
ch
ad
##ity
##pl
lo
##20
work
##et
##form
im
pre
##06
service
##96
node
##08
##ib
sit
##ns
##07
##13
##rd
com
##ack
##gment
##ul
100
##ss
eqam00
##ub
cmts2
sw
##us
##ve
##wer
mo
ex
upg
mc
d1
qam16
##lf
##ess
equ
##ort
##ter
##ay
equip
site
591
##ain
add
13
##ran
##qam
ip
##qu
##ard
se
603
##ver
597
##ffect
##tw
17
affect
lte
##ime
fib
mc5
##x20
act
mc5x20
201
##um
equipment
test
##un
##rade
##pair
repair
co
blo
##ine
pt
upgrade
activ
##urn
nb
au
##14
##ist
md
requ
609
##000
inform
25
##ase
to
##21
information
time
10
##enn
##pe
ant
##gw
##co
##pact
sh
impact
##id
##ance
##ten
##gmentation
al
bloor
##mo
pg8
18
ym
antenn
##sc
main
##ile
615
##dle
##art
##vis
eqam01
cmts01
loc
##age
power
##nect
2r1g
wlf
##ust
##th
##low
wlfdle
##if
##and
sub
##ace
##ple
##44
netw
network
mtm
##96000
##ie
rog
##sion
##33
##ark
augmentation
##ck
##ail
##oo
sl
mainten
pg7
fiber
remo
maintenance
##to
##itch
##64
cap
d2
11
rogers
ret
at
chan
##27
##ps
19
repl
##ure
bundle8
##gc
01
d5
installation
591000000
##est
ue
##24
##ling
##ject
kt
##ted
ueqam
cust
##acity
connect
ap
capacity
custom
109
##os
slnt
##ber
conf
603000000
d7
597000000
ktgc
lnd
lndn
##23
he
eqam02
##60
tr
##19
##pt
per
ac
ep
requir
##nk
24
##75
activity
##igr
##cu
migr
mtnk
##ow
cmts02
##18
##end
switch
##sj
return
##ax
en
cont
##mis
##sp
##br
##plic
##ated
##ary
rout
bundle7
##aw
##uct
rele
##nsn
hnsn
fol
##igh
##ations
affecting
##95
##ag
testing
##upt
##mission
##ell
d4
config
609000000
00
release
##10
##cess
replace
##17
##28
follow
mtmc
tra
##26
mc5x20u
project
##are
cut
ho
splic
back
antenna
tran
##ink
cir
devic
so
customer
##com
br
min
##ond
perform
111
##ical
615000000
circu
##ult
services
mw
out
##88
##ial
following
tech
cor
##ick
cn
d8
card
##ue
##file
ty
nct
profile
us8
eqam03
##45
swap
##bs
backup
bundle6
pg6
type
port
cables
##em
addr
comple
##29
load
##annel
mon
##ly
need
tor
##wd
channel
##47
##ast
##ill
23
153
3g
mod
segment
##65
##ach
cmts03
change
##cr
##sh
rd
##uction
31
inter
cl
aj
er
ajax
rack
##ffic
##97
##loc
dupt
621
cmts11
104
affected
##vision
312
exist
##io
##98
iss
gr
le
d6
cabling
existing
101
end
eto
sect
bat
etob
##43
31296000
tac
dark
lab
##oc
mc5x20h
rc
##48
##ies
##ak
id
sy
us7
##ents
dr
advis
##iew
##ive
##orts
exp
non
cmts04
sd
3g60
day
##mt
rr
##38
ipran
d3
##35
traffic
bundle5
device
flf
fa
flfrd
th
##78
##view
num
inc
date
##ms
##ions
146
tower
30
un
label
##ight
##ph
ph
##uration
20
required
##oot
sp
dis
sector
provision
migration
##ide
eqam04
##load
head
252
rf
antennas
nf
part
cmts05
pg00
dat
ueqam13
sup
##nc
##39
tick
number
prep
ports
trans
##its
##46
##ched
grns
att
grnsbr
##ory
##min
circuit
##wo
##tt
batter
##ca
147
##se
ord
##port
##des
gro
remove
attach
pg01
access
cs
##ton
##37
##22
wir
rch
splicing
##ant
rbs
rchrd
##iz
##ia
ticket
pg03
##ific
cmts06
##55
ele
link
bu
dc
outage
upd
##erg
##41
request
ueqam12
##arr
attached
dgw
eric
qam64
##ind
ave
##stem
##ning
##sis
##mit
25296000
##au
em
system
pm
pg5
##gr
##sson
nfsj
us6
ericsson
##able
##ition
##fd
700
##36
start
21
locations
##ee
cle
battery
##ood
##md
serial
fo
sof
decom
05
pwo
149
tro
3rd
hard
##ments
##enc
cmts08
##con
172
cmts07
commission
set
000
##uble
##ale
pg04
imple
##ix
bell
pg02
##50
##c1
##rib
tel
pt05
implement
gl
sa
east
125
ed
trouble
corr
148
pan
sched
cr
##eck
##77
fault
configuration
opt
headend
cmts09
order
##tware
est
bl
145
##42
66
dist
issu
check
##ern
##unt
panel
software
nodes
data
remov
##over
##str
replacement
##isco
chang
dig
001
pt01
##tion
##stk
##49
party
pat
##ution
cmstk
cisco
##ctor
621000000
prod
pg07
2013
doc
bo
##div
cp
##ence
u6
##ild
wind
##pro
minut
26
note
pom
fe
22
##79
review
line
dt
2015
prov
location
correct
mtmk
##ier
res
des
##ason
sites
##rol
##001
cre
##mn
##85
02
elect
shel
op
md8
md7
##vers
16qam
comm
pp
slo
techn
war
##act
##fer
man
cmts12
##66
3md
pb
##ision
col
3us
address
##sm
##crip
reason
##idge
##rad
##ds
minutes
ml
##gs
as
va
##99
pg05
##31
run
jo
u5
##division
schedul
alar
racks
##34
##ails
sco
ver
rod
u7
ste
cmts23
completed
or
##lan
upgrad
glph
subdivision
d9
a2
##76
s2
vend
w5
nbsj
sdv
vendor
##shoot
av
cmts22
md6
fibre
build
rel
cutover
advisory
telus
us5
troubleshoot
west
##acing
mp
##location
##ign
distrib
sc
toron
slot
07
submit
mop
cmts21
##ener
glph2
support
##ification
mile
scheduled
##ave
cin
window
eqam05
2012
hour
decommission
preload
modul
##vel
35
docsis
##32
update
##ici
##ected
nbmn
production
scope
red
submitted
##ys
turn
cmts24
##ater
##mp
la
cent
eqam001
##pos
road
ab
bas
constr
pm01
##87
toronto
el
splice
##ced
##ware
u8
##me
loading
eqam002
construction
prepar
##mts
md5
oc
##ld
distribution
warning
list
conver
vo
pb01
pomc1
contra
##ele
str
36
ring
tx
##ating
changes
pn
require
wd
clean
##hz
38
server
2014
level
mileage
pl01
rein
eqam003
wo
##30
##86
provisioning
tap
msc
##unic
reinfor
fr
06
##ator
##ille
rrus
##74
ar
48
##alth
##connect
##awa
pur
##unk
york
##70
umts
health
hde
##sport
hdeqam
rh
cop
are
c5
me
not
trunk
contact
28
td
contractor
##eline
##ice
##960
##ich
##eld
rest
van
##way
124
##ord
##ved
##ual
##bl
ins
ont
29
c00
64
##kt
band
preparation
group
##ot
joh
##vent
night
rad
bay
transport
patch
416
##tek
##68
track
circuits
##ens
69
112
communic
##k1
##ario
eqam004
185
##pm
##ec
63
aud
##ville
##ron
ueqam128
dep
lic
##ream
smt
map
po01
routine
sur
##40
2nd
rfgw
gsm
##tn
reg
plat
##ency
def
carr
##002
und
##73
244
issue
agw
removal
##83
ca
ott
##ting
e5
dtv
##ense
##ify
##ore
converted
##lu
pg08
mtwd
##own
##aily
license
daily
ueqam129
reb
checks
##ish
complete
##loy
##ving
##gh
migrate
ontario
##ied
sec
##s1
##ities
hw
w00
platform
issues
94
area
wiring
fosc
##iver
eqam005
##91
seg
ass
##df
det
rw
501
##ield
hs
pos
##67
cam
john
fw
for
##wave
ran
##int
105
ios
rnc
nm
rru
ter
cmts26
advise
##ization
qu
s1
##ills
appro
val
fix
conc
45
##ass
155
##bc
##ite
##94
##90
##vey
wol
deploy
##025
##ection
facing
rhp
gig
rwi
devices
survey
allow
apg
commissioning
ottawa
can
refer
rfgw10
fir
04
expected
plan
park
customers
##bo
bus
on
jun
ipv
po02
##orth
inclu
##58
pp02
cond
old
open
wood
##uth
gu
##ba
shaw
##93
is
addition
core
##ping
##72
633
pt08
mc5x20s
phys
segmentation
osp
inser
##t1
descrip
##gsn
nmkt
an
32
mult
fin
##ering
vide
proced
dps
##ages
##iple
fre
##63
eqam006
nbfd
##ode
reinforce
##ergro
description
##wood
##blca
alarm
##one
##71
audit
be
spe
cmts13
lond
spa
real
##cton
london
modulation
physical
shar
gener
installed
##ham
pon
fl
ground
##itor
cmts27
file
##ician
segments
ospf
disconnect
block
do
pg06
##bin
##92
pe
##ft
##ule
high
ba
clo
hy
undergro
underground
dnc
##ik
es
pt07
monitor
purpos
##stream
progr
##ces
fcr
enode
gt
##tre
ds1
remote
electr
eng
##ening
setup
cards
brnt
hardware
ec
reloc
provid
brntfd
bsc
##62
152
servers
##ble
##ise
##urnc
03
1988
dncs
##iness
technician
tapes
lif
##ont
eqam06
control
x13
installing
to5
##irk
##82
123
cmts29
cmts25
##umsc
##80
##gn
rol
500
##ong
stand
emerg
##69
40
curre
performing
##ok
par
eqam007
ops
##uc
##vol
program
npt
27
pd
60
business
stre
cell
55
bre
44
12ch
hours
##land
impacting
mark
##rupt
##950
restart
activation
hop
rcmin
##ry
street
50
##61
103
connections
##ame
mis
##ders
bc
sm
eqam009
eastern
65
qos
##awk
deter
radio
issued
##ply
rich
thre
bdf
activities
nes
purpose
wolf
##met
pack
##by
code
voice
que
##edale
connection
feed
##use
129
links
npt000000
communications
##kirk
6g
route
troubleshooting
ueqam130
hspa
bdfb
##52
sharing
2100
##med
l2
##mber
incre
estate
impacted
##op
exten
37
##ford
dgw01
shelter
##oon
north
##84
bro
##ansion
cin001
##ior
invol
newkirk
expansion
atp
interf
cmts28
break
threat
ge
dir
gi
nb1
lad
##51
montre
ueqam131
wolfedale
montreal
aband
electrical
basp
clwd
provide
interrupt
##ask
bawk
ponk1
c01
##ines
mhz
128
ping
eqam008
optim
##ath
et
##eek
##ize
week
168
router
am
all
fail
##xx
##roline
electroline
##980
vers
bal
20ch
configure
10g
39
##essary
lifeline
##link
locate
rails
##ility
ladders
##ugh
tele
nesessary
w12
##gw01
mar
equipmet
eltek
po03
c3
abandond
9k
mills
stp
##pton
assoc
##ne
optical
0700
carrier
##oing
w02
##net
termin
47
96
##eri
team
use
fibers
net
##otron
videotron
##59
e00
##ates
details
gmt
##57
barr
##mond
bram
gige
##cav
##vc
excav
centr
over
##ner
live
##81
cin002
engine
pa
scrip
pt04
version
##pp
34
vis
##tal
box
154
second
eqam024
eqam016
laur
##day
##field
mount
##li
switches
eqam011
clear
##ally
##56
151
associ
rfc
swee
central
003
tn
sign
##ud
##ley
plant
144
apn
canad
##89
collocation
relocate
eth
4980
eqam010
alarms
pg13
place
w01
##per
multiple
poi
notification
633000000
##ely
##mc
increase
king
##uary
total
brampton
toroon
deployment
richmond
noc
a3
127
##dh
1103
##aming
a1
76
verify
pop
pg09
mic
reference
eqam013
mltn
va2
eqam014
reload
phase
poau
##time
##lin
standard
pt06
long
##fp
hwy
related
##av
##54
upgrades
optimization
tdr
cal
##ors
1008
building
224
sum
wirele
shelf
##bsc
wt
csd
mapping
sweep
##od
lay
##inet
tlan
##rs
wireless
prot
imt
002
##son
ci
micro
##tac
lak
##umsc2
vlan
##200
dd
lt1
##owe
##alls
reboot
##les
eqam012
##120
routing
##ivity
200
ind
164
verification
outages
laurent
##vl
assi
gre
##gy
dup
duration
unit
33
##ction
##wdm
##mon
pns
eqam015
moving
pnsj
summ
jan
markham
cabinet
canada
spec
manage
##bor
hd
working
mm
du
layer
##oll
south
##ital
event
x15
connected
inte
122
##ified
minim
coge
upgraded
##53
hyd
cogeco
##cument
nets
document
w1
needs
air
pg12
##rand
hydro
##urce
##aging
state
correction
kitch
##aced
mx
##bert
implementation
engineering
ag
##gest
shut
oak
1900
2600
enable
ipv6
performed
08
##encies
by
moncton
qc
eqam021
##yy
tek
mid
management
102
bar
w2
pdsj
627
hal
ent
kitchener
##ceed
cli
telecom
procedure
room
pdsj1
##ash
adding
redund
##cs
rec
ueqam132
333
rcbin
barrie
rens
water
##iate
connectivity
##vd
decommissioning
di
copy
ss
local
##eter
transfer
needed
coloc
hub
##era
eqam019
c15
sn
##ank
summary
##100
crew
datab
tim
##psk
##gp
x14
fire
prior
##ailable
cmts14
board
qpsk
netsure
visit
transition
microwave
212
atl
ei
2011
fal
##ffer
1115
lan
ms
##pls
vol
way
eqam017
dgw02
##og
process
oper
proceed
mode
192
integr
eqam025
reso
database
drive
vi
##of
l3
##pr
ot
w05
52
excavation
108
##bridge
congest
low
1098
56
##lic
##bps
mst
##ded
insertion
emergency
cate
rece
006
ftt
eqam028
determin
##res
rep
pg1
determined
72
##anc
impro
os
##urces
region
task
1700
eqam020
dro
mor
temp
leg
interface
possi
concer
##kw
##cessary
hill
foscs
ash
report
80
path
case
hardening
defici
oss
##ational
004
concerns
hand
stat
panels
##ics
insp
647
##sto
1005
subject
added
listed
##mx
transmission
##he
##vp
feat
dam
##abl
##lock
acco
120
eqam022
eqam027
pp01
post
int
log
w03
##ga
camera
frequ
ir
orders
1006
howe
w16
##ful
replaced
daytime
wdst
har
##750
850
march
currently
however
tie
mme
param
sep
##aged
available
dupont
eg
##ilo
##ipe
city
##tem
gate
ident
143
package
##fr
00am
cleanup
associated
direct
157
ridge
roof
estim
interruption
sgsn
##side
eqam018
pac
necessary
##idth
faulty
january
mess
cer
t1
##wc
dele
bandw
requested
wdstck
eqam026
dra
orvl
wh
flo
lines
tekele
immed
1095
lake
pc
##ves
supply
step
activate
t23
mob
##olo
enc
1118
routes
oakville
poba
eqam023
max
nik
31st
she
##pat
1465
design
agw05
##stock
digital
pacific
a00
nr
##ston
c03
##bed
configur
##nic
nika
clust
prevent
09
sim
approx
monitored
188
june
ms1
##ivers
##mark
005
spr
blvd
##roft
bandwidth
pole
roaming
eqam029
wa
c2
##elph
##mme
im2
cas
guelph
tray
string
##ux
05dh
perio
inf
improve
possible
w06
edge
del
##ernet
c02
ens
eastlink
preview
10ge
cres
lim
##uch
signal
##man
bridge
##ures
##tain
condu
updates
eqam031
err
categ
##cou
42
usa
fc
failo
##msc
result
met
modular
ma
apr
##chan
dns
win
includes
##ding
atlant
fac
dp
rollo
vancou
##nicoll
##urst
immediate
vancouver
ke
##der
generator
failover
ensure
colocation
jum
##b1
source
roadbed
##unts
rollout
cc
mcnicoll
provided
##air
##ager
bands
##acy
units
##boro
ii
##val
x12
##ped
scar
init
category
##siss
terminate
sr
##mware
##wall
##ilink
##croft
##hurst
##ues
##auga
allstream
point
module
occ
ob
1309
e06
ps
coord
dispat
running
c19
57
1007
subsc
1116
mississ
additional
inspection
##wn
167
##bby
congestion
han
160
dwdm
mpls
suc
fut
af
lobby
technical
coordin
hu
firmware
tdd
mississauga
sch
confir
victor
220
cgw01
success
w04
oct
1419
10001
##273
files
roll
165
1003
implemented
assign
49
##pn
tp
orig
damaged
wise
future
##be
gta
gateway
ipv4
##onge
baal
april
1117
ped
2x
1495
atlantic
##ler
yonge
removed
estimated
w14
136
baol
tekelec
table
technolo
##going
1244
##cing
ml02
med
e02
bala
breakers
e1
fred
experi
43
sectors
ueqam133
origin
ev
##urs
disk
ru
count
dispatched
subscrib
ashcroft
eglin
1496
replacing
down
free
eglinton
equipmenttac
nt
spl
phub
##unction
elements
grand
##din
extension
successful
##amil
208
eqam039
sent
196
##cember
64qam
account
502
manager
c1505
ium
volte
##x1
located
1469
##155
resources
##uce
minilink
pomk1
ref
name
##los
propos
##erson
approved
bgp
dund
176
cng
victoria
rcdin
concre
##sw
##mhz
184
##ability
##tent
##ian
##ects
1013
w11
applic
concrete
ren
relocation
edt
6601
##096
w15
clock
civ
eqam033
68
##frd
##246
##po
##ief
##put
strfrd
broad
limit
ny
ds3
legacy
month
civil
pine
pls
active
eqam038
53
604
rev
insert
ethernet
e01
##ium
##ade
split
158
jul
recon
wireline
##ti
##ural
88
hot
pnmc
glo
##out
1120
007
bb
mechan
pass
##mtl
fttb
enclos
weekly
longer
fallow
132
627000000
polic
vod
isol
we
1009
a02
1475
204
639
##fix
fallowfield
##water
##ets
station
67
function
##nel
rough
eqam030
hor
stop
106
jid
mtbo
alx
bathurst
batteries
mechanical
##bal
calls
05dhat
cons
eqam036
december
1264
prim
84
powerwave
46
feature
gw
light
jid000000
field
involved
##003
cmts41
newmark
226
305
##gent
conduit
newmarket
##fig
##cp
mdu
internet
waiver
412
##cast
156
##old
255
complex
1043
c1505a
##aint
##atch
alph
##ma
1245
##ere
acc
##umgw
experience
eqam032
national
create
216
##pass
ut
##wing
eqam07
shoot
alpha
upgrading
##cm
180
finish
##ately
strfrd2
routers
chas
dm
##ena
##aces
cover
##ward
reinforcing
woodstock
systems
script
mountain
##la
##472
asr
rail
river
colle
##x10
days
##bur
dow
##801
1497
gcr
eqam037
integration
5ess
tsp
##ire
2g
##na
blocked
height
##ging
dh
eqam08
resol
bore
tempor
sip
1950
deficiencies
revision
##ablish
##911
radi
cro
cluster
##line
1004
134
section
##cn
car
hss
frederi
global
##enue
osh
##vert
ur
##308
7750
142
fredericton
floor
groups
##lex
establish
clearwater
##lington
schedule
requires
2960
corrections
##oke
dac
##gin
going
aug
sol
tun
116
##lr
##ights
1517
nodeb
secondary
##ancy
july
##uk
##ho
pg003
##ria
eqam035
pg007
w19
rect
54
mgw
drawing
w0275
##101
##win
eqam040
fil
tak
breaker
75
general
delete
object
steel
facil
tpia
cbc
technology
##bk
paa
ls
##bec
##let
236
aur
166
##ower
exec
octo
np
##mine
rcs
chassis
g12
apply
hamil
law
##dr
networks
identified
hamilton
rtn
w17
##gary
dem
laun
##ppard
##vt
read
centre
##uments
1114
4950
mac
##pb
reconfig
58
eqam046
c24
1228
migrated
sheppard
policy
emc
email
crest
kw
##021
prev
pg002
pg009
61
calgary
coup
clli
1509
determine
monthly
##vx
140
powd
dual
october
107
pg006
51
rem
1505
##ized
avenue
pn02
downt
c7
powd1
mem
atria
ubr
touch
atm
harmon
fan
##sa
1233
d11
##ests
1508
1x
sing
nsf
400
##pers
fibres
228
1524
##eth
contin
monitoring
and
ha
##cg
1518
fops
close
aut
frequency
item
nc
##range
##fit
1223
right
loss
requirement
##ike
quebec
##no
migrating
setting
ongoing
redundancy
1500
robert
jj
##ws
##rant
rs
##back
##ora
1498
labeling
ciena
hp
combin
launch
boxes
approxim
yyy
##ious
csd2
yyyy
saint
240
qcmtl
lock
expos
valid
##ters
d10
eqam047
parameter
##115
npa
pg001
##wick
##ifier
##201
pg015
##van
protection
drop
transit
92
resp
kwkw
vpn
purple
##mbps
1503
##192
intern
finch
2950
##ah
eqam034
48v
speed
jumpers
c04
secur
objective
bel
137
based
pg014
##down
cause
diag
113
344
accom
previous
##comm
cross
eqam041
150
##206
channels
mx960
639000000
133
it
1243
163
##004
##cept
westower
##head
##vxr
su
##7246
left
1468
te0
eqam043
ubr7246
ubr7246vxr
modify
##verse
fuse
1466
##mm
redundant
sfp
##icated
1515
client
small
interfaces
115
##ording
confirm
905
##lon
##ith
##aining
found
tg
mip
1002
e04
##ino
holes
minimum
approximately
mounts
initi
dundas
ra
primary
##gro
bypass
##ek
##itions
proble
800
maintain
status
e911
hr
##erc
pg012
urgent
documents
bur
##210
center
broadcast
w09
##ually
##094
mail
##ei
##hip
char
lawr
##ls
cases
cx
pg011
sci
a01
fu
errors
##rx
rns
relief
tv
##112
pg005
lawrence
90
black
c18
stream
##ased
hole
single
messaging
gator
changing
junip
newly
##ative
colling
potent
cur
##tv
comp
##agon
enodeb
sprint
##nes
comverse
collingwood
##ke
162
232
2273
##plied
saf
msu
media
mtl
mg
deliver
514
##118
tem
pool
moved
ceragon
oshawa
##bro
##fc
pg004
1533
eqam042
41
c4
126
db
sce
##oms
application
34496000
250
procedural
juniper
16th
removing
pg15
##ney
ditch
enh
conduct
poba1
p2
1238
mini
wil
##gre
alu
direction
off
##114
temporary
##ero
##urch
##ome
##vpx
huaw
trib
valley
changed
according
2016
blue
w08
##7500
iog
nl
##urnc0
vgw
##2k
##hw
1000
quant
failure
eqam049
reboo
enclosure
##pq
lsms
##ners
##used
flash
huawei
steps
e5472
ups
addresses
ddp
brant
##008
##enting
135
bring
rb1
##ons
##vpx308
##dale
host
unlock
anal
nxx
##111
interruptions
nbpm
albert
atx
esna
morning
pg022
failed
rv
pg021
w18
product
22096
functional
security
maxim
70
recomm
10097
pg046
1523
1526
1453
tunnel
pg045
eqam050
provides
space
blink
threatening
quantity
nvt
##lett
##coming
eqam045
amp
don
w3
telco
##loo
tested
##ido
##mh
include
rp
1444
1514
pg14
22096000
recommend
firewall
##tern
specific
vc
aurora
hol
offic
ris
##024
248
oc3
1113
partners
cat
nove
ann
w27
8am
c16
##207
1097
decommissioned
e08
1248
pg017
pg020
patching
preloading
inside
ten
halton
later
vm
pg018
sde
winn
receive
1464
hi
horner
brantford
##sn
subscribers
##2d
##lq
1546
1220
##ipeg
maximum
pipe
periods
november
4l
1246
##np
protected
separ
winnipeg
ome
##029
nbba
##ucture
pg008
notice
w23
1516
ss7
scarlett
fido
scripts
##tc
eqam048
minimize
a03
1237
miss
##eric
ds1s
rsh
avo
mux
church
upstream
dish
pg010
1227
job
trays
pg028
mpm
fw7500
p65
enb
cs2k
cgn
##vac
##version
dms
e05
cells
tests
##bu
##work
##augh
advisement
isolate
pg013
vaumsc2
toumsc2
1093
ger
##ular
from
crews
da
rshm
ron
will
afwc
c23
##208
##illia
rcsin
##7120
##117
adj
thurs
orillia
transmit
patches
cd
confli
conflict
##illing
only
0700k
c55
retro
rectifier
c27
dul
mill
mud
rcwin
pg033
surveying
ld
cmts42
pg042
led
1606
##085
138
##ather
potential
##mb
##ety
##974
pnfr
1247
pg026
edm
execut
##hw2
avoid
xhw2
##ci
pg016
3960
oo
e09
dcm
pg043
stb
pg036
rvvpx308
hvac
mh
##ey
video
cul
##6500
queen
##801155
ds0
upload
oc48
technicians
s4
ties
w24
##sb
##040
5g
pas
pg032
retrofit
hel
pin
1455
1525
operations
jam
##901
thank
steele
defin
base
directional
1513
1529
pg027
cgw
prin
1507
pg037
pg023
c0009
communicated
exposed
otw
1229
office
thursday
tar
w26
creek
indicated
assist
##250
1511
interconnect
interval
trunks
americ
assignment
n2
##bw
shutdown
risk
hrs
repar
harmonics
1st
403
1406
30th
mr
requis
steeles
wall
conversion
junos
##group
##016
##ements
pg030
poba2
original
202
short
##mod
pg024
problem
sk
sess
95
ton
##az
##iday
1483
##ds0
toroonlq
hlr
1536
peering
sal
##ina
1476
c0197
woms
none
land
sg
align
##ov
corner
##113
174
##fs
cour
911
ucn
1218
pg035
##4100
008
npt00000006
proposed
xe
detail
infra
templ
bul
mobile
dan
mand
snmp
wave
##005
##ona
1527
##mount
vr
##ram
commit
pg050
385
##ert
1506
mo1
00pm
glen
1612
swapped
1178
1094
to3
e13
##265
rpa
##ex
stor
ends
ewo
##196
##nm
nsd
value
dix
##arro
139
values
downtime
##rxm
##cat
##ric
##mills
##any
10rxm
pg031
##015
##rl
10000
nor
##cell
pg051
partnership
##aster
rpats
##091
##umb
nbmm
pub
##zf
##167
safety
call
##itt
159
10002
##ush
wire
##bm
##uts
roy
npt00000004
best
requirements
pg040
##bred
green
maj
ome6500
cwdm
completion
pg041
optic
febr
extended
77
##vi
pg034
february
##ws1
staging
times
eon
fro
ext
reset
1700k
sf
serving
##ige
##ull
##hub
##mx96
adjust
##013
shown
yorkmills
73
114
4960
greens
##borough
platforms
##258
csnt
reduce
wolfd
x11
##vr
##icoke
sher
friday
narro
albred
albreda
eqam051
les
pg025
w12b
4th
e12
effect
##278
etobicoke
dry
hits
##cc
##ange
1504
accept
condition
##ug
template
levels
wolfdale
page
san
##sr
##129
251
t1zf
3950
1478
221
rx
1224
pg029
greensboro
##atory
##ester
paul
annual
ct
##point
ready
proper
size
##006
##011
##bers
kn
1458
blade
##esh
aer
##pc
cmts43
major
tb
##ous
agw01
user
##052
indust
395
##030
131
starting
e03
1548
guy
214
##eland
##aps
powered
form
##eters
diagram
indiv
updated
aerial
fed
##wdn
csg
rhsi
americas
sts
##nb
pg044
individ
nwdn
wi
energ
frequencies
##burn
##ington
##755
fixes
involve
dpc
1219
##045
moumsc2
forced
pres
##218
nfnd
mbps
##iers
##020
ml2
##vcvc
600
844
a04
##using
prepare
crt
dti
begin
1096
contain
corrective
##monton
##023
##app
soft
##col
##028
uplink
edmonton
oob
c25
##vm
final
period
lerg
sms
instr
gi0
##law
follows
pg019
orange
##tember
1311
overhead
send
tues
switching
bank
g11
prefix
september
1617
##grad
carry
parameters
occur
##255
1544
noise
1615
performance
loaded
hit
csr
kingston
like
yale
nbed
##coe
waterloo
##greg
commitment
##catel
filter
wel
portgroup
tension
techs
resolve
##047
5951
38596000
##arren
##x10ge
ce
hstr
vhub
alcatel
woodbridge
dom
##atro
mw1
flx
##tely
##hill
fuj
tuesday
fall
tc
input
##urnc1
mscs
cambridge
fw7120
including
var
cost
cool
enhance
c0009e
flow
##utions
august
missing
fort
tm
##951
bom
rbc
pg039
##iplex
midland
downstream
ggsn
##gus
##cover
updating
campb
ear
mgw01
##ane
5920
##bury
gqam
1001
245
pg048
hos
mlo
crit
strat
mts
##ans
##ings
1488
1512
##134
209
internal
infrastr
670
c07
79
wide
1501
##ift
tickets
05lo
1235
diplex
emo
##cd
##du
##448
meet
controller
om
rt
##ni
##123
1472
pg047
smsc
71
c26
##wr
cms
ple
##ement
##go
##gon
##447
manually
restore
infrastructure
##dd
##ication
##ades
ntp
instruction
301
near
culvert
ons
##288
eqam044
mlo2
##272
clos
sun
##atp
1473
pc01
##ito
141
degrad
cp2
audits
##mxq
facilities
161
pg049
special
bill
##flow
##13a
pg053
1445
cliff
##130
05loxx
cgy
##141
alberta
c37
darren
##048
##122
reparenting
1179
pg038
error
arch
emop
syn
pbm
geor
##iac
sem
##tempt
evpl
eol
far
w8
##ty
##bar
##band
##icip
##166
##umber
elap
configured
simcoe
lmxq
rg
1616
pg125
info
triband
bullet
cooling
onsite
nk
wed
##083
receiv
fro200
kee
sele
foa
4fp
bir
##119
trk
campbell
1401
alt
##245
previously
burn
##169
##ipal
##144
w07
##098
##110
nbck
unused
forces
feeds
proposing
1618
nbct
asw
c22
##dc
##bsc0
##iversity
sar
1015
##mme00
analog
instructions
kenn
##ered
##erling
##acle
110
meas
mandatory
##tl
po001
##ifax
industr
mir
mall
##name
prime
1600
content
##267
decomm
radius
bulletin
##ound
ipg
framing
##af
##ven
5960
##455
##049
eqam052
##we
1545
loop
##achange
etc
otwa
stratford
c33
1308
seachange
pg052
guide
ssr
##ict
cutting
class
thanks
az
root
##rew
dead
1477
halifax
##abled
##brook
cnt
##262
slots
ca1
cra
spur
position
011
ims
##075
254
blades
logical
royal
2000
##012
1547
##ences
argus
99
##bh
##den
##263
c8
e2
##night
175
##urnc2
vrf
##053
##152
83
go
x1
brit
buff
sask
##abling
users
loct
created
lt
##lip
planning
poau1
aggreg
drops
features
1519
proto
##178
modems
1249
##136
1313
##286
cds
weld
##800
##itate
1273
pol
##nects
proj
##243
maple
define
hyr
boards
86
c08
1239
enco
234
sperling
emerson
csd1
directly
dus
e14
mond
##cb
1538
dgw41
e0002
subscriber
##235
toroonlqca
##ica
237
command
##mme1
individual
bol
##ges
##259
##sid
find
##019
##ading
183
heure
cp3
ireland
monday
zone
##lord
##bour
auth
mn
neigh
##131
##148
memory
storage
009
rau
##8k
mtrl
deficiency
protocol
##032
##iron
##165
##ube
##337
wednes
iatp
##ilt
rcab
pg055
pg056
splitter
foc
##248
1467
turned
taps
solution
yes
##253
mtu
togsn
1535
operation
401
##sive
##027
##164
this
netco
wednesday
300
aff
e16
##o2d
186
improvements
pedest
taking
true
##185
pg057
eclip
gold
po00
##086
##berry
eqam055
remaining
requisite
##018
##022
##igg
continue
initiated
fee
w28
##aions
##pond
##ald
try
##292
present
loctaions
insis
##043
##153
adc
##133
10006
thor
oracle
johns
range
disconnected
resource
85
##142
1800
##183
measure
eclipse
##bone
poor
173
##290
eqam054
handover
##031
reli
7210
##126
adap
130
autom
206
##121
##242
applied
##bsc1
##cre
##uns
mox
manito
island
dixie
97
##aa
##257
##140
backbone
w25
env
element
settings
p2p
landlord
c29
cast
igw01
x2
##mal
1275
##151
##077
##270
mins
shelves
78
req
121
##itsu
sae
vaugh
##055
##191
1539
bcvan
james
session
mss
##095
sta
##rag
##imt
##149
##276
##mtn
arl
bayview
included
recent
acceptance
##ene
##442
##198
trav
##384
##147
1042
##785
pg058
involves
mtrlpq
ipx
##172
trail
reporting
bors
cud
tom
ips
##ellino
highway
mil
##8z
reconfigure
attempt
##231
##176
05fix
c06
c35
mer
##nr
inten
pl02
##274
syd
1452
##iverse
borsellino
covers
basic
false
fujitsu
##dp
##jj
eqams
##pex
##297
1479
emms
1493
sce8k
industrial
welding
05fixx
ve
locating
c0031
extra
##arden
##443
blocks
##058
##mision
forward
ok
wal
##128
dev
##158
lower
va1
packet
urgently
drywall
manitoba
##ris
subnet
##180
advised
1494
whit
##251
functionality
reliability
mag
##103
##road
233
##097
nodebs
##bris
1499
accomod
son
sil
##var
##073
##146
util
flashing
##010
incoming
##093
##160
##753
csa
critical
c14
##usp
actual
##279
able
person
##erry
1598
debris
pg054
##ective
1403
eqam057
convert
rate
##156
import
tow
sgs
ttc
##ata
##ention
remotely
causing
queue
4000
780
alex
rese
quar
configurations
##iam
action
##171
turnc
fran
oam
118
super
3514
lp
##iqu
drawings
##xs
oc192
court
ghz
late
inuk
poal
1609
##ards
6500
dowe
happ
may
sig
1624
##269
coordinated
cm000000
consi
##168
sources
accomodate
##vo
soil
grading
continu
74
mk
ts
##xi
adv
##076
##139
##289
pg059
differ
dhcp
cip
##hp
##138
##453
##resh
flood
##x10g
radios
prair
w53
northern
keith
modules
bs
duct
nights
peter
##ou
##gu
##issi
tool
##219
##190
clair
roadway
clusters
im2024
fcaps
recommended
poal1
##mr
##137
1307
1537
multi
overflow
cbs
##eng
reconnect
inver
##adow
app
##759
##756
cred
distribut
scan
pg137
epa
ll
vir
scf
one
scripting
##gt
##298
rfu
eqam062
billing
if
##088
eqam059
##msc0
##iel
##268
##293
##350
eqam058
visual
facilitate
pad
yah
pod
##057
##061
##642
230
nni
##c01
##iting
##ivate
##iston
sdp
pmr
##ds1
popf
railroad
validate
rebooted
1607
##shuk
terti
##fferlaw
wellington
yahoo
ldf
sand
##cle
##090
##get
pefferlaw
98
ade
##red
##edy
crq
##hl
10085
jumper
environ
quarter
6am
bet
home
sark
##ool
##rett
##334
duffer
priority
conflicting
degraded
intended
inukshuk
tertiary
##275
migrations
##179
eqam053
turning
##msc1
cudb
dufferin
##tran
##026
##mpg
eb
rmh
walls
rock
mournc
##271
orangeville
##017
altern
198
acl
##261
provider
##burg
coupling
quarterly
##124
poov
##135
crs
model
csc
##utting
##338
united
barrett
##sworth
mgmt
##unswick
poov1
93
##gq
##252
##034
##234
##280
phone
##well
##tevar
dea
subs
w0021
irat
vartevar
different
wan
wick
3gtac
gear
domain
birch
dun
fence
je
sat
##her
##acts
1405
##127
##449
restor
otwaon
mit
n3
nat
xfp
montek
##473
agw06
eqam060
maintainer
azim
c6
mich
pk
v2
##182
rcci
00000
##051
##958
w56
reinforcement
george
prairie
##ists
##rein
tog
##ieve
##240
configs
the
eqam063
vaughan
##issian
credit
4x
62
##do
##081
comstock
##ache
##ao
usr
##239
enabling
taken
environment
sarkissian
##atic
##967
nbwd
##ose
##380
keele
cst
##va
underc
tonight
diplexer
c28
ivp
vag
##sen
1521
augment
##4500
integrate
confirmed
dmz
dl
##pts
##070
##283
205
##217
clgr
below
clients
##uy
##441
numero
weston
fttc
azimuth
gp
minute
alliston
refle
silver
outs
sam
1608
vanc
communication
separate
e11
of
##more
cmtss
##cted
columb
quam
l13a
##amp
cmt
##042
embar
pg131
##laim
##don
reach
##035
const
##150
##inets
##953
tortek
sprag
baseline
clgrab
dav
pick
nbcm
##236
university
quad
alignment
sonet
embargo
1g
855
n4
##enet
##331
##452
strings
hansen
college
##284
bug
message
vgw41
latest
apex
harr
cabinets
##ray
##089
##757
##291
etm
entire
asp
aws
##ny
##himt
##pted
reh
##457
##383
1457
w54
contractors
toroonjj
c0325
energize
82
1225
##132
##143
010
accounts
reboots
kennedy
qual
sbc
pobl
##054
##159
repairs
hanging
vtl
##758
pg061
lakesh
##wcast
narrowcast
pobl1
lakeshore
7am
##099
##754
voic
andrew
compon
210
##ench
##033
##162
equipement
provisioned
494
##cent
1092
1254
coverage
bolton
t11
##u1
allo
buffer
meg
##umgw1
nom
1305
##277
##387
##gress
700mhz
market
protect
ber
##atr
1287
1619
perman
##880
am1
bbu
##ault
##ords
rex
1614
toumsc
initial
asr901
ow
##072
brunswick
##dson
beach
higher
pedestal
ol
##led
##fers
##xy
adam
town
##thor
190
##247
modulator
multic
pg065
standby
accommod
accommodate
g1
##vin
##037
##163
##078
##vest
2525
##249
##bson
##487
289
airport
static
transmitter
219
t5
##087
1310
slide
output
association
##gar
##0238
imsi
tournc
##888
spare
##ichi
kath
vart
##036
states
connecting
##222
##mpc
reclaim
configuring
dn
e15
##under
deb
117
##177
1463
lane
automatic
dts
ip10
##189
##iumc
prince
projects
vancbc
cpl
gar
mb
star
1646
178
##389
balance
fab
##arth
##email
restarted
89
dy
fpp
s37
coax
##339
##889
1255
vaurnc
pg060
brook
apnn
atm2
permanent
##ports
##145
csrs
positions
congested
hosp
6pm
surr
vac
1409
##181
##187
gi3
failing
pts
##bility
##9k
robson
##161
##read
##237
##184
##478
wickies
voicemail
den
rule
sure
logs
##336
supplied
csde
c36
1265
released
##285
##065
minor
intermit
hostname
adela
901
brand
giv
##set
##041
10065
##332
##top
##199
##886
##787
transfers
steve
limited
poor2
lat
l14
sud
##ened
##079
hsd
county
mrh
kathrein
hospital
b8z
gab
pay
vic
xp
##wan
##335
##ago
corp
backups
rebu
55dh
demand
validation
b8zs
812
c21
##039
worked
##445
##382
cleaning
eqam061
balanc
hudson
detailed
sigtran
crq000000
columbia
##hd
dec
##281
##385
##dsb
esxi
executed
hur
munic
tan
tls
##base
##pk
iddd
early
5th
igs
stage
##060
1706
##440
meadow
queens
intro
municipal
push
##lish
##2s
1404
1236
upper
##069
##197
##299
torbsc
default
delivery
hld
##gle
##046
1601
##066
##435
beac
netcool
adelaide
81
900
bow
##itect
1436
##ults
##195
thunder
supports
psap
truepoint
sb
##ana
##stone
##tex
##751
##956
##437
1489
western
##tor
##hr
##080
1099
##959
outgoing
blocking
os10
hsdpa
4120
##att
##968
177
##232
##193
##282
##881
##aux
npt00000001
termination
seconds
aggregated
undercutting
catch
##254
1418
179
187
##266
crac
nort
##01t
1644
admin
trial
##186
##174
forest
##vcv
web
weather
inverter
c1
##067
##446
##ook
##480
##550
school
bac
cy
##102
##fb
##err
1433
1112
completing
05himt
pair
key
shooting
foundation
701
ax
lac
##ead
##394
##463
flatro
esf
offline
normal
architect
miram
flatrock
##ster
pokw
feeding
rebuild
4951
87
##o01
pour
anticip
sound
brad
##459
idp
regular
sr1
##bank
##092
show
tracks
pg126
holling
advance
birchmount
ft
vl
1522
exits
dgw20
w1094
snow
rick
##hod
##coc
##ption
means
life
white
auto
miramichi
gran
tre
##ung
al2
##973
sync
1456
mkvi
1a
##iw
cham
##unity
1045
ocld
tdm
eqam064
barney
campbellton
pokw1
217
good
##038
alg
scarlettrd
9th
##007
##anning
1543
grove
relocated
streaming
harris
exitsing
csid
master
p1
rsp
##db
cow
##osa
247
method
rmhlon
223
bor
rim
mcm
##444
##353
vantek
fixed
toroonuy
enhancements
hollingsworth
big
fwd
##ole
##vale
comments
##645
fair
preparations
scarborough
having
burlington
gpb
private
plus
tekt
look
##town
##173
mont
nortel
hunt
##lie
##062
activite
swaps
conduits
fabric
1528
##044
16t
##active
frame
##fram
##cel
rear
1420
1221
##ily
##12a
upcoming
portable
##294
##390
harden
cpu
commerc
anc
qs1
tl
demo
##074
heights
##482
span
carriers
any
entails
##uche
pleas
toroonjjca
##thorpe
hmtn
1211
1274
##287
dci
lighting
npac
5pm
vms
##sif
##064
##483
edns
##776
modem
16thto
05fixx801155
happen
scf4
multicast
bk
dust
mater
tcm
tube
1583
##ador
##962
brief
1014
transform
sprague
55dhxs
beacon
il
nw
invest
1312
erin
##485
##780
record
hfc
ib
##ridge
##ken
cmg
reuse
##050
apns
strath
international
5gtac
intermittent
commercial
kit
od
rm
ucs
vd
cdt
tektron
rss
##009
imp
05dhct
rso
personnel
grade
lar
obs
reduction
enter
reports
229
##ml
##964
##885
##aud
midnight
susp
##fe
##anced
##0205
sw21
sea
built
edw
edward
pg063
weeks
fp
remed
##igate
##056
##iding
##363
t238
adapter
components
surrey
3974
983
gall
tier
vsr
1383
##230
##aking
relations
quest
vlans
softlock
virt
outside
edwtek
wid
##gate
##ient
##ially
toumgw
119
w52
4220
014
##rel
##so
##ctc
##log
249
##432
##434
c54
grounding
quality
225
n1
##bine
poke
##082
1107
##955
##887
##781
community
pbms
regions
barrier
dundee
jj0
207
1625
sept
##477
facility
##ength
aver
tag
##ru
##bel
poin
##068
##970
##381
##376
##ctors
identify
row
winds
mileages
usrm
biac
pkw
wcom
##vice
##430
sports
spread
c38
deer
1623
##961
##9500
##aker
thom
crash
staff
json
rer
##00c01
##014
##969
coss
##490
##493
gui
drain
##mme0
pleasant
##yo
recover
instance
##uption
##connects
headends
c56
deployed
public
05loxx801155
british
mention
sas
1408
hois
##976
##466
mpg
records
##heel
613
due
##059
##957
##392
1474
windows
pm01bw
architecture
virtual
625
m2
pca
1655
##ibr
brn
elm
regina
geo
widening
pokemo
falls
##bctc
installations
sd1
disable
##379
##sists
srx
sund
##tr
##mont
##458
##431
csd3
burnham
pokemouche
hester
lc
chic
iptv
sequ
##188
##471
regist
pg066
william
edmund
alternate
pkwy
bn
##gan
238
1485
relay
pg062
duw
ota
members
closure
connector
trfc
enabled
##451
requesting
shelters
c53
combiner
cm00000003
721
8pm
##063
##450
##354
nfcb
cpr
3531
preventative
tsppts
definition
sre
1520
triple
##361
##smere
eqam056
fw9500
pg069
3949
entre
renumber
suite
willow
7pm
derry
ful
f4100
mart
##241
##agher
##783
qcmtlbw
##al2
##965
170
gateways
1500hp
302
flex
pip
nex
##ume
otdr
pg145
author
debut
remedy
lk
rap
sow
##eet
##ats
##fl
consists
##157
##pso
##752
click
batch
##782
boun
elle
notre
demol
sudbury
tektronix
dame
pim
r13
##acs
1323
mpc
neighbor
012
bpso
diverse
warden
inn
181
##439
##486
jane
regional
##house
synch
265
hom
mpe
wcoc
##ged
##966
##963
##238
242
sym
070
threatened
203
l12a
rti
##154
cold
barion
coordinator
reconfiguration
blackberry
ellesmere
227
902
ae
##ara
extern
##461
rncs
ccap
technolog
gallagher
gas
##ita
pre5
1306
##377
struct
40g
kings
certain
schem
material
747
abs
c34
xr
slave
teks
deletion
3952
gprs
vs
##rk
1443
uptime
##084
10k
carried
woodbine
external
7th
##7x
1402
1605
##330
##iller
designer
successfully
assistance
salv
e2e
burnhamthorpe
360
##ng
##eswick
apnc
leak
1252
messages
assigned
##enry
1613
##436
pg077
##iere
lang
roofing
ak
bond
##bes
placed
1596
activating
256
roger
199
195
1049
##481
abn
removals
poi01
visi
called
windsor
drainage
luc
##yst
inject
prel
##ison
groom
pg085
remain
execute
bacc
edmundston
keswick
w29
x112
1439
serve
##uses
duplex
received
##109
##esn
instead
ros
coding
portion
##479
##399
1482
##492
opened
purposes
solutions
gqams
spreadsh
teksav
salvador
5e
e17
##lers
##overs
##fm
##eridge
preca
disc
##bound
shared
bars
originator
hino
toll
##lines
##h1
##josa
##ama
##isf
1317
##the
1044
dacs
downtown
gerald
983040
chicago
hinojosa
519
pul
##sl
##ites
cords
##474
##ake
agw41
enodebs
properly
4100
bra
pull
tay
##sd
##imin
##071
##340
hwd
##812
mcc
areas
extend
pg135
213
91
iur
squ
##eration
##ims
activations
1100
##194
##170
##972
advising
pdnd
mgt
wilson
cv
##gra
shift
cp1
parkway
t237
teksavv
211
ao
omn
rigg
##ised
1301
##333
##648
##355
partner
brown
overl
timer
contains
##ponder
travaux
consider
questions
demolition
mpeg
aoip
mms
##lor
##ances
14th
1437
##forth
mobr
##982
##mx96003
craig
important
n200
##ins
commision
appl
expand
pnct
respon
bil
care
iuc
works
1302
##374
implementing
removable
vault
pnpk
peer
##tien
ldap
pinw
pickering
entretien
g10
ivr
mal
##fg
1579
1328
##ending
lead
##359
relocating
rerout
sre11
spreadsheet
##125
##abit
100base
##ther
##456
coordinate
pdnd1
ccs
pwr
won
qams
swo
exter
lte15
1810
1016
3520
mapped
jj4
thorn
synchron
aqu
earth
pw
paging
##hu
##lop
1643
sever
cnr
##789
bugs
approval
pg064
pg133
pg121
middle
##ethernet
reflectors
li
view
##light
##wire
##abgt
newf
mogsn
today
##884
##883
##467
##367
creation
asap
10gige
fax
match
##116
##que
##484
thro
unh
arrange
w0012
agm
snap
fully
taylor
l1
vip
##ep
##ger
17th
traps
monbsc
##774
regards
parenting
isolated
nd
w21
##grade
##bb
##ael
##ission
usage
1202
1204
##pec
portage
##cg0
known
flows
exterior
bert
bene
uns
vill
ws
1434
##apping
une
pg074
##venture
pinwheel
making
##vment
chatr
trace
##663
1055
kevin
falling
##crest
ace
own
##gige
##atoon
1677
246
ed2
appropr
pg091
pg123
os11
collect
587
ul
wnc
##ience
##inity
##ically
##641
hops
modification
##ttp
7609
x1501
minimal
pg122
consum
separation
know
mary
10th
##954
##391
3525
x1321
involvment
pg157
mallany
wncm
950
bona
l6
vul
##can
##700
##ilts
trench
spb
vaumsc
coupler
publish
fallback
appropriate
gra
xf
##arily
plaz
plumb
stu
see
##386
unav
##870
##box
crescent
saskatoon
576
rivers
1675
1645
1396
tou
##784
0001
##661
29th
##bourn
hwdsb
bonaventure
288
bt
gol
##oor
##ute
proxy
aux
##356
##3602
pg071
assets
spring
##ricom
introd
##bctc000
iucs
bad
my
##utran
##ases
##test
5917
ip20
##978
1484
abc
im228
phubs
wideband
trylon
vsw
yard
##lx1
100m
##ump
##647
retaining
csfb
##791
##799
##3400
1553
receiving
mssgon
walk
restored
222
codes
trf
portal
incon
surge
ranges
##ucts
increased
mobility
delivered
select
david
injection
newfound
plaza
bon
gen
ham
wb
wash
##iance
##a1
1648
los
189
switched
folder
1253
3602
agre
metro
conducting
leslie
cscf
mrhmon
esc
e100
gwc
nap
tas
##476
231
addressing
rruw
ec04
specification
diam
initiative
enhanced
narrow
iwo
os1
##lh
cmd
upl
exiting
tosp
drilling
ec01
excavating
ltd
touched
newfoundland
c17
fms
ucc
w20
##ii
##erving
##ively
rdi
ids
##494
pg070
pg073
x130238
pineridge
vagsn
sunday
vswr
baker
##ear
ingress
##dex
##985
##358
##786
arr
rebrand
rhpc
richard
volume
paths
carrying
utilization
rehab
rmhlonay
xfps
464
pic
pms
wnp
compl
1303
as812
pg086
pg097
x1400
harbour
fc96
afin
asr9k
cgw20
farm
##reshold
##yx
1555
##469
pg129
##umgw3
liv
mack
rb
r14
rating
watro
1242
repairing
loads
spx
##grp
defective
cellular
canadian
metrol
belle
sts1
watrous
kerr
vsp
##yption
##stall
series
probe
##ffe
come
1304
##768
353
dropp
cat6
vancbcx
suspected
unhind
750
11th
##454
##462
corruption
##ktel
##lands
whitby
magaz
anticipated
cath
mike
##tel
##arch
15th
prec
##ateral
##871
pg082
pg067
pmsg
lists
ni
##xn
1599
1226
stack
deve
powering
##882
notes
occurr
target
togmsc
1378
171
##gcn
follo
brid
cslan
cron
##491
eqam066
volt
ditching
impacts
bilateral
benefit
eutran
ibm
1232
stbs
##ales
telica
ask
cancell
feeder
2100mhz
indoor
sheet
retrofitted
##sification
technologies
mps
o13
pile
##card
##bitt
##mer
##hlr
##west
12th
nops
stone
##ola
1621
##row
##quis
switchover
clas
pp001
##874
ecs
1029
tony
tcic
bradford
wnpg
famil
chris
100g
trs
drill
##urnc3
nesbitt
utc
combiners
vgw42
devons
uplift
sj
reject
##03t
pre4
10977
pnbh
under
cbcn
help
affects
##bourne
diameter
mi
pal
pict
wr
yo
zyo
##ured
##arm
##cope
##ella
supported
npt00000003
pg138
7500
huront
epl
iain
x16
##igent
nous
comms
equipments
activated
##393
scheduler
scott
relieve
454
disconnection
ampl
aggr
loopback
bores
considered
215
306
fi
##l1
there
numbers
##794
vanbsc
camp
conducted
owen
owned
unavailable
8th
fences
mus
zero
dsx
eqam42
##1500
spid
transl
intell
x120205
expose
encoder
##abitethernet
dur
gps
repe
1702
182
##643
##986
##438
suppl
electric
mx96
estimation
applicable
morningside
commands
clgrabsp
synchronization
bw
lite
##108
##hs
##vation
##wpr
1705
disrupt
bea
sessions
family
c45
ga
jas
rig
wav
##cgc
12am
##olid
modified
basin
1123
online
doesn
eqam065
operational
ntk
large
cbcngcn
##cgcg
ced
sq
sie
##opt
rdc
interconnects
idns
discover
scb
tracking
caused
##gn01
coordination
evs
crossing
ditches
unlocked
rgm
transformation
unhindered
778
br1
kar
rgw
prere
##tec
chr
lot
11155
235
spect
##prot
npt00000002
sch1
collection
raise
350
bfs
get
let
r4
##ress
##espond
##952
##vlon
intra
jid00000004
danforth
w55
##lam
##dal2
1407
1636
##ifiers
##366
0008
options
pg130
dpon
mailto
dure
last
t2
tr1
##106
##ili
##468
##cont
w0025
statut
limits
nyc
consolid
filters
touching
confirmation
gerry
defined
pipes
wnpgmb
duree
##bre
installs
1638
##654
decomission
proceder
##works
police
im2024030
mct
wos
##qs
##ional
##aser
##paid
##fore
1647
prefer
##10g
##652
dgw60
correspond
2012a
0050
speeds
##venience
thomas
ly
mach
ry
##105
##aby
##ellow
instal
1293
ross
1665
##shaw
e54
flag
pg124
fci
msuic
corpor
cossor
cc1
dor
ee
fpc
lin
na
r1
##ired
##000bctc000
##979
spat
scot
procedures
operating
handle
##ursor
company
##abgt000
dropped
wavier
705
a5
ken
kam
t45
year
##ta
revert
169
mdr
cutovers
1048
##351
redir
pg068
overall
sgsns
peterborough
##sdv
precursor
##protected
spatial
3x
dal
ef
mat
t42
w7
##ones
##inx
1620
##1503
1703
1534
##651
##659
as3602
##763
converter
concern
isps
##hole
l14a
payload
##wa
cmts76
mdt
requests
##ife
##373
##lane
array
pg127
x1418
proceeding
travail
ancaster
vulner
##hlr0
218
mel
pst
connects
cott
mdc
enum
fox
##769
doug
x132
excavator
nyrk
aura
corresponding
085
g13
length
##ery
nsa
rose
##rale
lost
10086
mcl
tors
channelized
particip
pg072
reported
inspect
requisites
##mx96004
measurements
supplies
9am
aware
boo
##00000
##ivale
1678
adsl
colo
25th
241
brgsn
##357
dgw42
##999
fw4500
hybr
ssu
timber
##iumb
mitigate
riggers
metrolinx
prerequis
nas
##yz
lou
imts
10003
1913
routed
unprotected
1459
manual
centrale
1552
mmsc
delay
10622
##backup
vpnv
##hlr1
obser
introduce
kre
qsm
##mar
pri
coming
moves
impacte
18th
1101
changeout
##984
sys
##352
##499
audio
assem
x1307
standards
tekelecs
x1219
please
latency
lucent
commscope
ct1
gal
pvc
##8208
cmts44
ns1
1542
alb
also
##ifi
##977
edson
##761
1124
eslan
investig
hurontario
siebel
lights
lbh
tab
##lea
##ips
swact
lee
sd2
emg
##encing
e52
1054
netricom
signed
scarlet
omni
kirk
rue
yellow
##fo
eqam44
1212
1637
24th
tasks
damage
sfps
intelligent
math
q1
v3
##cor
inactive
1206
1674
grow
pg075
##6601
3574
4500
##ucch
extender
harmonic
combining
##rum
##ios
1446
im23
1971
##368
decommision
vert
argent
##682
pdt
terminal
hubs
cxp
pg146
jean
thornhill
4r
asi
n207
smpc
t4
t117
##mk
##8008
##teth
image
##aine
##ista
brt
modern
grp
0005
bays
engineer
towns
cedar
015
vt1
##uf
##gers
##3c
revis
##around
demod
##cepted
exem
soon
##crib
pnmh
brock
##loops
transmitters
given
develop
young
disruption
spectrum
henry
jack
##ait
##alo
compos
cnteth
##653
##489
export
unified
##4679
##992
redes
arm
tdc
5510
3925
pg090
##aven
wayne
aspect
cycle
rpp
sbs
##w01
10055
mcf
pg076
pned
receiver
conserving
recommendation
passive
princ
hosts
rules
commisioning
abcgy
g0
wor
##life
##alle
conn
1604
workaround
cos
243
unable
rbs6601
lineup
ec03
psn
pulling
growth
redesign
l31
sct
1209
##onder
##987
disabled
1487
trunking
05dhat9
temporarily
daqs
definitions
##800807
1b
bmc
hiding
lth
capt
##657
pho
attachment
##izon
pg098
rooftop
1967
complexity
##brooke
mhsb
rgweth
8001
lh
sid
##usi
##enter
##lot
1502
1597
##olis
##reg
adr
expl
1715
239
##inder
1492
ml6
##683
amel
cert
resolved
demux
diagno
mips
churchill
tensions
recently
structural
kamloops
nav
song
vn
vvm
##ew
##175
##9000
##hrs
##worth
epg
##656
wires
joint
##872
contracted
pg083
##liffe
spruce
sunlife
##mpg0
argentia
lir
r2
tao
##ration
##ser
##dn
1412
##ss00
extre
##2112
depend
detect
netbackup
colocate
##aughlin
visibility
jasper
prerequisite
diagnost
bics
dmc
lvd
s15
##sip
1423
1602
019
trigg
erbs
##minster
##681
documentation
msdp
handling
execution
problems
pg151
g15
hl
vf
##720
mocn
##rane
##axe
describ
pg087
fw1
apg40
generate
x1314
associations
##change
winston
polar
vdgw
renumbering
fle
gnb
hat
iub
kan
pending
##arlane
stability
leon
##773
corrected
pg128
processes
mah
console
##hoe
raid
hello
hrsdc
2334679
inconvenience
450
bed
cather
##inger
##abella
1262
probes
noted
##989
##372
results
gigabitethernet
isns
respect
##ittle
n300
gabe
voltage
4x10ge
away
hall
##orn
##stin
##fort
01am
accepted
swapping
labelling
##371
2125
##993
contract
restar
sce4
sr11
##relation
avertex
aa
gom
r5
##zie
plate
1510
caps
spliced
##ifications
crack
dtc
##684
isabella
ec02
##iorer
t239
respective
distributel
hmtnon
teksavvy
stuart
ameliorer
6th
8200
bg
kip
smts
##1000
##7z
##dy
##urt
##aco
19th
union
dgws
##777
quick
anch
pg134
pg095
half
enclosures
merivale
constant
ntk5
cator
meter
##hib
16ch
comwave
253
1530
spad
##370
##arry
oci
##680
e53
optimum
buffalo
distributed
toumsc3
preferred
c44
c47
dall
hills
jar
smit
##lton
##oles
##nam
##fa
##icine
1300
seen
##cook
shall
shif
1105
24v
contacts
##369
0600
disconnections
pg158
dixon
frank
tools
##2s7
amplifier
lasting
mcfarlane
principal
dallas
013
daw
gary
w22
##tim
##u2
##block
dsan
stj
##aga
opc
occurs
medicine
400d
measurement
sbg
spadina
7120
866
bd
ey
little
sap
##uck
##onb
nsg9000
1626
1663
cote
193
262
creating
##868
##740
ins3
fixing
mmes
utran
n203
syniverse
toroonlqca0
scheme
through
village
35396000
getting
mclaughlin
475
801
b1
rework
nec
5950
prepaid
upgd
transp
23rd
14685
rfgws
mavis
charge
100977
muxponder
balancing
martin
##fre
2521
trm
save
bott
261
##990
rebooting
integrated
##press
improved
identification
preventive
passw
targe
mtrlpqq
cpe
g112
jose
n206
watch
##aod
##0001
##urray
##annia
1210
chme
##000abgt000
197
tri
##867
pg081
assum
providing
smc
t116
eqam071
burnaby
dyas
reroute
belleville
cc1013
restarts
dvis
ever
fish
g4
lnp
rct
smo
tw
##lb
##cl
##anner
1234
stud
impls
ali
##668
reasons
structure
##board
gi1
overnight
3330
touches
w2616
specialist
dnp
d1503
lace
s01
##ese
12f
1296
1669
11185
rcats
incor
warm
##991
scp
##873
##rong
##olog
applications
complexes
rns100
cgn3
classical
authent
05himt8
d150330
788
bdc
pet
##cis
##dge
re1
tormsc
clim
headline
##seq
four
correctly
purch
firew
download
rectifiers
rsl
##snap
ldp
23700000
reseat
cmt09
mkviii
langley
800106
1960
555
720
eas
##bon
##ang
1201
additions
apolog
grims
0006
2625
opening
finished
towers
##vcvs
grande
prelaod
exempted
sctp
grimsby
3am
ans
ded
tal
nel
##iling
advan
ip2
allocation
##649
cord
pg078
##792
verified
relache
##869
terr
jamie
n202
britannia
sequence
neighboring
firewalls
advanced
504
div
her
hib
rnd
##416
##pi
placing
1421
20th
##izing
##enced
fec
10306
etu
basement
sherbrooke
vicinity
bn7
square
auxili
respectively
dw
e07
gmpc
jim
rain
udp
wrong
xx
zod
##nn
dsl
1435
uppc
##646
permit
##65a
10114
##793
manhole
avs
arp
pcn
rsbm
##aneous
chamcook
oda
enterpr
tsppts01
g10b
vaumsc3
zodiac
888
cit
dial
evol
paint
wy
##ential
##chester
1712
017
backhoe
1111
##658
interfer
grace
mounting
schxx
country
michael
auxiliary
275
601
c39
lag
till
##iq
##ato
##ira
1575
##temp
store
mcco
1327
10m
emm
##ernia
oc12
fw4100
nmx
to5iumc
csdx
ciktel
watermark
100017
nc1500
##ique
lkf
cg
es1
p14
psp
yy
##ror
##ha
activi
unre
avail
insfram
w0001
directed
excavate
##dhct
integra
isolation
flx4100
ldf4
hibernia
285
gn
pq
was
##cpe
##rp
##104
##vine
##vair
##vgq
##wp
##eson
##sible
1205
1291
po002
stps
ipsm
1713
spdr
vaumgw3
c52
teams
afg
##800167
consumer
psnfram
gard
gbe
las
##nnb
##h00
##ze
newbridge
##02t
1400
1549
mtn
exact
exhib
pto
##983
orch
1554
otl
ldf2
authorized
precautions
modernization
vdgw50
ainger
gsr
pch
rj
sst
##ared
1109
##762
caumgw1
##t1ax
eqam067
otr
wholes
encyption
##1014
catal
beginning
consist
bowman
innisf
vulnerability
kipling
e19
h1
nhl
ou
t3
tata
##ri
##uille
##bly
##nat
##hal
##ares
##upted
acces
epc
##achable
10113
expect
##770
steph
elgin
front
condens
disconnecting
miscell
terminating
primus
gw03
covered
shows
mrhmonb
dedicated
##vaird
cag
gord
##rack
inbound
pris
chill
13a
1709
##sec
builts
fraser
ange
mgws
couplers
xpic
magazine
048
cache
dess
hist
vista
w0
##oned
##amd
13th
1711
faults
cancel
plane
flr
mobil
flashwave
millwood
passport
encount
castle
points
bonding
golf
mccowan
unreachable
404
g2
mnc
mask
rax
1266
circle
edtn
bovaird
22nd
steven
generated
misc
pg092
ashburn
jid00000005
fuel
dul20
bigip
nexus
development
077
802
cvm
das
hay
##rc
##ghz
reve
installl
1664
share
##655
##971
elk
woods
entry
splitters
couple
##ds0bk
goes
tomor
christ
authentication
2953
396
602
libr
r9
tcp
vw
##mill
##als
##igan
deact
018
1486
eqam069
eqam068
os12
runs
locked
veuille
mentioned
x132109
boost
veuillez
4755
gore
isp
ram
r12
yet
##rect
1701
traf
rci
dgw21
pg089
progress
pdc
broken
gi4
transferred
iii
x1200
dishes
davis
tbx
l14b
matheson
composite
402
boot
c32
esp
garden
n201
rand
##ops
##uation
##iation
##map
1241
impl
1707
1012
0002
##779
pg084
pg080
peg
packaging
##5200
balm
pg106
signaling
tables
eqam072
ncts
mailbox
adjustments
ml2iumc
ip20a
agreed
wholesale
encountered
033
cct
lind
sv
ssh
##g1
##b2
##eria
re0
##abil
instances
1727
##ffici
10457
legs
asset
##lined
agent
passed
riverside
##cggp
ceiling
##ields
scotia
evolution
angeles
036
431
g14
gover
rom
v1
wl
##tes
##rick
##noc
dsde
plim
1576
5963
nowick
poles
1627
1635
mds
slack
club
labling
boom
dta
resell
me3400
fw01
##iumc1
raised
charles
course
selected
giving
##iwack
exhibition
tomorrow
499
ox
##gl
1415
advert
2010
replication
1017
20g
##362
commer
##7609
##671
realign
rooms
coordinating
continuation
garlock
classification
beaver
788df
bowmanville
nowicki
377
803
935
ats
ach
overs
rip
s11
##off
##vs
##kee
##tsp
##aton
##less
##isl
##place
imm
194
tr5
distr
notify
notified
ca2
pg088
x1315
smu
pasqu
selection
vertical
anchor
throughput
joseph
dvism
cagsn
chilliwack
1256
bmtn
c48
hook
ju
mas
sle
##tle
##es1
1200
mov
search
utility
combined
cdn
ds0s
uploaded
beta
michaud
pictures
machines
password
watermarking
341
5m
540
ln
si
tt
you
##fw
##ks
ds2
inv
##sist
rot
1633
ship
brist
##662
vertec
processor
whist
established
sky
golden
toumgw5
capture
0967
877
ball
dic
svi
tit
tup
wp
##iss
##alling
##ident
10955
rrc
pharm
scheduling
##0254
door
iru
deleted
resulting
100015
policies
sydney
symington
x121995
fisher
rctin
incorrect
whistler
bee
der
nic
pucch
rath
##enal
##ature
news
1416
##ivan
1668
except
returned
lec
dress
threshold
highlight
enclosed
om5200
fc9682
extreme
bottom
505
ben
ckt
ctv
diversity
lu
vp
##witch
eqam43
##apolis
mournc1
mda
##ided
rrr
verizon
turnup
purge
fcr3
##ext
diplexers
togsn06
brooks
strathmore
vsr000000
overlay
severity
nycmn
library
365
550
8x
960
ducts
fnr
just
oos
sen
sca
##2p
##905
##acin
1428
##roit
prewire
mog
move
exis
soc
00001
saved
option
##ds2
orient
prepared
##illet
electrician
5501
2011a
psa
gerr
tree
wcomtor
jarvis
govern
amo
c43
e10
emt
gvp
l23
o12
##cal
##state
##2544
rober
##ilar
exchange
1316
ipe
1104
191
preperation
distance
elimin
##862
##863
c57
islington
indic
greg
w0312
counters
e0170
uplinks
bulletins
arrive
rmhlonayo
cancellation
hybride
graceful
prisma
038
432
aone
b4
but
##tions
##r01
##300
##p1
##v2
##uring
1295
nov
chap
##ulate
##ulter
motor
mca
##ander
subrack
##640
brian
ocp
rings
pnck
##589
cal8
fttf
101325
0075
tmux
trkgrp
quadra
rexdale
sea8
batches
kingsway
##pects
spatialnet
80010622
apologize
gerrard
0r
2w
496
579
c13
df
ipa
leth
t05
wat
xls
##ots
##hn
##kn
coch
258
top
1838
corn
clar
pg079
managed
detroit
specified
x1406
pg105
collector
rejections
albion
targeted
2178
cf
c256
lor
tort
uam
wes
x111
##ring
usb
dear
##imo
chass
ip11
shor
sc6
junction
paralle
brough
terminated
sweeping
100775
assignments
carling
charging
salvo
supervis
satur
##lhb
r4b
interference
gardens
edtnab
tbxlhb
pasquale
lethbridge
8642
dds
nab
dsb
premis
1745
##une
pt005
##code
tacacs
ability
28th
anu
peel
3400
clearing
a0001
similar
infin
eqam073
eqam081
cgw21
##1968
litewave
ey2
government
4g
gcp
rus
##400
##850
pg117
bundling
##ifs
ktn
trilink
house
##767
##ght
force
terry
##oka
6565a
calibr
globalive
##lawn
earl
mournc4
gabes
agm021
spx0
niag
bristol
##acinthe
318
5120
lx
mqam
rtc
##rell
##9z
##hss00
##oning
pg111
1298
##tech
ex82
ap1
clark
##fficient
##0251
peb
hyacinthe
27th
recept
helios
effecting
sarn
sandvine
ryan
ml6p
trilinks
029
370
5min
lam
pem
vin
##onw
##edon
##siz
1657
connectors
timos
pg109
haz
trailer
reached
protector
starts
tande
adrenal
dessous
commerce
chassing
parallel
saturday
3a
fast
fich
fuses
lb
lacing
want
##iton
stan
actifs
completely
##achi
10132
unpl
unblock
##eets
optics
267
dtisl
double
signalling
consulter
calling
subnetwork
better
creditview
##door
meadows
##vcvf
escort
climb
catalyst
fichier
dtislave
cbm
dave
lv
mf
sel
s13
##ef
##bell
##puts
##onth
1550
ald
alloc
##mote
train
typ
express
##alea
##772
ca0
to5usp
centralized
pg094
x1500
improvement
rollback
101307
respons
recovery
corporate
world
diagnostics
roberts
433
bns
benn
m3
mre
nttp
pain
x4
##list
##tect
##ius
##00x
qam25
##roy
10013
mcle
1714
##unit
pt008
3120
leased
1462
##utionary
casa
fc95
ium7
eqam085
resolution
ha1
##web
bbu39
naptr
responses
304
355
4pm
c49
ebu
fd
gss
hds
pier
##fill
##0002
##ico
##ads
##rose
##ette
como
apz
bron
brurnc
101141
mls
w14b
horiz
fans
cat5
cgn2
effective
protocols
cottrell
##aited
fourth
rathburn
amos
cochrane
eul
ireg
n14
rtv
##las
##mere
##horn
##fi
##icing
##arc
##adig
100021
mo3
##artment
brack
##981
resched
colon
074
280
##loyd
freq
rfc2544
verifying
x1509
##sw01
gw10
potentially
enhancement
guidelines
neighbour
huron
mssgonpro
mailboxes
district
eliminate
bim
bran
cr1
ite
ng
##jo
mtas
excess
labels
aspects
relation
rhps
secure
##new
2600mhz
periode
srvc
rene
filling
npu
atm3
hitachi
adapt
milton
leakage
participate
brgsn02
pharmacy
264
366
4h
4x10g
mast
v6
##mg
##ka
##inum
concess
mtr
1755
1848
outlined
10458
lease
leave
##ergrove
peak
pg093
qcmt
##vpn
afftect
ebgp
balancer
##dal2is
concession
bdivision
cran
ess
fif
ferg
pent
x3
##107
##watch
##arde
neil
##olic
##esse
1737
affectes
coqu
ptp
scanning
0313
103008
involving
amps
bramalea
pg099
ir21
meters
##poin
ny8
eqam070
resolutions
adjustment
degradation
mournc5
compliance
##wpr01
hlrs
sapc
303
hin
u1
##ym
##install
serves
chau
1046
dram
##771
##4200
agw02
ca4
bear
fcr27
pg132
lakes
duplic
downgrade
eqam074
begins
l1fm
items
srvcc
581
851
dim
http
ilo
nana
t52
ub
##rian
##s2
##7750
##bgon
##ming
##ano
dsr
##iter
inns
nova
##rok
10078
ipworks
phy
checkpoint
cp05
ppr
parent
overview
mltn11
mx3
timing
x141014
springs
bbm
dhyx
daniel
rtcs
dunfield
revised
activiity
reveiw
ktnron
nanaimo
fields
goo
how
ist
isis
riv
##sk
##dg
##hut
##fnr
##eron
##sight
##omi
##nton
1726
##2100
maint
outdoor
thr
elevation
21st
cp01
48f
4506
##bc01
conditions
clover
x1309
x1311
50ms
assocaited
##aves
x1502
msus
legget
ms1mme1
c0214
nt11
stopped
offload
mo1mme1
7210d
resele
fairview
nyrkong
fergus
308
bern
igw
o15
penet
sir
vpr
##ote
##lev
##urance
##arie
##ird
1429
1203
##04t
1325
1746
##istrib
##idan
##mouth
brick
1110
porting
294
platinum
providers
10302
repal
lobbywatch
satell
average
sportsnet
registration
bounce
innisfil
yetman
trafal
adrenalin
##onthly
horizont
bimonthly
823
f2
hast
qew
ray
tid
##lake
prom
1639
moment
##lfx
259
shomi
##idns
apple
outlines
ph01
requestor
boy
w0035
##uther
duke
temper
cerm
ms1mme00
atlanta
eqam080
##ica5
supervision
automatically
fi60
translations
nelson
ny8th
##fnr0
satellite
399
billet
dart
ko
past
well
##o1
##iy
1585
##ada
13b
##oso
hope
tor416
rcmp
phil
##ncliffe
0016
##858
redistrib
ins4
1053
overlea
x1404
##adeo
sheridan
tb0
nombre
dynam
brandon
bouncing
douglas
hazel
lvxx
415
fern
ig
two
vss
##bt
##itlam
##anned
1430
##vices
truck
2300
##3825
00008
redwood
##689
is4
10gig
indian
pg107
immedi
obif
2x10g
trks
toroonlqca3
n400
showing
my5
g4s
cornwall
niagara
2021
ahead
btw
book
jay
n2112
pach
pages
parry
rag
tadig
unk
vpls
##ugin
##b01
##hi
eqpt
pg110
tex
##11b
destin
1679
1672
lodge
##853
tape
quurnc0
4501
physically
gtg
smart
feeders
netfl
sep48
ruel
sending
05loxx800807
adc60
mayfield
05himt84
response
unshut
vancbcxa
eutranfre
observed
smith
infinite
aldergrove
nyrkongmo
n211245
unkn
016
410
6m
610
cb
d99
ice
kern
mau
vow
##yder
##mi
##ament
rewire
plug
##is7
1438
1222
1231
##play
housing
10131
suppress
pnwd
640
parli
pg096
caledon
agl
pg101
counting
##iumb1
hotel
establishment
pedestrian
axe
toroonjjca0
campus
effort
vpnv6
google
a025
jf
kat
kind
side
tank
vest
wales
insight
##0224
##channel
1450
1267
cousi
alert
hardning
vanaxe
licens
mounted
greater
launching
##fgd
describes
transponder
netflix
cousimc
hull
jos
lr
oh
ssp
sens
##icular
cablecard
1667
##cement
ex8208
se9
##1405
1839
retain
10155
30pm
settop
##584
##nets
100018
101319
##power
##umgw0
##green
holly
im2024016
wb28
##service
goreway
earlier
trafalgar
vesta
3206
405
967
a10
ht
tuf
##srx
##a2
##pan
##december
##r10
##ives
##rest
shane
al3
##pson
ap2
1119
##470
mods
##cry
dgw70
##857
3573
##lino
shuter
lans
ossto
possibly
delta
railway
cgw41
reparent
wiurnc0
im2024045
16thtodecember
toumgw6
liven
assemble
brought
a12
bt1
went
##401
cmts77
##orp
##ury
##irus
##remote
seatt
1728
1743
coast
##istics
##enna
antiv
1847
conting
backout
torhlr0
ordin
26th
liste
auditing
10gbe
placement
sn09
satisf
ftp
louis
dicp
premises
innsys
dynamic
pachyder
pachyderm
2192
806
964
f7120
pap
via
##ames
1574
##uph
dept
1629
1666
lose
ip17
##estic
monhlr1
##illon
fact
particular
van1
shares
gi2
3914
pg102
metal
dhct
solve
analyst
ca1mme0
va1mme1
lppa
musk
mx96003
shifts
dawson
##half
ex8200
painting
vprn
horizontal
immediately
antivirus
2a
320
864
mad
ride
with
##da
##6x
##pine
stra
1611
##rock
##uld
exceed
1347
13112
accessing
cp03
toronxn
##posit
copper
##ordan
2913
##enson
rebal
rru700
guard
generic
parts
w0122
mmu
processing
logging
eglington
ccd
andre
jj1
initiating
nlh1
nxxs
closed
ltu
reconnections
gpb75
raposo
vs01
prelimin
enterprise
##fficiencies
sarnia
kernel
parliament
preliminary
jason
m13
ole
q2
##atures
59pm
stay
##ibu
1326
##pear
ther
##667
orry
##7613
scre
abbo
##861
behalf
##rypec
packages
allen
toroonx
eqam087
culver
skrypec
danube
##mx96001
welles
n402
introdu
materials
washington
oxford
realignment
istb
022
cdr
ew
gb
jordan
nj
npp
ta
wap
wet
w34
w32
wcd
##lx
##ewan
##1b
resid
neg
##acles
##els
1208
10pm
slicing
1108
heat
tor1
dtacs
capa
w0003
controlled
5500
10309
failures
7613
eqam086
baseband
dpc3825
asw21
queensway
investigate
pstn
investigation
township
fw4100es
beech
shoring
seattle
contingency
wcdma
325
565
9000
a21
ban
ck
hold
wn
x120
xgige
zones
##uced
##hawk
##wal
##tsford
##icom
##0100
##abeth
##elines
chiller
exc
upgarde
1341
cox
tobsc
##anding
subnets
backed
1047
discu
clec
##852
##669
##ota
quay
references
100014
##atchewan
takes
individually
wiurnc1
pwos
selective
excavators
calibration
reselection
temperature
raglan
065
506
avis
fails
mnt
mass
ncs
s21
tile
##rator
##o02
##uz
ingle
##det
##elle
14200
16x10ge
##ained
1764
##ennial
##coding
retr
heart
mw2
monuments
sdbr
checking
feet
reser
vanmsc1
inserted
x1304
extending
russ
refresh
eqam076
tbd
ml2mme1
sunny
saskatchewan
kanata
availability
wasaga
miscellaneous
coquitlam
tufin
culverts
discuss
3487
5am
671
ais
aaa
fra
filler
ign
lis
##yon
##isi
##p2
##onten
pg100
14b
rovi
chat
1708
1738
shr
attemp
10477
disco
disney
##izabeth
0003
263
2607
feb
scen
inserting
alarming
richon
##mede
##bsc2
specs
x1507
watertown
im20238
kept
psu
disks
6700
belg
100233
tva
sts3c
domestic
criteria
##800955
dnus
cathar
koz
retainability
im2023815
hmod
iron
less
sgw
##rip
##gence
##2bc
debu
comput
mops
addtion
1723
nbmc
##berg
##ems
phill
spares
##556
manor
westminster
ocn
4520
3201
##umsc0
abandoned
signatures
pg136
boarding
simc
renov
104327
carlton
tune
##key
mandated
sce8k01
ccsator
bn7455
u1c1
duplicate
314
819
bark
wis
xxx
##m1
revel
##del
##deo
poc
stl
interim
spp
spx1
partial
##2200
##izes
##555
boul
##856
asbu
centennial
##order
c0091
32ch
weekend
marie
standardize
122167
pg103
solar
execul
smaller
interconnection
interconnections
##iami
courtice
owner
axia
liesse
graham
answer
receptacles
unplanned
cat5e
039
270
407
5434
bi
e18
fx1
hc
mesh
rib
t114
wfd
xo
##rq
##yn
##ystem
##1ax
##big
##alx
##lov
1411
che
chcr
##veo
equipped
1724
netwrok
10445
transact
commissioned
00009
mandet
supporting
department
##illson
##bcw
cloud
pdp
a3s
halt
generators
npt000000065
veveo
decided
flexity
inspections
fleet
dwgs
gordon
cvm16
pegging
introduced
catharines
mandetory
020
310
330
438
8473
dump
miami
rupt
rbl
wic
##cy
##s8
##kin
##eries
##orial
index
##utive
chain
100a
shro
containing
transc
minne
outbound
tor905
racking
101129
battle
fa3
nfl
##auch
00013
estates
digit
products
##790
mp149
laval
##ldon
x131
x1313
engineers
ether
timelines
intel
intru
im2029
4940
renato
belmont
2022
3953
fujita
catholic
rossland
photo
adaptation
##fgd2s7
satisfied
capaug
rupture
im2029265
260
c196
g115
h2
iv
o14
tft
t57
vgq
w33
##bn
##zone
##anth
deck
preform
1320
tor647
ema
elizabeth
van2
60w
smu1
toroonxn
x1506
crossings
hrnr
dms250
mirror
toroonlqca2
##mpg00
trfcg
discovery
vowifi
execulink
minneapolis
intrusive
032
2b
8r
bits
esm
lib
oil
rac
##1a
##hot
##ae
##x2
##wh
##wtw
##stoke
roots
defficiencies
1656
cherry
##0600
compton
##uled
##ulation
10008
100025
100mbps
1735
actives
##ister
fibernet
109441
leves
057
saving
1259
##666
##ds3
vaurnc2
agw07
additionally
laurier
##ancial
im2015
w0613
meta
x122
downlink
nt6x
e0127
dbm
oob1
tariq
sfi
3956
energy
thorncliffe
##creek
##mpg1
olds
reclaimation
vl2
##amai
bridges
certific
##timer
##natl
ubr10
hastings
unknown
richonnk
debug
revelstoke
539
861
ble
cad
cach
evert
hide
iems
liqu
murray
og
pie
rup
tq
tub
wad
##path
##enport
##ederation
pg118
eqam090
1541
##ival
sitenet
swing
1736
pt001
slight
switchs
profiles
##3706
##provision
1122
anno
3220
659
7604
5600
##dington
100019
forwarding
davenport
akamai
x160002
kozlov
evertz
1ge
4200
8020
c46
humber
lip
ness
##r2
##rupted
##00m
1653
equipmr
##quir
##cott
1933
appear
##agan
10116
day1
partition
##cade
268
3521
votre
agw66
##581
generation
w0243
otumgw1
t1s
##tainment
##msc2
dhillon
analy
vcenter
goal
mournc6
jeff
structures
explained
orchard
muskoka
oleg
abbotsford
chcrmk
levesque
equipmrent
3b
645
655
909
9pm
ft1
hes
ics
kent
sor
slf
##lt
##rg
##jita
##tsi
##ently
##star
ingest
##ises
10023
cole
nb2
rog18
##illary
modifications
interior
104256
##sey
checked
##smsc
preparing
causes
##672
to5mme00
5502
3919
standardization
x1505
ossmtl
w1983
reading
safe
llc
rfujita
popf1
1310nm
ancillary
transformer
entertainment
williams
flags
history
orientation
licenses
addtional
fibernetics
rupert
2279
309
427
487
eir
got
jh
kr
kml
pv
ywtw
##ries
##mpls
##dch
##dist
##vant
##ker
##asary
##0868
10073
1718
##ckon
errock
1018
101447
day2
dates
corrid
french
vanbsc1
assess
x1316
va2mme00
w2289
simo
wavel
delivers
dispatch
mgw02
c2435
remplace
haul
sce2
##build
rxml
tcam
fro20039
n301
purchase
311
910
ez
iam
js
pct
tillson
vvpx308
##c02
##cmd
##0md
##wir
inputs
##loution
1425
##utes
##forest
1661
eqam0017
excel
tournc0
##ids
1827
capability
apro
confederation
antennae
##650
leaf
daylight
##mins
emp
cpi
cp06
woodward
financial
x1300
40w
mission
eventually
10297
##csg
inters
im201
hotfix
memorial
##grove
sara
tomah
##donald
toumsc9
garp
tangle
##hrnc
demoloution
discards
##lotte
polarity
utrancell
prelaoding
nycmnyz
tillsonburg
4k
560
510
860
kal
msm
null
zpn
##lay
##pbc
neville
##isc
5944
roam
stro
##ivation
precoding
mdldon
tot
##sioning
1125
acit
switchport
enr
torhlr1
faj
##antage
fots
000076
cp07
##994
##mead
c0043
4163
regul
fcr25
controllers
w0158
midwest
otdo
5625
2x134
jid00000006
2263706
atm7
davic
francis
ip10g
asked
##control
consolidation
lbhonw
catherine
terrace
nttp84
dartmouth
suppression
##antha
2279198
otdoa
3078
525
banner
eh
ej
e42
ix
qa
sull
vk
yr
##bat
##hall
##302
##vie
##adie
##plan
mood
anti
replac
traces
pertain
brumgw1
monhlr0
drx
vaurnc0
pe9
extensive
x1514
src
psuph
2x10
ev1
events
##sws1
w1194
sug
charlotte
norm
archive
bsg
otwaonq
usrms
n401
denison
administ
vagsn01
mackay
scbn
linux
detector
trigger
##eseen
division
##iquez
exactly
movies
lansdown
exclu
barker
nessasary
corridor
nycmnyzr
nttp84ba
sullivan
0x
066
343
858
ddsb
l4
osc
t44
tau
##tf
##rors
##o2s
##764
##max
##wc1
##ervices
##ams
##urb
##acom
##asing
ex4200
ip4
ipn
1867
atten
apps
acs
bry
bruce
brurnc3
cnn
000052
va3
363
notic
regen
detection
anne
packager
##media
ssl
login
##1015
cbc78
rns1
ledcor
uploading
landing
##angement
br1mme0
##dal2un
d9902
##bigip
wavelength
enriquez
pertaining
021
023
420
bend
ea
kl
##eed
##ness
##844
##won
##enix
##sta
restr
##sibility
planner
1283
imsis
im206
mo2
1704
1729
at35
3125
10145
unfor
spot
nfld
000010
provin
ppv
s2vt
candeo
553
10307
##ava
##borne
sn9
timeline
handled
iris
a0280
eqam077
dhxx
georg
vtlcpe
anticipate
appl1
aquit
mogsn02
catherines
pdcch
##uginunit
wellesley
inglewood
##mpls01
taunton
031
629
bin
cid
hf
kpi
lie
p3
s5
t118
wit
##rw
##gig
##m2
##mcont
##9x
##ky
##zz
##on13
##enzie
inquir
priv
##tee
##ross
adult
##9652
1364
1329
##unston
sho
tracing
lea
w0071
rruws
10305
transfert
##bey
gw15
##cg1
sherwood
omap
rtu
specialists
kenneth
turnc18
advantage
rocky
flexponder
vpnv4
justin
announ
aprox
mdldonax
027
0c1
348
8350
b2
bdu
grant
g114
lloyd
q3
rma
tti
wain
wcb
##lk
##eira
##cq
##rb
##o04
##u6
##vard
reat
recom
1588
##tele
##addr
rob
stou
##rec
degre
##etiere
im21
seper
##threshold
retune
perth
grx
gren
syed
defra
margar
overpass
laura
shutting
months
revie
eqam082
leduc
edmunston
mrv
classes
4100es
l6t
redirect
derangement
mclean
suggest
aquitaine
278
516
799
ard
eag
ile
kin
ruther
tj
xpl
##lac
##0nm
dsc
nsp
5955
pow
##ership
1658
##ett
ex4500
1345
ipt
ipdr
1739
shub
trx
##ms1
spc
spanning
glac
electron
scorp
358
cleaned
regent
term
customerservices
##582
flt
x1305
telecon
terminations
w0124
mx1
midsp
##vdc
##oga
handset
##mx3
experiencing
reconver
g123
##cgss
mx960s
vcmts
transmitting
industry
rtush
milan
ibgp
strathroy
register
sympt
mackenzie
pp001vgq
destination
dnuscd
jhenry
margaret
520
709
834
8377
bts
gat
gens
ic
nish
r6
v4
##o03
##410
##iu
##za
##amps
nepn
sw1
##users
1367
1747
##lowna
##sets
0009
edurnc2
cp02
ell
##vention
maps
camb
queries
plans
isup
##ikely
to5iumb
10300
optimize
intl
designed
temps
miller
##ex8208
122432
craft
aggregation
55dhxs3
##wpr02
bgqam
##auchetiere
scorpion
4973
585
678
a11
bish
eps
fest
ggc
nil
som
##sin
##wg
##qrelation
##00c02
##eres
pla
##cho
contex
seront
##ree
loose
mournc0
##ayo
sems
eners
trap
intergr
then
##552
##557
056
00002
eds
disturb
266
arc
anr
basis
controls
amc
3941
e0063
signific
110321
civic
priorit
oturnc3
poster
pci
130910
100778
2x146
ml02mme00
eqam084
eqam089
applying
##nops
suns
vcid
121841
periodic
7942
##bourg
ebckon
homes
appliance
careful
aqu00c01
mogsn03
rebranding
rj45
stephen
cagsn00
fifa
boyle
asbuilts
375
345
417
472
4s8
620
628
amin
bit
cant
die
ksc
meets
um
##p3
##pop
##inal
dsw01
##itive
play
##ising
installer
adm
exists
##tery
cove
colog
##pe01
drum
sav
##854
3800
1129
communicate
##ucing
pdu
standardized
summer
x1504
w1066
entries
x1414
maxnet
a0005
##aire
after
##burgh
combination
millcreek
mhsa
princess
encoders
togsn03
presented
stats
##103001
restoration
gpon
rsp720
m2m
##testing
x140014
repeat
franklin
pierre
analysis
lansdowne
rutherford
nepnon
significant
cologix
1x1
340
c12
dbr
hlfx
icm
ja
rural
vt
wab
##cap
##dir
##hone
##erver
##erence
##amed
##alone
ingers
nss
1217
##ups
1683
chn
##twood
bloom
ptr
##2108
alder
expir
sectorization
00007
2013a
2200
vanbsc0
w0098
4525
fl1
packets
##op1
100833
tlans
oturnc0
egx1
a0014
obtain
originally
gw01
9500
##ween
reseau
toggn01
reflect
vaurnc7
looking
arrangement
translation
branch
toroonxno
russell
##ription
phillips
im2060868
glacier
midspan
symptom
hlfxns
044
437
cum
q4
rl
r15
tsn
yrd
##tra
##rt
##say
##701
##bling
##mc1
##a01
##xsp
dscp
##che
12b
##0572
100799
mctsi
ipm
1756
17886
shed
##mour
##ieved
##ps2
##1900
acm
##bram
##come
torbram
##sequ
##indale
##activity
orms
converged
ca3
standalone
npt00000007
##vln
enablement
w0568
130908
130936
e0233
experienced
##pool
charact
tbay
wiurnc2
classic
100064
environmental
pointing
mentioning
barioncd
leads
vanbsc4
syslog
bgf
neccessary
assuming
sleep
cranberry
eutranfreqrelation
sdbron
genset
nishantha
bishop
335
738
7681
805
fit
fmt
hunts
siding
zayo
##l6
##rix
##gg
##718
##home
##fon
##ony
qam2
##device
1673
1652
chad
mck
1338
iprors
cook
1183
##ps1
mont1ax
3106
##phone
started
00006
glad
datafill
##4948
boule
##iciel
nightly
qui
bscs
10303
103116
associate
x1402
operator
109817
0065
logiciel
irist
directory
cascade
metcal
kelowna
rolled
100973
cornerbrook
##burne
cm00000002
continuity
rehome
ftth
toroonuy03t
ccsa
mogsn01
im2280600
discovered
cracked
dressing
replacment
defragmentation
2m
276
271
323
425
418
5000
752
8m
clf
cx1
egress
nation
pure
rid
t6
##cgw
##soon
##b3
##bay
cmtses
##ormal
##entially
##2569
pg155
pg113
##02r1
std
stabil
##0703
ip1
seq
alders
epdu
disabling
display
dgw61
ericsoon
00004
ordering
digging
1052
fcr24
127269
agg
##1004
pcmm
146940
eqam078
downs
anderson
burlon
hosting
hiyx
e0304
8600
togsn01
##iquent
##iques
##flt
abnormal
x112889
ballast
tandem
s1305
chatham
ribbon
inteliquent
regulatory
unforeseen
rtushared
##cgwp
2am
347
498
4642
bica5
diver
hil
hum
iu
jer
lash
race
##bwc
##mj
##mant
cm2
##anagan
##2500
##itts
eql
inno
pl001
##asw
1297
12200
tec
debor
##plus
mci
1332
##scf
rogcc
10442
rcmd
expire
unl
attachments
telnet
patrick
##smc
##smpc
vaurnc1
westmount
construct
fw80
concord
##580
beau
x130100
4404
x141
111560
pg104
srry
broadway
ds3s
05dhat97
150054
wave3
100022
property
container
##wright
asw90
dus41
johnson
sce8k02
okanagan
whitel
ifma
rearrange
anytime
pm01bwsm
qcmtlbwsm
raptv
##araj
akn
matter
leonard
mahadeo
stjhn
advertise
0r22
maui
heaters
tqw
##hrnc0
boulevard
deborah
037
299
315
4m
419
675
dub
fine
hq
l11b
ndu
pmo
##iff
##iwin
##king
##atar
##ania
##urge
nsap
1442
strand
1649
161968
##1501
mcg
repaired
257
##tour
109780
conference
sotware
cordex
1532
cl1
trough
00012
2202
orl
reduced
depth
x1419
os13
sr7750
rename
jid00000007
eqam079
radiant
foundations
cxc
sprintpop
rpvr
togsn04
w5307
vaggn01
bkd
responsible
hamburg
magazines
karen
corporation
brockville
allocated
comox
redistribute
toronxn04t
stlnt
wainwright
reattempt
stouff
1r
297
515
bart
caw
ems
g8
hto
hick
jb
t55
t50
tons
t452
vant
vsmc
x09
##case
##ral
##bgq
##haven
##jit
##jou
##q2
##inn
resi
##abel
1431
10098
mournc2
moumgw3
##rance
ipbb
ipdir
##ineau
##ider
rog16
##pse
percent
enbs
##cryption
spike
051
0018
windstream
laz
c0005
qu1
quote
parkdale
x1306
50m
9600
x1515
atlas
repower
im2023
fcr1
accur
duls
sgi
closing
alternative
nature
overlapping
therefore
mrhmonbvo
rescheduled
penthouse
livenode
##wiring
ingersoll
iristel
clfi
aldershot
ipdirect
im2023785
1x10ge
296
277
328
868
903
916
aber
aau
kill
ofd
srd
w35
##tanding
##n86
##vn
##vq
inch
innes
##cher
##ipcd
deprovision
ipad
1721
lte16
mdca
##enne
maintenace
apt
##aws1
hotsp
##icket
tor8
thir
thier
ph2
rfc1
rfog
datads
dgw66
00016
sdvn86
arran
copied
x130224
654
129127
marc
##timeout
##prt
deficiences
statistics
100012
clocking
100931
a0288
e0565
##052273
mtsa
utilized
popfl
outstanding
1gb
dnis
ibfs
identifying
btx
agreement
concernant
enumeres
nyrkon
citrix
141672
142974
pape
attempted
scenario
ezt
4163052273
noticed
liebert
jagw
0m
026
295
2032
3000
440
6000
b12
din
lom
pig
s7
t58
tma
wk
##o05
##2000
##424
##mor
##fron
##wl1
##sig
##access
##deen
1572
1589
demark
deep
1716
##imeout
##1401
informations
perf
acd
foll
##ague
##uptimeout
##astion
cll
##config
setuptimeout
estime
boston
pomc1vq
481
48vdc
mech
293
cautionary
w0015
w0060
reinforcements
english
rolling
7600
longshaw
x1512
documented
morris
possibility
inspvln
w0300
a0008
im227
subscription
w11a
carp
respond
clienttimeout
wi1
otwaons
otwaon23
0000001
densification
mcmurray
toroonuyds1
tags
tsppts02
monbsc6
im2280572
living
vanbsc2
durham
mat00c01
vsr00000004
exisiting
bbmw
solaris
2x10ge
##address
1155
316
342
743
963
fm
haven
kits
mut
pilo
sau
##s7
##match
##erick
##urring
invent
1426
##igon
roj
roth
##ulated
100394
moumgw
mcdonald
10x10g
mainte
intercept
datac
00003
bound
booms
c0086
licence
##ished
w0043
approve
4507
ones
before
flor
fcr26
ethern
aircom
handsets
intention
winter
e0230
101318
belong
pg149
e0574
##umberland
buffny
devin
100858
vaurnc5
arriere
dorval
x130720
t421
polarization
exception
vince
typical
126730
stouffville
cawth
028
336
712
962
food
hpn
o11
sack
tps
zip
##ech
##hx
##820
conest
1294
cho
chance
informed
##ida
slater
heath
relevant
cnc
10117
21085
ed1
vaash
351
c0064
c0059
ranap
query
10304
128hp
versions
##2008
w1697
maid
keys
130917
hangers
originating
146938
05dhat08
05dhat95
w0867
functionalities
holland
prefixes
tomken
walkley
000560
cgn3ac
bbu3900
mastership
rru700mhz
wetask
shroud
certificate
yrdsb
cawthra
2108521
313
332
409
814
915
bastion
cic
cumberland
dvr
drew
fer
fct
fone
idle
iups
jenn
kno
lsp
merc
opex
ubc
##cson
##202
##bow
##pvc
##ki
retour
rewiring
##altions
##2561
prob
##12sa
seven
##verter
1748
coop
tops
heater
##endale
encryption
brim
cnis
10112
rcran
csu
bldg
0010
jobs
reducing
century
strict
x130254
netpro
grey
##resp
##from
##frame
srp
hanson
w0485
medium
e1g
readiness
152462
##2013
pg153
missed
pasp
100009
sfu
sherbourne
duncan
sasktel
lcbo
trfci
schema
vagsn03
cancelled
decomissioned
lengths
v302r1
decommisioning
p1412
psa41
motorola
bronte
josh
coxwell
liquide
lloydminster
##rb01t
im2279652
inventory
ethernets
447
740
b5
cec
cbu
e7
ffi
pco
pcr
tany
wifi
##tar
##v1
cmbgon
##enton
##uro
##isation
propa
##ady
pot
chi
mcken
season
timezone
ktu1
swapp
10469
##9801
that
disconnects
##558
troublesh
join
mpool
3600
c0036
c0094
w0006
hsl
fornew
netcry
e0057
overload
associates
multiplex
va2rad
cienna
x1513
recording
simdist
##ux22
lawson
singh
german
npt000000044
greenfield
ipx64
etmfg
rsoes
monbsc3
143496
btfd
genband
classif
underst
vanbsc3
lyon
louise
phoenix
sides
brurnc5
richonnkws1
wadsworth
jsux22
##battery
huntsville
jagwinder
otwaonslh
pilot
sackville
wetaskiwin
fonex
mckenzie
mpool1
460
534
6h
754
840
axi
c75
gle
mise
putting
sale
tilt
vnops
##cisco
##ock
##my
##jmd
##ental
##elling
newer
##as02
##rae
dean
1676
1659
chester
##ible
compr
10011
adds
1346
##count
##court
1828
##toon
pereira
##agers
travel
111437
interuption
lev
30am
unmap
20x10ge
spam
spoke
supl
transaltions
wired
commissionning
201305
shelburne
mlt
mismatch
12878
0035
populate
x152108
x1403
w0608
winbsc1
w14a
downsiz
eqam088
1075
90a
vrr
spragues
vaurnc4
thompson
##opt2
##snap6
titan
129899
x150061
repalce
vancbcxa01t
townships
smu1a
hesitate
eagle
context
##urgeon
srd4
aircomplus
hpna
0645
274
767
9172
bind
fill
f4500
n15
rud
slow
unt
vent
##eq
##cution
##uil
##nie
##xu
##xb
##inix
##ari
##aring
pgw
pg300
planne
nsb
1207
1610
im19
pt7
rog17
trinity
##pt1
##arehouse
torom
torfnr0
101187
thresh
20m
blu
ver7
red00c02
##8766
fronten
art
480
c0025
smtp
w0009
cameron
fws
4514
allows
busy
##tree
10311
eltekremote
w0139
toroon01
mx2
x1405
dpd
4300
05dhat09
05dhat96
rivermead
macd
##ithwa
burns
executing
##erty
rg4
vaughn
webb
brnmsc1
braithwa
102998
galax
alias
prelaoded
frontier
deactivate
lindsay
##760901
achieve
shipped
supervisor
10309791
mntnnb
simcath
xplor
hotspot
conestoga
##batterytesting
frontenac
eltekremotebatterytesting
braithwaite
1m
327
324
3550
726
904
908
ah
cass
durring
evc
ie
nip
nwr
pen
rpat
ssc
tip
##uss
##iar
##nf
##hol
##itage
inlet
press
##0497
sturgeon
##rey
decre
im24
##ss7
equinix
shop
minnes
101017
101175
daypass
rrs
spcs
ericcson
##aukee
149172
145239
0019
w0024
canal
canyon
highland
esplan
increasing
e0003
calmsc1
x1416
111527
w0593
pg112
hillcrest
c0290
winona
x121
100788
101320
weber
eqam083
##host
raj
##exp
effected
begining
130856
mssmon
basically
numerous
expanded
malton
eutrancell
years
dependencies
impliques
tuples
##knjmd
heartbe
whitelist
aberdeen
743b
ethernetswitch
swappable
nwrknjmd
025
041
0337
317
795
808
880
dum
eff
face
father
gain
hines
kash
lps
lons
n13
scr
such
tin
tam
viv
##lter
##c2
##cliffe
##ob
##book
##mz
##aition
##8x
##v3
##waves
##kj
##zer
##0004
##inter
##icity
pg114
##r12
serv
1570
##1101
swift
exce
1725
1717
##ums
##umar
timeout
timeframe
atn
ktu2
aci
10446
104278
104288
drives
##551
##559
##cona
00005
1454
patched
##ldap
me38
vanloc
416844
deploying
pear
##meta
c0194
telect
e0060
100842
122123
air21
ago
x142
hillsport
harold
c0359
0055
cas01
occas
grandview
w1196
passing
vodlink
reconfigured
w0994
1000mbps
tarps
##onae
greenbank
contained
va1mme00
towne
turnc11
continuing
mournc3
montq
sequentially
cvvm
trenching
occurrence
rigging
rgm13
##usie
mtrlpqqn
heritage
hollywood
ignore
festival
metcalfe
moumgw4
minnesota
lonsdale
272
611
993
dip
fdf
mig
mated
pak
qub
tgs
w75
wild
##sville
##498
##m6
##wind
##ko
rewr
##itng
15a
12196
1642
##apt
loxx
im198
100095
##usch
1025
csem
##consin
00014
patt
bob
desk
##859
opp
ver8
w5121
preloaded
369
wdm
201403
reinforc
arth
mews
vanier
290
ottbsc0
fw60
es2
fcr5
parc
restarting
bcs
c0151
127390
qcm
transferring
otb
w0399
111860
c0340
configurator
100326
e0224
eva
limitations
w0275b
macro
jj2
mip3
pg140
adjac
otwdon
sherlter
cntds
gould
bolt
146765
05fixx800807
between
georgetown
aspen
pedestals
suspect
lkfs
decomissioning
tuple
screen
wisconsin
restrict
seperate
lashburn
excecution
rewrite
329
509
5115
699
9383
cel
cwo
cux
fnp
gap
gauchetiere
mq
nu
nts
ogy
qrx
tf
t51
w025
x101
##core
##uon
##203
##von
##waukee
##energ
plain
1441
upgrd
seal
##cot
shore
alpine
##ustar
109754
24ch
111974
10434
10118
driver
partially
buck
reinstall
c0058
1050
453
##0259
10308
103115
marine
e0032
tn18
va2wpr01
handoff
64726
deleting
c0287
x1216
4625
carl
149830
launches
##2014
150392
speedtest
1134
offering
accordingly
pg141
##sbg
american
2020
##1969
10002245
energized
oob2
imsins
milwaukee
149946
happens
w5406
rexflt
bondiss
x112718
picture
129397
certified
bn7384
orchest
rotis
senior
2178960
2178959
##points
x140469
nt6x40
piece
acitivity
ogyx
286
490
6de
719
bec
eval
g3
gsh
igp
nick
s6
tol
ui
warehouse
xac
##rate
##ued
##1001
##2ax
##ned
##nut
##dl
##dom
##ined
##00000000
neustar
##acor
##oming
rochester
adch
##ulted
##ssex
##usion
moore
moose
mother
exam
actually
##000m
2531
01ipcd
109776
109786
104208
101182
sdm
146684
eden
6631
dtci
builds
sccp
scdsb
arris
2803
124176
depending
w0054
10301
c0158
w0268
terminaition
w0144
w0575
designation
130934
10001471
101311
eqam075
finishing
oshwon
andover
ncell
secured
sussex
w0926
##keg
temple
41st
124857
vmg
c2312
148347
##fsd
stored
sansw01
e0320
100105
05loxx800167
buffers
127396
togsn02
##imtce
mtrlpq02
devon
##guish
olg
deblock
advancement
elmwood
stoney
writer
ntk539
every
condenser
pdcb1
cagsn01
vpsis
e10m
gracefully
1550nm
brackets
x131158
ewers
discussed
liberty
electronic
sunset
raceway
cllimtce
##addresses
brimley
me3800x
patterson
938309
orchestrator
0156
3m
605
817
dover
gather
hart
kane
lba
nora
pond
r3
wonder
##cv
##900
##hx1
##stp
##nds1
##annon
##dean
##utter
##adm
##adium
##gem
##ffield
ching
prem
preston
##lfdd
ata
replaces
##ender
##10i
brent
111753
##lyn
toro
toruon
erindale
##oc1
drisc
incident
ph001
dismant
##3600
000085
w5361
scelling
abit
##ichen
insurance
##ecid
w0018
refering
woodhouse
flapping
to5rad
smb
129115
##mcm
calc
100819
100822
layout
microwaves
ddm
ways
109571
111691
w0472
webs
featurestate
flooring
lsanc
launched
111433
jj3
analyz
147625
bulk
wavegu
x1109
122436
109699
124918
dus31
adc66
127529
continued
pod1
##xyt
rmhlonb
tl1
##soft
wcommtl
responsibility
##cg0bk
seeing
mssgonpr
jackson
1530k
110543
accessible
howland
##levmin
belgacom
xxxx
wabam
character
buffnyma
germany
gleichen
esplanade
eutrancellrelation
qrxlevmin
wonderland
driscoll
090
287
426
546
907
bms
kg
omp
panning
qs
skt
ug
##llino
##cscf
##ott
##721
##760
##bd
##nade
##mart
cm23
##orization
##anguish
##ndon
##asg
##ntp
st01
sttl
##ibi
100192
100169
100235
100185
##quest
##umn
cobourg
nb3
##mob
mains
##andale
1106
109659
trac
##cudb
##oway
##awn
111976
10147
146683
parties
foley
linecard
073
redo
pm01hss00
381
x1318
smf
increases
balanced
10gb
96f
e0015
w0137
110304
100838
entrance
##mx960
100623
cas02
octal
ml02rad
##101001
##2015
bypassed
buried
mailing
##08563
121882
139452
format
##type
trkname
trying
c1425
peterbell
llp
component
140968
catchup
toroonuyds2
vancbcxao
loopback0
boresllino
muskeg
kenmount
dependent
maharaj
purchased
deactivation
scale
colonnade
chaudo
1430nm
trksgrp
wentworth
rideau
ossmtl3
nepnonog
mcgill
tanya
occasional
cuxp
3d
321
5a
635
707
771
769
aaddresses
c79
fx
fon
gil
kir
lap
otn
pc1
qpm
smp
wpr
##c0
##cx
##care
##s01
##1md
##nbc
##hbsc0
##fol
##function
##ppe
##jm
##vf
##organ
##anon
##ura
ne2500
##dept
##omd
##isk
stick
deal
1682
chip
workflow
exshaw
13ip
1333
1395
1377
1372
138766
actu
1814
109957
ep3
##axi
contr
soak
brun
brurnc2
servicescomm
leap
1011
ending
30a
cs1
00015
##851
pp002
06dhct
2943
2940
c0004
c0027
assurance
451
first
peace
fcr28
##ontmcont
w1203
34resp
w0108
w0170
va2iumb
100855
logic
109590
c0322
w0607
2206
100310
149527
e0284
e1011
146926
chasing
tuning
151743
151741
##bkaf
npas
readings
media1
122787
mo1mme00
adjusted
##ousy
##duff
omu
05loxx800955
127397
toroonlqca4
po00115
presently
utilize
pads
reaching
sbc01
toumsc1
tournc4
tournc9
balancers
granville
##olete
obsolete
r1304
227crest
drilled
hybrid
connor
##snap5
2010a
andrews
tft01
im2015286
rns10000
##rossan
136470
reconvergence
dieppe
##activitytimer
cxc401
v302r1255
downsizing
mx2020
4300dept
arthur
sktns
servicescommontmcont
227crestlawn
3he
3453
545
5118
aurr
bis
beth
cities
cbo
done
fork
jaco
l32
ot1
rise
tss
verg
##tg
##gd
##gv
##gbps
##non
##fail
##edns
plmn
##anna
conj
deposit
child
im231
comply
##uldn
d14
locates
11ghz
2439
##ucto
tor870
expired
unm
commence
##smr
txhs
380
agw03
came
fw20
##onep
generating
highly
##ikes
fcr33
paration
129126
w1209
w0227
e0008
100800
100807
w1047
1023
##1005
111525
integrity
100622
157452
c0204
categorization
146939
5320
100918
147565
gw20
##caster
151565
vari
121753
turnc17
bsft
distribute
t579
starhome
cyc
104577
intermittently
05dhct9
piping
##10930
precaution
cvb
288f
x140017
##opt1
machine
participant
q1q2
explor
x131458
evergreen
oui
stanley
bbu3910
dimen
btwn
ossto3
lisgar
slightly
ardrossan
expiry
dublin
pcoweb
10299820
heartbeat
reinforcment
abitibi
045
3r2
513
ay
held
jal
luk
n2200
pcs
tent
t49
##r8
##ienne
##f1
##pend
##wgr
##wibu
##atio
##leton
##start
##0164
1414
prostream
##ilano
degrade
16x10g
##room
chem
admission
im2112
commis
comcast
##ques
sets
actv
austin
tough
##tenir
alton
##to2bc
109140
111873
##eman
monop
tormsc1
##sher
##shire
1010
146792
ph3
05m
05331
1250
2225
runlist
pnl
arn
c0023
c0071
w0008
w0030
canpa
canarie
guild
london14
500m
5525
##opts
amr
w1214
w1289
centres
110323
100835
midl
1024
w2040
72ct
winmsc0
obtenir
4948
w1192
a0279
horne
126467
url
macduff
146678
100976
145327
muxes
121842
sfe
trkopts
ltp
149943
turnc13
maybe
mrhm
mentionnes
sasn
relays
r1a
142107
bmtnond
slee
penetanguish
reserve
x130490
cadfsd
kmlpbc
employ
msmw
klm
ebckonsh
cummer
##atarwibu
lazare
cgn3acsmr
cooper
axiom
ruddington
##expected
example
foleyet
##onepws1
explorer
n220014
monopole
05331we
cadfsdatarwibu
024
076
435
436
430
5mhz
706
804
816
bm
cts
hn
hark
hend
oeq
ville
##spa
##bution
##bors
##iant
##men
##fn
##8000
cmr
reid
##icutive
##acousy
##ndale
nsm
prop
1685
lough
imap
##07b
100086
100774
##ss1
1394
1787
mc520
10a
anton
1832
1102
0105
109901
109872
24078
backend
brurnc0
monte
intervention
erb
thp
una
phases
spoc
##mdb
edurnc0
148049
0015
coll
centers
##meadow
c5179
notifications
ontera
gsm1900
w0004
angus
fcr23
ds1sig
to5iumc1
103048
103026
129458
##opard
gi7
w1204
kingdom
100844
##mons
duck
x1517
109897
ossvan
simult
im2094
x1204
130928
frederick
149629
revi
revenue
consicutive
gw17
124574
151768
##bkmedia
demap
122306
validated
wavestar
tensioning
161800
asw20
c2222
po00108
focus
153904
alexand
lpi
jeopard
undercutter
sbc02
142084
160529
125213
precautionary
rerouting
genes
hampton
diagnostic
enterprises
##haul
788df7
ey2a
neilson
text
aisle
lipset
strobes
nycmnyzr016
2x146m
repowering
datacenter
propag
waveguide
cboft
luke
toughing
2407840
im2094242
082
307
388
406
606
664
623
695
710
920
943
foo
g113
hxyt
jon
jbo
l0
lon
nv
o2
pitt
watt
yester
##cana
##ren
##sts
##gz
##7000
##7210
##dbm
##vco
##inb
##leigh
##alie
##2574
##itter
##esm
inet
##sign
##acont
pluginunit
##r13
##isley
1288
stran
devel
chot
1337
1788
lte700
coal
10am
##coder
al1
1855
109271
tr52
24129
2408563
2410930
##endboro
##9551
customername
monmsc1
erie
104263
spark
rfus
prepro
##ttling
147196
##553
dgw62
##eeper
000015
000011
edf
colborne
##smore
organ
356
frip
c0035
regns
10503
openwave
bejou
speech
##iking
152448
to5mx96001
telephone
w1294
paisley
127353
110325
110329
110347
7670
phase2
greendboro
122299
entering
##pri
109843
w0356
850mhz
bandwith
109578
a0086
nri
ms1mpg0
149583
##pole
149767
122300
locking
dropping
150388
sufficient
c1896
alu7210
##pq01
specifically
holding
edmbsc1
152973
117813
100023
cwdm6
x1106
##gregor
100106
144557
aggregate
po00114
merr
france
scfb
dnpt
chamber
2470497
toroonuyds0
willowdale
grooming
148296
brownlow
inconsist
164860
e100m
cmd2k
mi0
clgrabsp01t
r1d
lht
p1411
histor
x120023
x140676
cfgs
##pointe
1450nm
battleford
photos
caching
assessment
leaving
##sequent
qcmth
toruonsi
lsancarc
tracadie
2439258
lougheed
yesterday
2412908
042
030
429
711
718
9390
bix
crane
fun
kumar
ligh
lug
mu
nn
oly
p16
snc
t04
tpa
tca
twn
tsa
wbs
##gb
##aion
##fish
##wf
##ql
##amy
##elton
1417
##asca
12dhct
##adata
poco
deg
##ima
situation
100234
##termin
1388
1768
nbl
tournc1
##berton
111335
153448
rdb
10178
101147
101177
draco
fa2
##ms2
125073
##struction
linex
oppos
##ysws1
arts
agw91
e5442
w0028
camrose
1056
hyde
##cesary
152263
123004
npt00000000
6509
ladder
television
telebec
w1235
w0213
151062
w0145
w0168
w0189
127273
110318
x152
122292
msg
w0552
100567
w1614
simple
124476
e1120
renamed
05dhat98
100410
122374
su1
bury
mtl1
mg15
1000m
donald
c1688
e0913
100006
ml2iumb
ml2iumc1
161556
161895
##afe
147707
127378
po0011
100069
constit
1gige
torbsc4
##102001
harrison
rsoesn
fp140
crashes
homed
agm022
repeated
albany
1530nm
mobilicity
gregg
chaplin
8642hd
tandems
momentary
fernbank
sorry
suggested
intergrate
strictly
everyday
vergas
dimensioning
simultaneous
2pm
2973
3h
319
449
462
533
535
715
a7
aim
bp
dar
did
dcu
e40
fy
fore
hct
ibl
jol
jones
mur
mort
##c3
##tance
##rr
##bot
##hds
##w1
##kp
inde
pract
plow
##isson
round
servicing
100785
100097
mosa
1365
1399
##1410
mdcm
tobin
alden
1820
1868
##oof
sli
109785
cutten
cnaming
10133
101181
146642
##loader
25296
##anti
pmrs
hardline
148011
148453
145200
cpm
2617
ottbsc2
assured
4510
finally
x1319
554
bcast
w0171
127385
va2iumc
100895
summers
netsmart
mx480
w2262
111569
100523
intall
111806
sheanon
e0643
##lercq
counter
renaming
broadview
##adel
124544
npd
122341
1133
100227
recommendations
holiday
annandale
109796
tengige
a0369
##mbit
npt000000064
tcics
117915
neighbors
yesup
flooding
meadowvale
schools
pouring
hunting
toroonjjca2
fp1
softlocked
cossar
vaumsc1
cmd44
fc9686
pp001seq
153405
assembling
##dyct
neccesary
mtrlpqqno
etu3
lasalle
hayward
##sisting
142837
exisitng
hinton
cermak
hazeldean
tiles
digitization
rootscn
ixc
normally
gatineau
10311672
maintetance
ugdsb
actuall
tft01c01
aurron
qcmthss00
cnamingn
0096
445
503
512
530
580
702
ath
aecid
cu
c41
dpe
efficient
fel
g6
gib
ismsc
kh
kim
kell
mitch
nt1
pab
qo1
ral
runt
til
width
yvr
##cw
##oten
##708
##6648
##wap
##sth
##ctions
re2
regress
##aren
pg166
##aba
##elc
newton
##omed
15mhz
##as01
provis
robin
deman
uprade
##ibc
10075
100165
100381
100680
mckee
iphone
sevice
shell
1863
subst
##ckvale
109868
##pt2
switchboard
111463
porta
monfnr0
104253
104257
104173
101134
drib
rrul
thru
unvlon
unexpected
##mith
00018
000034
crn
opm
jockvale
ava
arrest
vanmsc0
124956
caurnc0
w0055
hsbu
formh
1058
10512
descriptions
doon
parad
129114
brooten
##nex
e0010
w0160
127387
127374
110364
122272
c1585
##1007
x1401
w0569
receivers
handovers
100675
why
where
a0038
c0329
casino
initiate
6601v2
jid00000014
104312
104329
urb
establishing
g1223
harmony
152477
151867
150377
137184
diagn
streams
144491
e0829
122751
cgw42
122990
wallace
152702
tmas
154766
mtrlpqrb01t
attempting
05fixx800167
149947
7420
ebcon
vaurnc6
crq0000005
illino
rmir
wcomvan
crashed
elmira
2659
rosedale
severe
148414
walker
occurrences
mx96001
consolidate
consolidated
brgsn01
yellowhead
s1508
moggn01
fc9573
brurnc4
neilburg
ossto5
ordinate
metafore
interswitch
##ex820803
disturbances
ipadmin
datads3
citrixmeta
follwo
florence
xplorenet
41684400
chaudoir
mrhmonepws1
jeopardizing
regression
formhals
illinois
322
3750
424
495
497
549
561
775
8r1
827
9x
bmt
bdr
c31
croft
dol
e025
fig
jers
ker
kil
kore
len
lack
mak
mrs
pel
rsm
ts1
vos
##oin
##outs
##aous
##0256
##301
##834
##kins
##zon
##aten
rever
reposit
qam1
##03sa
##check
15m
1263
rou
##rael
##1100
##imx
##ns01
##ulating
100122
100072
100336
1773
##iete
retail
hemi
##agu
coron
##aste
cloning
104161
10144
10119
147472
dcn
149086
glent
sault
125183
edurnc1
desired
opi
w0079
grounds
doors
gtp
gt00
x130
151754
w0128
110309
110316
va2csg
100801
wtr
oaks
w2263
recieve
111536
lancaster
##heim
w0372
irh
100637
109586
shep
a0065
preventing
130935
130952
e0678
c1909
111687
huang
149564
diskeeper
broadband
nyhds
bb6648
vodaf
carleton
demapping
111406
150535
150029
crossfield
bypassing
blackhawk
c1821
pg154
vgw43
upsell
w1825
donal
w2729
cda
161233
100007
norman
sansw
145892
##aneaous
##cd3
w0723
po00106
154554
cudbs
continuous
michelle
146360
vaurnc3
surround
recorded
strathcona
05dhct8
brnmsc0
homing
barion01
104496
togmsc3
bridle
music
redirects
t422
revison
ouest
miscellaneaous
achieved
indicates
pemberton
2679801
self
##efined
robertson
pt008a
fd07
131124
rebalance
2689551
ezt3
kaneff
wabamun
penetanguishene
olymp
mg15k
2617794
2659085
follwoing
repository
vodafone
443
608
811
813
8000
bss
baud
bfa
dcoc
ebs
egp
ff
foot
icontrol
l15
lmc
mun
offer
pun
pikes
rpr
sizes
vor
wgr
x6
##east
##car
##oss
##oth
##u7
##yt
##bard
##mu
##mux
##frew
##w3
##ermere
##tst
##ani
pg120
##sia
##deg
##abjit
##oma
1422
##utton
1269
##ilia
##12b
##1613
te1
1654
##plain
workord
##ulator
100156
100756
100217
equanti
1730
alan
trim
2404
splices
##emed
monbsc0
interrupted
erivan
104267
##phia
spy
##554
dccc
clevel
149986
implementer
125043
148048
windermere
##8540
addressed
w5288
##shooting
3500
laird
##mewal
strip
383
wo04
argy
c0080
agw42
caurnc3
older
beh
flatp
123170
smcd3
657
quebsc1
129132
w1265
154040
144f
##mc2
127443
127386
110366
100837
122012
w1053
oakridge
hubert
falcon
111520
oturnc2
w0313
w0374
ridgeway
111827
111832
c2442
c0218
c0239
##msc3
srl
srv
w0416
100312
w1462
e0236
e1000m
renfrew
w1576
limitation
147512
149730
151764
filed
steels
##bk01
touchwood
151564
111343
cat12
separated
152974
150790
mo1mpg0
154437
tm1
151233
161697
fro20049
130896
sams
sammewal
constra
esxi01
143677
treat
toroonjjca4
r1303
throttling
spb3
rbt
##lamation
160228
x131447
bdca
permiting
christina
##offset
10114108
hinch
bearspa
bloomberg
sleepping
maidstone
topsail
salem
adjacent
144108
jacobs
im2312574
chemin
coronation
glentel
dcoccm
dccccm
flatpack
smcd3gn
sammewali
bearspaw
075
0114
0r13
273
2073
411
511
508
650
765
777
833
906
aout
echo
fsr
gog
hash
jac
jap
lol
lun
mol
m14
nash
oa
other
pdf
pius
sales
tur
viking
wss
##ll
##rsp
##isis
##a3
##3md
##816
##q1
##erf
##erville
##oral
##stat
reco
##itten
pg171
##ecting
##dem
##elawn
nos
bundles
##1111
1622
##rog
##ulse
100088
##uspn
mot
mohawk
exs
##coup
1844
1824
##pslk
0100
##24sa
api
109082
109781
acr
releases
brurnc1
111784
111983
portland
10443
104153
104171
104281
10149
drp
##mtas02
146888
##22288
149028
glace
said
145293
##ernumber
removen
##mn01
lai
basque
##8788
##meg
converters
arrow
124242
w0017
10528
concaten
155391
onlx
shawn
speck
pons
to5wpr01
to5uspn
123010
5505
4420
amm
e0094
mltn15
100825
100839
w1630
director
c0219
c0285
winfield
w0483
w0452
100016
100307
100324
w1420
101317
gw12
jid00000003
riverview
##bk02
146618
maintaining
charan
151119
147620
e1301
139963
npt000000047
cep
161699
sarabjit
##we101001
149348
claire
153722
ifa1
reachable
146378
##9kym
champlain
boring
larger
kingsbridge
161303
rigger
139681
repeater
t45270
105464
im2322288
reworking
tormsc3
##glen
title
nycmny
societe
cloverdale
jays
etherchannel
125940
dbmv
tubes
otwaonqpo
irisview
10083332
shediac
pigt
tn1846
chingu
ph001seq
##vcok
mosaic
runtime
nyhdsn
l15b
cleveland
to5uspngw
2156
337
408
526
541
558
619
698
686
717
755
8152
918
917
9965
bent
bc1
ctn
dgn
fur
gh
hh
had
hbo
lbs
men
mys
sin
tsc
tmc
v21
wheel
waste
x65
##l01
##rise
##o06
##ude
##bz
##ien
##qos
##atin
relo
##abow
##as1
##teen
noo
stages
teh
adn
compat
100753
100143
100033
100776
100786
100882
100793
100662
1315
sey
1798
##peed
alter
rogh
slb
slate
109787
109084
109663
enfield
##1731
##ondale
111482
111486
mws
tor760
104164
lew
##occ
146979
146994
numbering
147150
pm001
050
149045
125189
125069
125125
148283
stev
laforest
mecan
c0007
c0018
c0069
gsm850
defect
caumsc0
105477
155384
referenced
parkers
israel
londonat
pt07hss00
152113
x1308
to5mx96003
123009
pddch
c0110
allstate
w0222
151091
151755
0038
tn16
w0177
w0131
##perio
110346
110322
va2mpg1
reloaded
longlac
122165
statements
reclamation
snider
##100041
111508
im211
srfron
100747
w0475
w0478
146923
w1599
w1572
reconstruction
consult
104303
accord
rivermede
carm
142255
augments
reconfiguring
152465
150389
c0439
137181
146865
##ls0001
162288
10097337
152631
124634
mrfp
##mx96002
122430
131031
former
periodically
131113a
c0710
cgytf
117917
farms
asw22
124942
e1471
utilities
159861
118142
cm000000029
otwaon10
e1139
rex00c01
##setup
torbsc6
sr12
154393
pointe
brnbsc2
absol
remains
stuck
145997
delayed
4r6
151025
talk
arpd
balmoral
vsr00000001
mqams
bennings
fc9580
riviere
##761301
computer
##on1302t
inquiries
degree
demarks
toroman
kashabow
ebconbt
surrounding
japan
lolita
chinguacousy
kashabowie
1ds3
465
474
5x
914
978
css
cart
gs
g07b
hk
hen
nin
ntt
oce
otal
omdb
t01
tus
tgn
v53
##eb
##ove
##oto
##uel
##bx
##pre
##k01
##eden
##ican
##alm
##arization
##itron
eqam091
##as2
roe
##ilama
##1208
mto
##07t
10024
100134
100271
100880
100332
mcn
1314
##iste
informational
1825
1808
1813
slat
slaves
capilano
01a
109081
hex
tricom
enilama
routines
backhaul
111351
111869
coral
monbsc1
rdp
104206
104255
104276
##ioke
lees
10111
101176
bath
##pher
20ge
##ooting
05l
149759
149383
troy
troub
0004
125015
125191
145247
663
668
##4908
269
provisi
colloc
vahe
##pose
069
##blade
c0040
radd
6315
fwy
##5800
corey
##hampton
ponk
flush
esa
esrd
fcr2
123885
##metricom
##athan
c3043
e0090
w0109
127382
127381
110317
bytes
w2206
halted
databases
111509
oturnc1
109802
109892
0061
##heights
143787
157952
109540
simply
cci
c1951
haney
124408
##switch
w1130
weir
gw21
gw19
oshioke
111415
122801
1077
1xcpe
##cglb
150378
##ground
w0943
compens
##eroad
official
riser
111346
124606
e0598
c2386
templates
152728
152772
##26591
159136
x1101
sanity
e0300
ml2mpg1
151244
suncor
keep
asw92
13138
127527
mssion
okvlon
magn
149931
160909
virgin
4x23
azimuths
tournc7
bowen
##relations
c5417
brnbsc0
symmetricom
barionsp
pulled
middleware
x150191
im2288540
vagsn02
asking
112345
karague
lynn
instalation
lincol
4r7
lacey
cgys
training
fd1
philip
caledonia
katrein
negative
##uzian
iam029
##halla
moody
georgian
s570
pmo1
inches
pt7mpg0
##ss7r01
restricted
6472626591
motherboard
nblcc
constitutes
independ
aurron91
arrestor
rmirh
gogama
jacques
karagueuzian
0961
470
531
568
5123
5267
648
6080
704
809
b3
bapt
cube
denn
each
fdn
gd
ivan
ofr
pall
pcu
qt
t02
t53
tty
wend
w38
ztar
##ez
##tx
##run
##bbe
##iing
##nj
##nar
##nas
##500
##dump
##360
##pired
##erhill
##info
cmhe
newark
##iger
##igation
1568
12c
stable
stok
##ipg
##upgrade
deemed
16pslk
##cegr
cha
chin
ches
china
100119
100439
##ssion
ip12
1742
affecte
actions
allev
##aceperio
11r12
ktg
109091
109167
109478
109102
perfrom
requiring
##bride
##agh
brfr
111453
111435
outcome
monmsc0
153267
153661
153668
10438
lever
10139
101200
101801
101144
101183
endpoint
univers
spans
disaster
05lu
149450
##converter
##c100
125261
148308
145238
2635
w5137
redpath
##cedes
wool
arne
4855
c5653
124140
124222
c0047
c0065
plates
agws
ottmsc0
concurr
155261
##gsn01
ana
flm
highl
152230
x1312
123000
556
129392
c0165
w1234
w0210
e0035
overbuild
151061
144259
w0182
110360
x1516
w1088
byron
w2136
c1582
w0567
109818
os20
100624
143083
143097
whar
111866
she00c01
a0003
c0331
w0606
100726
100736
149525
##leridge
124416
e0245
e0262
146922
w1142
w1568
100932
147552
oshon
##1012
g122
w1775
150979
122304
accompl
146677
e0415
w0987
blackiron
126243
152667
tengig
154678
e0993
helper
148311
toroonlqo
100005
159974
x1113
e0318
154413
c0711
fro2003
127388
togsn05
w2844
130798
wants
dlcegr
tournc5
xpd
##basement
torbsc2
forestwood
##vcvn
127475
05dhct86
fp40
159692
roselawn
unsafe
springbank
im2288788
##dexpired
rmhlonayo2d
sjn
##hspa
111551
melg
melville
154220
decommisioned
cnteth2
described
r12c
random
svn
tr5123
sea805
edtnab05
ml6p11
types
x150918
48foc
bernard
132548
texada
retrieve
province
enersys
ipmq
##asw62
bkd2
arranged
nyrkonv
##pvc00
kgtn
v302r125572
##failure
conjunction
fyi
concatenated
onlx04
otalte
alleviate
##aceperiodexpired
dlcegraceperiodexpired
1k
1r1
1x10g
2k
2972
461
4hrs
574
562
697
7m
736
766
820
999
a05
benson
c76
cik
dco
f5
fss
htt
kurt
lcp
mz
pz
por
rab
rps
rpm
snt
tight
t479
vq
w200
xsp
##e5
##e0
##tment
##oint
##sar
##ua
##g3
##gsc
##ya
##d00
##flo
##pms
##jects
##wich
##ename
##amish
cmwo
##eds
##leans
##ione
##ingham
##sigr
neto
##anne
##mentation
##irbution
##ominal
1447
proc
prox
##add
##adale
##12mpls01
1662
mtv
##etime
##0821
##ns1
##1308
10079
100075
100153
100158
100283
100078
100082
100431
##ublic
1324
1335
##quin
1766
nb4
##1403
shm
shannon
##mode
subcase
he3
tr69
folders
folden
##inkler
111385
outlet
##eme
10432
10487
104245
advisor
##itson
125265
125285
145965
0013
linear
correcting
glphon
w5190
w5376
toron01
txt
##assen
parking
ipvpn
isk
##ftp
x1317
551
richib
ami
w1277
teamnet
154095
##liff
w0118
toroon02
110312
##fpucch
x151
122047
111513
processors
w0537
5211
109819
109891
repatr
##ancing
647302
w0359
whal
c0351
w0614
c0217
ccn
aftern
w0459
e1168
6800
bb2
2048
horizon
##cpq
104325
134166
151782
w1729
111407
111498
c2484
122855
prevents
150812
152464
151802
ncc
122305
163273
100264
4125
vgw44
w1839
145348
144485
151485
154679
109317
edmmsc0
##sburn
152922
printo
greenview
banks
c2661
w0732
127547
mercedes
160972
##nymede
145703
toumsc0
190f
t514
125526
126576
104579
tlbk
rmi
recovered
140804
langford
143902
squamish
wsms
trfch
escal
clgrabspds0
mctnnb
galt
163767
##aitons
insfram5
788df74
x131506
skyward
top4
lorne
supervise
climbing
selkirk
##eronominal
cermack
transcan
esme
##staff
10307019
chnage
hickory
netcrypts
btfdona
ahmed
propagation
paradise
rouge
noofpucch
barionspws1
aurron91ds0
https
6473021613
afternoon
035
414
479
607
614
679
676
779
7237
822
925
aa1
bx
bb1
c42
e9
gor
gie
god
hg
msp
nord
nli
s8
sc1
sene
t12
tmx
t2008
w801
xre
x86
x67
xura
zee
##ebr
##cf
##tp
##tron
##r032
##ough
##bend
##n1
##0h
##f2
##fair
##vu
##onals
##amar
##tson
eqa
##isa
##isle
consec
5925
roge
stir
##ivy
##olds
##upport
##ffr
comes
100248
100amp
##user
ip15
sewer
cogent
cosburn
2500
##ieu
rog14
##2400
109782
111457
111436
##aches
clay
104265
104180
104160
104187
101179
101663
30g
unne
##seley
buss
05dyct
149256
149075
149251
149088
bellamy
125243
666
both
0201
jour
vermill
stem
w5382
071
3569
roadm
voip
##30a
arra
c0045
patch498
rruss
457
giga
parkside
woodro
segmentations
pe11
pe10
fcr29
152271
1037
1039
103103
npt000000018
c0145
marsh
barrington
154239
110330
summit
3329
eventual
122297
10299
x1407
111547
w0565
republic
morin
157287
146568
c0370
100718
100722
100323
111726
111742
149593
w1485
124494
e0281
149668
101327
##castle
104309
104328
104326
carib
111418
150939
123370
150079
rssi
149859
150391
c0433
c0418
146846
w2314
151634
122763
passi
cgw80
150767
otwbon
122911
assisting
4035
152742
npt000000043
adjusting
x1105
145808
145828
154833
tcab
150159
117916
asw91
po00101
123905
146712
127539
ipx32
milk
okoto
superior
100856
mitel
w5402
125540
##ready
denver
123672
143605
701remote
ax100041
anymore
trfcd
148233
consumers
109772
x1601
x141896
armstr
100558
ml6363
triggered
twist
tormsc2
10077521
##bc01ds1
142007
transactions
im20153
2x134m
2x134mbps
moodie
privision
ilec
122006
fctnnb
montqebr
qubcpq
##winds
otwdonrq
##mobile
simultaneously
demande
shepard
ocean
lincoln
05luxx
sjnbsc0
pzeronominal
consecutive
vermillion
okotoks
046
034
298
338
3hrs
478
6x
643
622
764
807
939
atw
bhub
dk
dere
ec1
hm
hawk
jaw
mund
pbs
pender
s3
six
uc
ues
x5
zen
##lain
##e1
##smission
##uve
##g2
##bee
##nell
##har
##664
##fu
##pitts
##wor
##stead
reyn
##arent
eqx
eqam0
##0325
##02sa
uses
powell
staged
##forcing
##eting
im26
100155
##ubtype
ipns
seed
1710
pt006
##istian
informix
sha
##scp
11pm
109759
trun
##enda
##9503t
performs
111550
111752
circui
complet
153103
153478
##shore
rdu6
clr
104166
104286
104183
104279
104298
146118
146141
146986
146862
unix
147245
147280
1470nm
csm
decommis
053
149198
149171
1490nm
trois
telx
125367
corrupt
corrupted
148278
148331
blc
##mnts
warrant
column
colpitts
mlink
telusat
westheights
072
357
359
arbor
megs
##ichol
124248
##orden
insulation
c0056
ottbsc1
w0005
w0019
devicesubtype
40a
50mbps
brow
c0107
##atha
etipg
baltim
teletoon
c3190
w0186
kinghorn
110337
calmsc0
calt1ax
100815
buildings
2009
mx240
w2054
qpsks
w0548
pg108
hillside
0048
100577
w0364
w0353
w1641
harbor
harvest
109573
sheffield
146556
c0321
09c0
c2249
x1203
130946
c1976
w0451
141976
100396
100318
##bea
2x2
149546
medical
e0213
e0243
146929
101304
e0100
147527
147558
147559
126460
gw16
jid000000045
104323
dhc
142245
##housie
w1913
##1016
75207
w1787
111403
5842
123311
150850
150879
122384
149814
c0414
151582
100209
w0909
w0911
w0985
tvss
mtl2
153302
alu7750
152381
152626
specifications
c1690
109745
123779
e0955
147632
mo1mme0
##ugal
ctrl
121926
161734
100125
117912
po00107
147744
tapscott
8513
g116
vaurnc8
denis
148996
145636
w5204
cm0000000308
hommed
metrotown
vspg1
100861
investigated
142390
triggers
146858
mtrlpqqnds1
t11694
smoke
twamp
tormsc4
ml2iumc7
movie
fc9682s
benz
emta
wesbell
bearer
ilom
a0258
134104
refreshing
remplacement
administration
##telecom
cambie
umfi
tbaytel
nationally
stjhnf
ofdma
129424
choice
##sbg0
bruno
unmapping
sleeping
historical
vortex
##sar60
woodroffe
armstrong
pzeronominalp
baltimore
047
049
0974
1ds1
463
588
543
680
730
923
991
agr
bh
bid
cq
dot
e23
krc
m03
mason
manner
nam
pec
rte
rust
sain
sftp
ttn
w0251
ynoc
##lle
##cer
##ople
##uator
##yton
##212
##220
##d7z
##ht
##fil
##jon
##j800167
##eral
##amer
##ati
react
##01a
##2591
##itivy
inbuild
new1
nsh
##igo
596
rovers
##1601
##olt
chate
10007
100267
100182
100359
100761
sw02
##tws1
##twoway
1796
1719
1797
1767
sh1
1801
rog15
capable
cap1000
1959
tru
replacements
111755
111888
111382
111774
111791
153445
10429
104250
104291
104254
grid
10100
10148
101142
drif
146984
cs2
emmet
149002
149144
149754
149145
125001
125085
125095
145278
661
669
distirbution
2013b
steinb
c0066
caurnc1
10525
105466
quinn
155002
155176
155051
wolseley
gig3
pe004
esn
152053
bccv
smy
increment
c0126
c0131
optimal
w0296
w0244
e0097
w0142
110367
100828
122284
w1070
x1413
111501
w0549
1085
1080
109825
109898
pcl
146500
146593
##valid
##valley
e0682
100795
w0494
100304
100329
111703
149616
149669
e0155
roughly
05dhat99
126493
104306
104318
##wards
100495
134094
carson
rectify
150557
vpn60
##ahan
c0410
124356
100223
burton
broadcaster
compu
152681
111349
e0805
hiaw
154608
122077
a0318
160682
##ova
committee
145829
energizing
121918
domin
earlie
c0705
semi
fro20048
birck
w0710
154530
124920
##800is7
c0816
100068
x2setup
104203
c0678
supermux
courtland
mayer
100857
alternat
e1142
clgrabb
145734
bowden
148915
mcmurch
question
srx5800
238974
trfcf
30272
w2977
131734
143702
malibu
monbsc2
105504
vulcan
123264
o1305
109779
109770
wnpgmb50
145935
t11715
141201
126226
hmtnonxy
146859
cgn3rog
143526
flx4100es
stephan
##abilities
button
ktnron06
igmp
c1967
georgia
cantel
rcmdbc
classifier
mltns
threshx
templete
tssa
tenth
duckworth
chamberlain
didn
unvlon55
whyte
behav
samsung
tusc
highligh
stemmons
arrays
passives
warranty
##twowayrelations
steinbach
earliest
x2setuptwowayrelations
1q1
455
575
529
7a
829
beck
border
dick
floyd
hmr
iom
lni
likely
n5
ncr
nnm
names
p4
t26
t43
tmn
uhd
v5
vec
vmware
worth
z02
##ource
##ync
##bir
##mail
##park
##cth1
invalid
pg165
##irely
##isy
##isp
served
##igue
1286
##ado
##forts
##imsc
##roid
workorder
##eted
100110
100293
100124
100380
100036
100195
100751
100355
100356
swt
swan
moumsc
mosher
equiptment
##quate
1795
1799
##istic
submission
subbasement
capital
retention
ueq
109222
109490
109783
109479
truro
trelc
##2600
background
##emy
monahan
torl
153150
##locis7
104185
idu
sytem
146755
146661
unic
##phy
transops
attrib
147118
##anta
emad
fourn
149112
149167
149242
149168
commissioners
125029
125257
blair
145290
digits
2013h1
runner
orton
w5166
w5126
w5392
aval
westwood
wdbgon
124096
c0075
##ventry
##tney
caus
rwimsc
terre
valadeo
allowing
isw3
beams
123003
markland
c0198
w0273
e0067
cleared
144652
w0102
w0123
w0175
w0117
127389
127392
127379
110336
110370
calbsc0
100805
100896
entirely
snr
w0597
w0571
109829
80w
100505
100573
ircth1
t1041
109591
111833
111818
111831
146569
146581
a0067
wait
c2289
guelphgige
w0653
keiller
130949
10001207
100315
111739
w1487
evening
##iances
w1548
w1581
158004
8808
100944
100942
1063
gw18
149726
149777
carous
g124
w1779
c2412
c2407
6196
downtilt
150833
150862
android
151879
122301
cienaaccess
133242
124388
100205
126449
w0882
145314
145321
145349
144497
111364
109709
146482
separately
151635
122767
passmore
122999
122931
e1374
frog
x1114
154847
154848
109605
161774
154439
c0715
150166
123544
##dcws1
160045
crah
craw
153803
toroonlqca1
importance
importand
turnc16
118113
153711
virden
ebif
ebnoc
152187
2050
apexes
vacant
tangreen
meadowlands
##attach
##logic
148515
160534
pwgsc
spb4
gols
bonnie
occurred
amplifiers
rgm14
dalhousie
efforts
observation
lineups
sideroad
150244
navin
extrem
g1508
126214
##onbaker
transparent
easy
132768
110974
gordonbaker
126683
##tspc1
xlsx
ngpp
cloverbar
philadel
gbic
retrie
preformed
totten
cidr
announcement
158835
##thresholdrs
x130593
epsw
jeremy
unlikely
mntnnbdcws1
decrease
##energy
s6a
2803880
d140703
jalil
repeatedly
hashim
10149291
carmich
ninth
##bbe5
leverage
universal
iskander
richibucto
whalley
new1x1
emmett
hiawatha
alternatif
tuscany
trelc9kym
2013h1hspa
t104109
philadelphia
1c
279
339
3x10ge
3x10g
4a
477
5k
567
589
825
836
884
8886
bct
bag
dfs
egem
eerf
fencing
gray
ia
jsp
kap
lto
tms
tone
vb
vern
##lj
##eg
##c8
##t2
##o2
##u3
##224
##2sip
##bush
##munic
##fx
##par
##inc
##stown
nether
prs
##ism
##isse
##cht
1292
##0565
##0553
##olm
##11a
1628
##1509
chand
##ns2
compo
100206
100085
100250
100047
100126
100257
100081
100331
100181
100079
100480
100589
##usb
##quency
nbc
nb0
##idian
1846
##uston
##ifer
slt
retu
1916
1927
109147
109656
heav
bracing
##onds
111379
mwi
swapout
153462
153868
interact
intergra
clid
10489
104289
104457
10165
##iveau
##7871
146980
146887
146874
146987
spin
147243
147889
147363
149960
149030
149083
glenn
125287
148291
148074
148992
docs
##proof
commencing
orleans
vendorvpn
relative
westney
##vely
3502
el5
convergence
tdba
124048
c0044
##8345
e5263
e5147
e5058
w0099
terago
452
458
155259
flat
doub
to5mx96004
123001
c0186
etus
w1224
w0212
e0065
##ppo
154089
151251
144005
127492
110313
110319
110362
100836
100832
great
x1526
122049
w1065
10296
102992
111517
processed
w0588
109890
os2
legal
handhole
damages
100639
w1618
157015
109530
a0013
w0601
jump
x1225
e0611
100705
hanlan
111745
111743
e0211
e0210
e1018
101312
101314
broadsoft
e0184
158455
100916
horn
126475
104315
124514
##laur
##vxq
hault
150074
163012
146825
153399
p2dem
152627
tunnels
donah
pg143
111326
109738
124616
w2301
w2372
151624
152923
122905
117870
109433
148860
151212
150154
rtb
144573
fro2004
##012md
8300
saskenergy
127395
c0844
146707
goldline
po00124
127507
104211
145233
walter
160718
restoring
1gbe
125413
##atrix
161448
oliver
dynes
100659
torbsc9
torbsc5
141861
111298
152209
looks
152892
##cellfdd
cpu0
anycast
127409
materiel
crashing
pm01bwxsp
brnbsc1
sequential
c5307
nexacor
technologie
131760
appliances
villamar
sjurnc0
rgm12
cotton
142347
unionville
aliant
129112
124108
linden
##fficiency
109554
8xge
cal810
c1391
c2567
to5usppse
146233
132518
##srx01
strap
banff
tobsc10
sgw03
renovation
10112927
utrancells
attenuator
obtained
gladstone
stdprt
beaucoup
toronxn04tmr
##820801
plains
6de01
x131820
fonor
kmlpbci
functions
thruway
fc95731410
wtrlon
treatment
exsiting
mysql
05lvxq
virginia
tengigabitethernet
10299202
0000000
1h
2001
2231
397
346
423
434
573
636
630
674
716
748
735
773
8k
929
931
954
dst
dgr
dale
efficiency
game
hst
hund
hawa
kdump
lions
matt
rk
rter
sort
same
x100
##lte
##ea
##rm
##205
##296
##464
##icton
##m03
##998
##aj
##aon
##fast
##furt
##x3
##x8
##java
##k9
cmxb
##urished
##000001
curren
##eset
pg0
pg119
pg162
14196
1582
proof
##0404
5941
nok
##ila
##1515
mta
adw
100096
100mb
100130
100455
100178
100121
100150
100383
100353
sweden
exsisting
actitivy
to2
topp
tournc2
##2104
1878
powerstream
subsequent
##to5
atco
apart
apma
109152
109093
109116
109768
perip
acn
##1837
##agne
111466
111354
111340
111763
cnci
153031
153154
ersk
104156
104182
104184
leh
10115
146133
146443
##cah
147120
147151
147234
147758
147060
147680
149243
00025
glibc
125127
148447
148136
148441
148752
cristian
##9926
##31sa
runnymede
scal
toronlq
##posed
pm01bwc
361
arab
vanmsc2
124172
291
2900
bayfield
communicaitons
underg
w0020
w0051
posts
105468
rncc
valued
459
155154
pp02av
guys
freed
##woods
esap
ecc
152093
x1320
to5iumb1
to5wpr02
paris
marked
npt000000019
threath
w1293
marten
e0019
barrick
154271
144278
w0143
127361
110306
110352
pop90
va2wpr02
100820
southgate
122298
w1756
entered
##csb
x1412
x1415
##pres
w0573
w0590
109878
w0354
100688
143034
111876
146504
146573
146562
x121501
130920
c1914
c1952
5737
100745
111699
100305
100328
2x131
e1015
frednb
149688
refers
refurished
101303
##post
158047
a0246
126450
149743
149787
100429
##lette
demarc
fanshaw
haurnc0
##cged
qcmtlbwc
133151
124304
163438
146847
modifying
100211
100220
raising
a0144
mtlz
hosted
152616
144473
144484
151437
151456
111378
111342
109749
146432
154618
124638
151629
a0333
a0341
151378
151376
courtney
121860
161299
10002246
npt000000048
e0309
154870
2143
600a
147214
117906
syncr
101577
po00116
9900
131352
milner
packetworks
sbcs
olt
##ledge
100656
xpi
109945
pairs
bradbury
tln
vd1405
c5497
110727
162518
148500
qcmtlbwxsp
squire
143773
arrangements
l1fp
washburn
piccare
bridger
111552
dorchester
observe
110132
s1506
hmtnonkj
frankfurt
111854
cordova
157520
to5iumc7
cvm17
advertised
incorrectly
##ext03
131626
indicator
butch
10132536
benning
welland
##walk
reserved
belgium
##ystems
toroonxn02t
im2015333
charlottetown
excluding
bryan
inquires
degrees
136726
somers
drummond
deprovisioning
drewry
jennings
untill
galaxie
10101733
mtrlpqqn02t
nt6x40ga
alexandria
lipsett
tr5211
7670rsp
126995
t47909
repatriation
zenway
bccv8345
vecima
unicast
retrieval
carmichael
compound
haultain
donahue
fonorola
dgrt
hawaii
2250
3c
373
371
5651
649
729
737
722
770
768
867
930
c0251
dv
dash
f1
fis
fow
gc
gign
iconverter
jd
kem
kens
l9
mres
matrix
nis
naming
r7
rstp
ritson
say
senc
told
vtelecom
##lvan
##eous
##rab
##rnc
##ost
##uds
##gmp
##2ip
##ais
##x4
##v5
##v01
##on01
##onbridge
##aman
##urse
##ited
neul
prv
pras
prarie
##abi
newbr
newcastle
1432
concept
##asts
1285
1299
1261
##04sa
##0412sa
##16sa
##0527
stair
##imode
##1502
upto
chg
loby
##13b
100091
100384
100190
100070
100762
swit
exit
ipsec
##qui
se0
seat
1749
1782
1754
1753
coating
##isty
10mb
##pean
sheets
algon
##uster
##anda
01dhct
109550
109381
109492
109763
109657
109581
##ptr
2400
##2631
briar
111334
111359
111358
111768
111773
tor2
torfon
153030
153663
erik
10427
104800
104297
104261
104252
101143
rc1
driv
146094
un3
147075
147789
149246
149053
149147
149751
125131
125269
125550
148091
148006
145206
145993
resplic
manh
asn
asr1
joe
##lang
armour
c0012
c0014
c0048
693
##ecast
carronbridge
w0078
forecast
105494
s1s
155085
155269
3212
peach
152951
123013
123012
60amp
50a
three
128970
w1206
w1285
netra
e0073
e0071
e0053
barry
pav
154091
151070
144282
w0105
toroon275
110305
0026
hdsp
southdale
minimise
w1003
w2219
x1409
netsure721
visited
111503
w0599
w0570
109836
w0342
100678
w1680
157980
157448
157339
111840
c2206
w0611
w0618
w0676
ensuring
130912
e0666
100742
111659
141980
100309
111766
149500
124412
124448
e0297
e1023
freeze
nt0h
146988
w1104
insertions
e0105
bbt
100929
a0202
147533
147557
147556
126452
collectors
149731
142968
122867
150863
1x155
losses
149891
##2012
100225
100226
e0416
raza
charlton
a0162
153363
123849
145303
rpd
w2745
154635
pipework
124604
124685
122793
cdma
124782
152907
151100
153602
salt
147699
121892
npt0000000656
150646
139459
caller
x110
e1217
e1230
150446
##vmail
151283
124995
c0833
e1629
automated
w2592
127524
162407
130703
ifa2
padding
sandal
crsx
mitigation
dl380
160860
109260
161423
100653
109900
141896
normalize
145613
montg
toroonjjca3
148502
148534
##al2un
mccarth
aquire
fc9681
159943
162192
mx96004
sqa
163612
150271
ntk529
166309
talbot
divided
mobilenet
r12x
ssha
tr5118
109558
indicate
cal820
reschedule
##installation
maintan
thrid
vancbcxa3md
krf
recombin
stabilization
diverted
innovation
x141938
resili
thirty
cecilia
im19844
fnpacont
dismantle
rmhlonbica5
mssgonprws1
ossvan2
ralph
jersey
##1111t
wendy
seneca
montqebrws1
atwater
derek
inbuilding
nshlfx
mcmurchy
ncrt
peripher
pp02avgq
gignac
neulion
prasad
newbrunswick
toroon275md
0085
0776
1and
349
379
334
3240
3963
507
564
524
528
547
5200
618
848
981
bip
bbr
bby
borden
fen
g7
gr1
hon
mul
nit
odc
qmc1
rush
raven
ssm
tsi
t73
vlr
w31
yak
##eu
##e9
##cco
##cial
##cfe
##ras
##rath
##ox
##sg
##s5
##udf
##204
##703
##iette
##haws1
##aford
##inf
##amat
##edfm
##ste
remark
dsu
##arn
inband
pg160
eqam40
plen
##ector
##0275
conect
1590
152569
1230
##adia
popl
popp
stg
stain
stake
##forcement
16ds1
##rot
cherhill
workers
imper
im196
##0613
comission
10033
100043
100183
100058
100171
100671
sw3
sev
1733
1775
lte2100
##umse
##idad
1864
ymca
##scau
##usted
##thers
109432
##osen
trin
trad
mtnkopt
##ows
##ended
so086
111901
111448
portions
torbsc1
2328
153192
153193
153067
153064
153484
153853
104262
rc400
nonservice
day3
they
146246
146023
146959
labeled
spor
prepping
147288
147482
147050
embed
2106
149448
125201
125011
125133
125093
125071
148015
148959
148485
cricket
blind
145243
145270
bouch
cp11
##3475
a2l
w5080
westlock
352
listing
3625
3620
txtemp
pne
arena
mezz
meaford
124052
124160
124154
2944
smt115
w0059
campa
105485
155159
isn
gtac
ecp
x1302
to5ex
123292
parlay
opsnas
557
1035
bdfbs
packagers
129218
northgate
c0103
c0175
amcd
w1288
w0297
e0012
154042
144258
w0132
w0190
127380
127356
127358
calbsc1
midst
1027
snw
##1003
111522
109801
109805
109821
109833
hillhurst
0046
100583
100604
100612
100619
100665
100635
w1624
w1656
157446
109539
109592
111817
146527
146594
a0068
waver
waiting
im2259
w0675
dpch
130979
e0640
111627
141943
w1495
w1455
146925
146912
renforth
w1559
e0124
158083
147539
3050
124520
124594
149796
100424
100475
134191
caramat
151763
w1922
5420
122861
123348
123356
1x183
151881
150376
137962
133077
c1852
##nesville
safari
unlocking
109708
e0849
154664
daisy
160608
150719
w2684
poba2vgq
153635
161283
117825
e1367
100026
x1104
145875
e0308
a0418
109687
finalize
hitron
100103
c0722
150126
150135
147296
147244
147305
117914
161805
po00109
##venhurst
154720
131373
encoding
po00111
presentation
100067
##ragg
merge
145212
c1442
##vox
adequate
natalie
152176
aspera
122519
olive
modulators
t518
paynesville
143615
143686
109908
##attan
141899
145633
hunter
142085
tlc
55dhxs8
ilh1
##gateway
w5211
##reltime
147403
visio
131762
110006
overlap
143724
monbsc5
gravenhurst
davidson
scotts
100862
lbhon
105465
144603
sidney
g1509
hmtnonjm
quickplay
smoky
laggan
to5iumc3
e1983
148677
x120008
ml2iumc3
cctv
psa42
03801
uam17
ca4to2bc
applewood
##iya
167224
111975
residual
banque
hcdsb
10112935
savings
10001909
fro2003915
im2019926
x151420
136728
burlon02
##smpc01
toronxn04tat
10112006
10000947
handoffs
cxc40113
organization
practice
workordernumber
argyle
removenreltime
pigtails
lewis
ebconbt01t
rmirhjava
qtx1
accomplish
melgund
otwbonxu
sainte
moumsc1
tottenham
vernon
doubt
barrickhill
frednbysws1
2143887
vd140509
manhattan
mccarthy
ntk529bbe5
recombining
poplar
stakehol
##umseh
im2259443
1am
421
444
4mts
522
532
584
616
626
713
830
936
c11
gtt
hack
lau
liver
m01
vct
wing
zoning
zaman
##cliff
##tk
##ties
##rn
##right
##rg1
##b6
##bk1
##mv
##di
##d0
##filling
##fw01
##pipe
##qib
##amon
##amce
cmts0
##atly
repres
eqpm
##sim
neig
##ac01
##vich
##assign
proactive
##adic
rox
pops
stf
##upied
##ret
16de
##route
im237
##1301
100117
100167
100144
100350
100441
mcbride
13l
1336
1385
ipcore
nbu
##000bctc
2510
25183
todd
tohbsc0
##2109
shero
1807
##iface
11753
##2427
10923
109960
109250
109179
109758
109431
109794
109589
conflic
##2304
trip
tried
epp
111393
153248
##achine
3100
10495
10435
10484
104207
104165
104163
104188
##io05
thsi
146008
146143
headed
147200
147077
dcms
##mitt
emer
149164
0007
glasg
saqib
125027
125087
125067
125157
1480
148281
148990
blen
blin
145272
145251
145958
0014
##prod
##ds5
asa
orland
elbow
woking
fresh
rrus01
contacted
124000
124088
124234
124042
124989
c0019
c0046
c0052
112435
caution
w0016
105482
105493
105471
105484
155112
deployement
apg43
plants
hyman
es11
0378
x1323
to5pms
123020
103108
missis
breakdown
c0108
c0134
c0180
c0153
mars
w0219
w0239
e0009
scripsts
154218
151020
144138
w0106
110338
110369
mmu2
netsvc
10232
10293
w2047
111516
111537
##prior
w0516
10865
109875
os21
osfp
handwell
w0384
100679
w1660
w1698
roofers
which
111844
111865
111878
c0303
ms1mme
ms1mx96003
0053
w0697
c0242
ccts
e0608
e0626
c1992
c1980
111636
111676
100306
111747
149594
124422
evo
149609
1964
146944
146927
e0177
158000
158081
147548
functioning
126464
104300
104311
149791
149761
temporally
100407
134002
134085
134098
151701
w1704
readily
centrepointe
150997
150558
c7up
151846
150070
149811
149890
diagonals
124300
124348
124392
146644
100295
w0919
162029
153353
126242
upspe01
w1851
145322
w3151
144486
111347
c1669
109748
cs2ks
c2711
160665
160654
w2400
152509
151364
151374
148341
npt0000000648
150609
glenlake
to3016
stores
139169
139074
154846
a0441
c2541
161770
rtp
161000
101578
industries
160089
151910
124926
w2848
104202
c0643
walnut
magrath
159897
turnc10
frances
ts2
w5327
160709
100854
otwaonmg
w5608
152188
161935
126505
126587
municipality
141858
152295
154392
nwmr
nwmk
tagging
cosser
132328
130641
160501
aka
143913
143716
101664
introduction
boniface
togmsc6
102945
109771
palace
during
111558
##sdv01
x141849
154260
bedford
hallman
t11697
129683
ptoa
r12m
exceptions
fc9682q
senlac
432f
tortor
10130748
thrh
bernie
123196
10001808
tobsc11
142005
compute
x150667
pvlan
142530
134570
mckay
probability
134699
buffnymao04
3he036
reviiew
lsancarc004
opposite
urban
diagnose
makes
seymour
accordance
magnate
dennis
x6748
circuiits
chateau
driftwood
fischer
kensington
algonquin
peripheral
trinidad
sporadic
embedded
eqpmnt
25183cggp
glasgow
orlando
040
1j
1s1
364
378
422
523
6p
6960
745
758
8w
835
885
921
c65
cfm
cims
eaton
furn
gent
hb
hpe
ital
jitter
l34
lola
m410
ncast
ov
rn
rts
r19
sutton
t64
tell
t10
vand
vaux
wnd
w47
xd
##l2
##tray
##u4
##uff
##yal
##yard
##798
##nba
##hell
##0a
##jx
##vity
##vier
##zil
##ints
##amin
cmc
cmp
##edm
cmts52
##ored
##orama
##ante
##least
reall
##iti
nepean
##lodge
##dea
newt
##0202
##iro
##omery
1424
122561
proudf
595
now
rool
##illy
stub
stby
##ived
##ape
##plane
lots
impair
situ
##13mpls01
10025
100094
100123
100262
100266
100194
100681
100668
##werror
exerc
1398
##quay
##quired
sean
seaton
##very
1722
1777
coventry
mdcb
25640
##pe1
##codes
1804
##dley
##artion
rogsh
##to3
retry
atkins
atleast
##2483
109166
109185
109158
109279
109390
109961
109784
houston
mining
mines
111980
111350
111380
outline
torbsc0
torbay
153072
rds
clone
erlang
10494
104259
10173
101358
dron
sdca
fa4
146130
146380
146886
146870
uncover
spod
attaining
147208
147230
147769
##arrier
##sisdn
eml6
pm00
05hi
149000
glass
125013
125279
125139
125081
125007
148265
panorama
bl16
blake
145250
145265
145269
145240
145888
145671
patience
commisis
technic
vaz
ormond
w5094
w5176
westway
scbe
20120412sa
strate
3627
201402
arph
arpm
124757
292
c0041
c0051
bayly
112442
smt11
undefined
detected
105479
4503
155265
155148
155018
155471
canon
isl
beam
hylton
dnc41
152219
x130325
123781
parity
gets
gi8
c0100
c0113
w1212
w1207
e0030
e0058
paid
154207
154195
151960
151023
w0191
127384
127268
110308
110314
110310
110358
7606
va2iumb1
cal1
100804
100899
wireles
india
##ctional
w1021
w1753
##1006
111507
111545
w0566
109827
109824
109850
109832
os22
##mx1
w0360
frequent
100696
w1639
egl
143453
143439
157960
157291
tekelek
109562
t23964
##ology
111845
shea
146529
146566
146563
c0328
ms1mx96004
0058
casc
w0699
c0216
signals
mait
x1209
130944
e0623
c1915
100734
111657
w0496
w0491
141923
141959
##be103001
111741
111734
149565
w1419
124406
124464
e0298
149687
149656
e0101
158002
158053
100904
100912
100920
100941
a0231
1065
fieldgate
104308
mountainview
100425
100402
100496
151719
151731
w1917
##1010
g1233
w1781
122893
150990
atm4
123343
150832
152466
152461
149831
149832
150368
137218
124346
146875
146637
foundry
100213
w0998
a0133
curt
162443
pg150
123851
offset
w0868
w0891
152375
152342
152371
152614
145307
109705
e0898
124873
146404
w2398
123718
c2734
160688
124727
edmtek
145569
152573
150766
w2622
151104
151171
lands
glenwood
150489
147857
hitting
campbelton
148856
c0713
147204
147233
4fp2
alta
161856
c2221
##weel
154739
153866
146728
153592
moxi
meridian
sydn
147925
147935
##103002
turnc12
w5396
of1
w5421
##u1c1
146347
140979
109909
143381
toroonjjca1
geoblade
srx3400
willowbrook
authorize
144376
161307
159658
148264
monbsc4
myk
155396
124244
159905
develo
togmsc8
clgrabspo01
155296
144684
149220
1510nm
assumed
herndon
rainy
143512
ipsmgw
hayden
electricians
nttp06
10114109
npu3
howard
offloading
sensitive
##dell
transactional
caches
x150586
at3510
hf4
icmp
prioritize
savona
sdbronl
tecumseh
153225
vant1ax
##pse91
acdata
bbmw4908
lspfe
1610nm
tinactivitytimer
pearl
vodlink2
w0252
evalu
servicescommontmcontqos
guildford
imapct
preprod
chesley
marshall
fc9682sps2
##munications
spinvox
kmlpbciyo
rteref
erskine
syncrude
##gmpc01
1x155mbps
r12m19
reallign
proudfoot
sdca04
05hiut
095
326
4am
428
448
5b
527
5208
641
631
725
703
776
782
873
894
922
955
986
972
9999
aid
a3602
bbc
bench
cbr
cu1
ila
java
kink
klu
kaba
lund
l12b
omx
o112
rated
rere
rico
sx
t03
toms
t113
ux
yu
##cards
##uit
##gap
##gister
##4000
##hf
##high
##hlon
##hwerror
##a00
##f01
##v03
##qn
##z8
##0023
##lets
##0179
##allow
##alia
##es01
pg169
pg161
##sively
##iroot
uspc
prof
599
##page
stale
1697
##imichi
mtc
##pluginunit
images
100218
100098
100152
100168
100385
100458
100783
100352
extent
mcgregor
1361
##quon
1786
1759
##unc
coyo
##2106
##peer
##peau
##ides
1877
1177
1970
01b
apc
109278
109268
109145
109793
perm
acadie
24hr
##1805
enet
backfill
brom
performamce
111472
111338
111434
111887
111790
mw3
outt
outputs
2340
153480
10478
10439
104158
104240
104247
104266
lef
10135
10176
endpoints
batt
##aka
nonquon
iprantac
devicegroup
146872
146773
uninter
##ighton
spo
spm
disag
partitions
147750
147201
147353
054
149756
149081
149380
149431
00011
00017
glam
125091
125455
125049
125121
125239
125383
125163
edition
148277
148382
148197
145297
145252
145331
patel
201309
cp04
feels
dtcc
dtiroot
collin
colbourne
##dsf
w5219
relabel
score
laf
above
##eley
389
067
me5
c0024
112334
112335
ca0001
##luence
campeau
105463
155mbps
155110
giglink
##bo2d
woodlands
inserter
##oney
realty
flip
pei
152279
lift
123002
123158
123162
123883
123652
parade
##volte
markets
hopital
thread
129133
129168
129459
c0196
c0169
c0156
w1215
c3152
c3252
e0005
e0077
gige1
151753
pg139
w0169
127354
127369
110307
110348
110332
a1thresholdrs
va2mpg00
100814
100841
x1524
122208
w1059
qcmts
1026
oturnc
6477
100578
100541
100587
w0361
100673
157444
157014
109543
146592
a0024
c2961
w0600
w0695
metho
100764
100798
111692
111662
confirms
w0495
49th
111713
149552
w1465
w1434
w1461
e0215
evpls
149694
149681
sentry
##x1g
146903
146916
146933
refill
w1580
147528
147530
126495
126488
126479
126457
104321
railbed
149782
100498
134073
cars
##3087
generalhwerror
g1228
c2425
122883
122891
5102
150536
c7000
123329
150883
150075
rsvp
149898
150390
150393
c0422
163430
146812
146864
146614
146688
146686
151509
151571
w0916
w0992
a0166
c1859
compet
162338
153344
w1827
10097663
10097641
145324
ampere
donlands
c1676
109741
146483
124608
124626
a0328
c2306
c2370
124715
145512
152511
152515
150764
toroonlqws1
147601
100008
norfol
timeslot
e1205
145814
154845
ml2iumb1
a0447
109690
109693
154434
154487
161577
161599
148843
148874
151232
123591
147211
147215
smscs
nearby
147398
c3705
161679
w0704
w0707
kennedale
po00105
147700
147749
151928
100063
elementary
153938
145211
147914
149315
sce8k03
149920
140312
140333
tsaw
w5388
##guard
apprec
sample
rehoming
145766
109213
161410
asr9010
tournc6
dnap
starfield
torbsc8
huntington
101416
t23815
srx240
132397
kingswood
schemes
144346
160567
161376
148209
brazil
110008
130235
pw1
vips
collecting
l6ghz
auxpluginunit
complain
ibmgap
evsback
129395
redirection
rbs6601w
148710
captured
159797
126212
gigabitethernet1
gigabitethernet4
shifted
110595
146854
smokey
e1998
101223
watts
topology
fastethernet
cranbrook
redistribution
143846
126727
sspfs
ordination
exceeded
rebalancing
10001428
fractional
psucom
645000000
fro20039158
##76464
powers
downsview
levitt
pakages
121964
toler
sansw01b
bulkhead
footh
strands
merritt
x6148
formerly
cartier
compensate
baptiste
x111387
nyrkonvtws1
unnecessary
##laurent
158264
lehman
martensville
fanshawe
peachtree
montgomery
poppy
sherobee
conflicts
25640cggp
kabaigon
coyote
a1thresholdrsrq
methods
norfolk
appreciate
079
081
1pm
3pm
3972
4b
485
578
571
624
617
945
9002
abr
csp
c71
g13a
hix
ked
l5
m20
mse
oim
pys
pione
rio
scu
t09
ura
wag
xitt
y1731
##l13a
##e2
##tm
##rar
##ois
##o2p
##gel
##gog
##bmd
##bdf
##bird
##m5
##mus
##mem
##hy
##hat
##px
##pol
##wen
##wfd
##qa
##klin
##tsqui
cmtsk
cmts78
revers
reattach
dsu1
dslam
##0302
##dev
##abk
##02b3
##0922
conklin
##assiz
##04to
noble
robb
##illo
stam
staf
cabletray
##11874
chosen
##2063
100265
100148
100176
100146
100039
100881
100885
mos
upghr
upgrate
equipements
ip18
1765
1758
couldn
ptbo
nbs
2544
tour
##64111
109144
109958
109886
109391
109683
trdevice
permission
24f
##awc1
##elltime
soik
britt
111751
111761
loadbal
tor5
2313
153122
153022
153142
153191
##shot
ern
10488
104258
104274
104753
104194
10108
10138
101185
##43l13a
rcpbc
fa0
146951
146122
146285
146882
30min
unb
unst
20mins
rfwo
attention
147119
147065
147080
147394
csct
##2213
##aude
empress
fount
149248
149179
149389
149340
149991
harding
##encelltime
##conn
00019
1258
125449
125089
148286
148297
148284
148237
blan
145142
145276
removencelltime
##strm
fevr
##79169
##ieres
sheldon
manot
pb002
avondale
3577
3571
lavin
382
3810
3800x
tapping
rrus11b
arise
##connected
rhr8
mex
mean
124012
124132
124332
c0029
c0032
c0057
night1
691
112337
112336
e5480
fw09
fors
1057
10502
10524
105481
quumsc0
155028
155116
04h00
041805
3200
peform
152210
152111
152091
123255
marker
1036
npt000000015
##52service
ge10
##aska
##links
w1237
w1263
c3136
w0225
##vcva
154016
154092
154173
0032
0036
w0115
127272
127394
110339
100845
100865
##2003
2003
southwood
x15074
122141
w1068
agassiz
1020
w2158
ssvlon
timed
x1411
111549
w0586
w0557
109820
w0387
100625
100695
100677
100693
w1644
w1649
wdstonb
143129
157292
estimate
109538
pc001
111809
111814
111843
111848
146505
146520
146537
146553
c0374
c0352
simpson
0059
w0674
matsqui
scarboro
c1977
c1974
100728
111668
w0489
141913
100302
100314
111788
149513
149577
124428
124442
e0272
e1057
splunk
146932
101313
101326
w1144
w1171
w1587
w1594
e0156
158049
158051
100948
a0213
a0214
147517
147597
147580
126456
lightning
jid000000046
124570
accum
utic
riverbend
##80152service
149745
100413
100427
134047
134079
142099
w1926
g1213
rtn5
w1732
150523
123300
122361
150032
c0444
c0446
c0451
124322
151594
115200
100296
e0493
hr768
hr708
hr834
hr64111
hr80152service
sci2
a0186
compare
153364
123801
123817
w0890
maximize
10097350
10097642
152369
152672
144425
154621
154634
154673
transmition
124707
e0935
w2471
pinweel
145502
145543
145567
152945
150762
151172
skip
148312
148315
121858
npt000000066
7706
122455
145800
145810
federal
121916
121932
a0439
109612
109664
instruct
131191
bankmtl
154430
100108
151277
150197
123510
161690
sar60
mirimichi
154503
154590
154715
151913
153837
bolts
153517
153591
100066
9720
c0636
149343
149918
140331
mayfair
130779
ll1
160744
restoral
togmsc0
togmsc1
##donbz
harry
145701
w5427
##thorne
princeton
mbts
permanently
payment
crq0000003
tanase
123692
torbsc7
160141
##hr816
##hr79169
granite
145620
104578
154359
mont2ax
142086
sea901
110724
bnby
132370
ae17
161304
157948
101614
101688
105502
cmd1b
c1798
155552
124226
folloing
123229
written
a5008
mdcic
4r5
rgweth2
##serie
fleming
anchors
shifting
twice
tormsc5
downloaded
christo
randy
tr5115
wesbel
rus02b3
bronson
cr13
penticton
10300846
raymond
appleby
eutranfrequency
122260
lrn
sensors
157495
864f
madweb
straight
toronxn04to
thermal
wapella
renovations
spp30
mirroring
msmm
roamer
##cg1bk
enersource
x141469
20140303sa
rotisserie
bethridge
holdings
x110643
foreign
bmton1302t
figure
##ns01cg0
compatible
im2110553
otwaon10amd
absolute
stirling
morinville
pzeronominalpusch
krc11874
##2591hr79169
highlighted
netherlands
heavy
nokia
torfon62
midstage
liverpool
rrus01b2
netsvcs
sydnns01cg0
of1service
pysdonbz
pioneer
scugog
xittel
stafford
upghr76464
soikie
fevrier
manotick
rrus11b7
rhr82591hr79169
hr76843l13a
hr70824
hr83427
##hr81640
rus02b3hr81640
2155
3130
3970
4mhz
4087
538
5153
644
672
7x
790
826
890
9115
aims
bgq
cash
d01
dnd
dil
dips
funt
hung
himx
ivt
lcc
mim
msisdn
nnoc
oma
pam
p2013
q764
qmc2
r21
rav
rmm
tns
tws
tales
uma
vg
vj
vas
vil
w4
w81
z03
##lc
##lark
##e6
##tts
##rf
##oe
##speed
##g7x
##yle
##bing
##iary
##d1
##hay
##fint
##x23
##0011
##into
##urf
##esa
##sie
prl
prud
##abs
##isbury
##church
##09sa
12d
prove
prosp
roh
##pak
stated
still
##raph
##1115
1641
1632
160205
##1511
adt
##eticket
##96c
##08b
comment
comedy
10099
10052
100255
100135
100099
100277
100087
100392
100769
100873
13rd
##twp
##umes
nbsa
austr
##2105
timest
antares
##cow
1845
1865
##agement
powerful
##ifford
1175
atfs
1931
0101
109154
109461
109874
109108
109658
perte
##away
##ulton
##45003
mon1ax
torn
2345
153048
153153
153269
153182
153758
153792
153869
##65b
interactive
cla
clin
10496
10493
104243
104294
104287
lex
10106
10128
101146
sections
uni
20a
sp1
nfs
supposed
attched
147110
147294
149025
149455
149339
149456
149386
125155
125111
125129
125185
148384
optinet
145218
145277
145880
##dsu
asrs
##3116
vender
w5134
w5086
w5099
w5332
w5485
westin
scanner
abort
abid
pm01cscf
strome
367
201404
fri
124098
124198
124338
124036
124982
c0070
##otiation
1128
caurnc2
w0014
10572
105469
conclu
4502
155061
155106
##bc02
gig0
##boy
onwards
woodington
iso
is3
people
123016
programming
103106
bcvc
##byp
129139
129385
3725
brower
gienc
3937
c3234
c3236
e0075
##vcca
151122
151044
w0104
toroon270
127366
##dhat
110340
mltn8
100816
100878
100849
164276
164179
janvier
southland
x1519
w1058
w2115
halbsc0
recy
transfered
c1561
111524
##prio
w0598
w0574
1083
109803
109826
109822
5620
0060
0042
0047
100585
100586
100634
w1600
w1647
143755
143093
143781
157455
157962
dragan
whid
mobia
146501
a0066
w0604
w0612
w0680
c0201
c0238
dpx
dpce
x1202
c1934
w0435
w0482
141928
141981
100342
111748
136180
124424
medi
eviter
149649
w1178
e0149
e0171
147520
147579
jid0000000
104310
124558
100415
100464
134083
142144
151716
151730
##1018
g1214
w1705
111412
111416
macle
123380
150839
andri
151856
124324
124360
124384
146895
146685
e0412
rns101
162031
mtl850
153360
123807
valleywood
w0829
w0870
w1838
w3166
144490
111327
111310
annapolis
e0846
124877
146409
124629
122725
122781
109304
c2382
160679
160640
124773
145570
152521
152524
122941
w2609
salisbury
161238
117865
117893
e1300
callander
159278
##usha
x1115
sherman
147835
properties
145804
3954
3957
131755
154868
involvement
109698
131185
100175
123530
rtr
117909
keeps
154553
147745
151911
127398
c0845
153562
thorough
c2902
c3571
147936
149301
149395
extract
149498
159836
turnc15
160900
mkxx
bsod
160702
160759
100859
constuction
picked
125419
t11871
rexbyp
tournc8
117888
140956
c3620
esxi02
148900
148995
111266
152220
##osaur
142083
hmtnonae
fp2
w5244
110766
162522
147410
elmvale
152066
140221
rosem
130207
157918
ccsamon
thornbury
167532
btas
w2074
vagsn00
155507
750mcm
palmer
112341
112342
chrome
111554
a5006
t45297
x141851
155204
navig
rns10065
##ato06
pto5
ptoch
condensers
svod
g14d
imm48
bmtnon13
10132577
lorain
146224
essential
ppr001
thrfint
penetang
##idns04
162997
kali
roamers
oscill
158837
carefully
savvis
121745
rearrangement
10098218
w3500
172107
dinosaur
157211
multiplexed
shopping
##m6r032
05mga
arnold
139464
genesys
mi0bn
joliette
tengige0
kimber
robinson
sansw90
e1000m0821
aoutage
mecanigue
nttamer
t2008m6r032
10166326
blc7000
threathening
butchart
somerset
sandalwood
im23733
funtional
prudential
toroon270md
087
093
1hrs
2c
2f
2645
398
413
493
518
5138
658
689
7b
714
762
757
8a
837
9001
aps
amd
aaps
b8
berry
bragg
c05
cly
c025
eu
e3
f3
fxx
gov
kild
lord
lums
nichol
ond
others
pusch
qs2
qoffset
rthe
sgw01
tuc
t453
tanning
v7
vio
vds
wur
wra
wow
w82
xm
##een
##ece
##e91
##cut
##cfo
##tley
##yes
##2g
##bit
##iol
##m10i
##540
##hnes
##aur
##600
##fton
##pon
##pen
##v4
##onnect
##ongs
cmts45
##ants
##stor
repa
refr
reverse
reorgan
##alip
##alarm
##2560
##simo
pr14
pr23
##aca
##acp
##ectors
##dec
##02858
##isec
##alled
##chs
14x
##0955
##0962
conten
590
##1204
##0514
stadium
stlaurent
##force
##foreticket
chu
adity
loup
lohnes
##etitive
##9600
##08vcvc
10066
100166
100147
100231
100138
100051
100161
100787
100382
100437
100791
100491
100779
moun
ip8
ipxx
1750
1774
1789
20121
##inea
mdms
2529
anth
1809
##ileen
##tover
rogersyt
0103
109200
109218
109135
109336
109446
109430
109493
109963
109684
109666
trl
trenton
##1818
##26t
backfilling
111376
111492
111367
111870
outlets
2323
153272
153440
10437
104248
104290
104179
104175
101178
101145
101184
101474
sylvan
thames
146020
146018
146973
spart
transcoder
147237
147367
accessed
0514
149024
149015
149257
149453
149062
000029
125099
148911
148102
148978
ordered
blank
145207
145292
145222
145332
145492
145774
145682
##4913
cpac
dtas
desc
commenced
ppg
ormont
w5439
mpce
scc
35259
abbre
prepares
vox
483
trunkgroup
124016
124272
124122
124026
124236
124186
##blin
c0060
112441
w0023
w0022
w0040
terra
155472
155242
155198
0497
##uthor
finn
##oneg
pony
highspeed
ba2631
esx
152258
152262
152095
152442
152642
x1322
to5mpg00
to5csg
123011
123022
123787
123956
##gne
552
5530
103036
103105
bc1401
653
quebsc0
129148
129137
129353
##op2
extenders
breaking
geog
c0102
c0148
w1275
w1281
w0246
e0098
e0068
154185
151021
151075
151054
144055
w0107
w0164
127029
127376
127494
110341
va2mx96003
va2iumc1
100898
164134
hd8
x150
w1052
w1755
w2448
halmsc0
recre
waterford
diane
sso
x1420
x1408
volumes
##pring
w0539
109800
109894
0066
repetitive
osswfd
logically
w0365
w0386
w1607
harwood
identif
143255
143288
157284
drayton
t23785
111808
111864
146591
146551
c0335
sims
simulate
ms1sbg0
0056
im22483
w0698
c0291
c0293
4201
130963
100796
111656
futur
hui
w0498
w0469
141975
100010
10001254
100313
100349
124496
124436
124482
e1068
##ucester
101309
renew
e0145
158091
158384
gloucester
0077
a0209
stopping
1068
05dhat24
gwcs
104304
104305
124546
124590
accident
resolving
100400
100405
142334
151720
151721
facilit
g1215
##pbm
c2483
122871
150911
150577
150593
123358
150855
400a
##cgvc
151814
151851
150080
transitions
150370
c0441
belongs
1135
146896
146616
146611
1153
e0473
maintained
w0996
a0161
safely
126446
sce8000
pg159
tribs
w0860
w0878
w0859
vgw45
w1843
152611
144445
144455
recommends
109788
e0807
e0847
124863
w2328
w2363
151654
109398
c5535
124775
124747
culford
145588
152976
shortage
147674
alignement
121890
152773
150603
161214
161239
117866
npt000000045
7705
resetting
x1119
161781
161543
161566
151237
rteset
147321
161021
144539
117908
161610
fro20035
c2214
154506
154508
e212
britania
131337
131354
127314
neighbo
w2801
c2978
104212
c3549
147916
149316
149425
149919
140310
160993
160734
w5621
145797
109221
128744
128727
161975
161934
161425
161446
olm
townline
t512
t539
140965
100651
160174
npt000000014
05himt85
145687
127401
101465
110726
152073
willowbank
marty
nextel
bounces
c3412
125225
159684
143914
143994
omnitron
130110
rerouted
mrhmoncfo
##stallation
159901
159903
162197
109773
dsx3
##sdvb
x130765
##four
160427
rgweth26
149223
##sipran
beddington
130008
166365
targets
111853
petal
171272
activiies
129116
condensors
126662
bmtnon
fc9682u1c1
senator
exchangetermin
129570
torton
vincent
10300844
repalcement
sensor
tai
residential
03946
smu1b
125900
metaforeticket
ogden
x130091
wavelengths
provincial
im2102858
significantly
barioncdo
unlit
bartley
143102
accurate
158928
knott
potter
nwrknjmd26t
145408
rotischannel
brentwood
analyzer
vancbcxao04
139503
children
variety
henderson
mitchell
000034pbm
t42228
olympic
motors
156843
proxim
133567
rcmdbc012md
frogley
sencore
stakeholder
represent
strategy
benchmark
ricoh
uninterrupted
oturnc4
10141641
tolerance
a1thresholdrsrqsec
christopher
whidbey
lumsden
35259cgss
geograph
im2248395
exchangeterminalip
0000
1hr
390
372
4484
536
583
569
5130
637
6101
724
886
919
980
ack
amber
asta
bbs
has
haw
htc
jdsu
k20
luns
mns
nig
r01
rman
sesm
t06
t07
t47
tmp
tb1
vine
vie
vcs
vty
waps
xen
##luster
##tted
##oil
##gsm
##gt1
##yv
##yre
##1sn
##460
##b5
##nid
##mms
##mss1
##hold
##f0
##860
##wy
##wide
##wassen
##z7
rean
##01b
##alt
dsgs
pran
pr15
##acc
##deep
##abasca
##mented
ns2
nscr
12z
12cs
proact
proli
##0401
rosth
##nth
161969
uplands
mtr1
##rou
##ro01
ch5
chcg
loops
10077
100207
100208
100338
100294
100287
100451
100467
100469
100462
100357
sw01
exadata
1393
1792
tester
coach
activty
10x
10x10ge
antp
shuff
6150
rog1
109083
109235
109164
109274
109171
109435
109471
109481
109884
109654
0025
bren
##ondf
111445
111392
111489
153083
153049
153151
153467
153852
intercon
ajaxon
10497
104210
104196
104268
104177
104241
10175
##oc48
rcon
sdc
146753
146387
146772
unocc
##phen
datast
##ca1
147115
147114
147062
147490
147059
147474
149130
149234
00022
125119
125151
125291
125181
125435
148755
148272
148095
148785
148338
148389
148482
148966
cryst
optional
blk
145256
145253
145999
001dd
patten
feel
##mnet
02h00
##dsr
scop
w5110
35981
redhat
turnkey
elder
362
386
3808
281
284
283
124164
124022
124142
124092
c0034
c0053
night2
radic
416464
112340
defrag
carries
e5085
forms
1059
10500
10507
canwest
04218
parker
anusha
3205
audited
realm
peers
dnc42
esqu
gt002
engaged
152447
152149
##bles
123759
60a
1038
misconfig
651
129130
129457
129389
northwest
c0125
c0109
c0174
c0192
ambro
c3131
e0042
34bdf
visitor
154088
154044
151256
151123
w0111
w0138
127271
127359
127372
110365
100811
100806
100826
x1523
122037
w1758
w1754
byng
w2648
dias
2121
111500
111528
111539
##prv
w0563
w0366
100644
w1634
143266
157282
157469
109529
111800
111837
146588
a0004
a0015
a0057
watson
w0693
c0236
c0240
4205
fc957
x1206
e0685
e0663
c1927
100748
111670
hang
w0433
w0455
141955
100316
100398
100348
111717
111738
124400
124480
fredri
149614
149618
##x1ge
146904
146934
w1569
broadworks
158085
158055
158073
132nd
100914
100926
100934
05dhat07
124596
124588
124552
149727
100420
151703
##holes
w1988
w1765
w1791
111400
111411
111495
c2487
122895
122869
150901
member
152476
151869
149816
approximatly
150351
c0421
163145
146821
146839
146850
151546
162159
pools
153310
153334
c408b
126278
126272
126283
123819
w0834
bringing
w1828
145316
145318
144438
248mbps
111307
catwalk
109707
e0848
124850
146484
124620
w2304
122735
willl
millisec
124771
w2414
w2454
122913
122997
140619
148303
148319
148322
121859
117844
117864
117897
117841
109421
e1335
159987
greenwood
150409
150432
147805
147829
122451
ctx
145802
diagrams
c2513
g1139
161765
148858
150164
150165
150143
c2613
147301
144535
144578
144555
161896
c2203
c2205
c2296
mallory
147742
154738
124916
124915
mapleview
maplewood
123926
e1410
po00113
po00119
c2990
x211
153939
147909
149378
c0031a
extraction
walsh
c1431
alexander
##enger
##gt2
domains
dl360
1gig
122539
125411
allotted
g104
mrhonb
143622
109917
vl24
152211
fairlawn
gpb65
127403
registered
f4100es
125227
visible
x112047
143903
148214
130112
mpeg4
157944
w2106
aceapp
consumption
grafton
155360
compliant
metroland
togmsc2
eutrancellfdd
123233
109777
repete
c4503
kariya
t42166
162088
taber
105475
160480
149260
detectors
##clair
123408
heron
157564
to5iumc5
##wp102001
w0h
157629
162733
##fw60
lugs
c1389
10077510
t52lj
10078653
ktnronre
nyrkongmo25
a0250
madison
stays
screening
holden
trfcgd
debugging
154196
10144748
x131605
intersection
##capacity
118302
4642hd
hilton
133220
constructing
srrybcw
vant2ax
10001260
mutual
t42181
cmbgoncd
understand
1570nm
x1013
characteristic
gilbert
qpmw
137223
jbod
sparks
kelly
punj
further
okvlon54
brfrondf
wharf
hgtv
xre0
smyth
nnmi
t26274
mtlzpq01
to5pmsdp
curtis
kmlpbciyo02
reregister
tsawwassen
foothills
unstable
qoffset1sn
aditya
proactively
proliant
unoccupied
35981cgss
04218be103001
34bdfa
2d
2is
3j
3k
391
3030
570
5170
6x10ge
723
824
841
8145
938
953
ahr
bbl
bray
cnd
cus
cale
dos
dvd
ect
ebr
eia
fs
fsc
f1405
gt1
jes
l8
m1
mix
mvr
py
p22
pics
qnet
r16
rcr
r22
rquest
sab
s14
t33
t455
venue
vmedia
wsp
wmt
widge
xc
##len
##lling
##lio
##eal
##rim
##oy
##oble
##sga
##seth
##u0
##gas
##gard
##gency
##223
##226
##bg
##boo
##nl
##m01
##m129
##db1
##305
##pal
##8s2
##vor
##was01
##kip
##kopt
##zy
##onak
##erts
##inte
##stmcont
resc
dsg
##iture
ine
##aco2d
##elon
used
conway
convention
126500
procu
cabs
592
5981
no1
noded
stcton
##ipt
chase
im239
combine
10083
100273
100196
100030
100141
100337
100274
100251
100477
swpk
##vegan
1342
13144
##arding
##ffected
##umping
testine
coil
##gwick
allan
alley
##iles
##iflex
##to2d
1176
apache
109085
109267
109180
109269
109283
109459
109970
##osh
##23884
heather
2460
2450
returning
##ighten
sour
soci
111389
111881
111973
111885
111381
111471
111386
111794
cormor
##emand
2325
153061
153252
153550
153885
153476
153740
rdl
10499
104151
grass
10158
101191
101135
101109
rcp
drk
146962
146381
146752
146871
146981
discon
147269
147197
elev
dcmx
058
149027
149067
149481
149977
setor
implements
125275
125459
148207
148142
148991
panam
crim
145263
145259
145337
145334
145254
##ername
digi
cisco7609
bod
22x
linecards
creston
electical
##dsl
ml66
orenda
201201
354
##mpq
ocdsb
368
arb
c5399
124114
124156
124066
124266
c0033
c0028
c0026
radisson
41667
112449
gsmrelation
e5201
w0044
w0047
w0037
105492
155118
155114
155111
155447
155152
##0255
canmore
isms
beet
pt07cudb
fcr35
fcr36
152114
152255
152958
152241
123164
123785
50amp
129976
npt000000017
gi5
c0144
bald
w1244
w0247
e0004
e0014
e0099
154208
154169
154148
154889
154186
154068
w0114
w0140
w0181
toroon63
127337
127391
110335
110363
110359
7676
reloading
longue
cald
100846
100831
100890
sumit
greece
summarization
hdprv
intele
122127
w1250
w1075
agents
mids
w2041
w2056
c1564
c1566
timbers
111514
111543
msys
msrl
w0538
ashtley
100503
100520
100539
100522
100629
100687
100670
w1609
143447
143290
143191
143430
143474
157461
157982
roofwork
floors
a0055
c0365
c2276
w0610
w0617
w0692
c0206
c0248
failovers
metric
maur
x1205
objects
130997
e0650
psaps
c1921
c1926
c1990
100738
111677
w0470
w0481
141926
141938
141992
100395
100317
111778
2x195
149542
w1433
124402
124420
124498
124438
124486
e0214
e0228
149658
accounting
146901
146902
minilinktn
w1186
w1173
0076
vodden
100933
a0223
05dhat94
consort
126498
126454
124584
asrtts
149734
100409
151767
w1746
w1766
c2430
122807
122818
122853
150941
150592
123327
151891
122302
122307
122378
150013
149815
149835
137960
124386
146836
146617
151511
confirming
w0930
a0197
blackout
c1884
162090
153300
##eroy
152350
152376
144492
151406
151417
151436
111315
w2752
109775
109778
146471
154623
124622
124666
w2360
w2387
151628
a0337
123765
122783
109397
da2p
160600
124743
e0956
152502
151382
150780
122992
w2636
153632
147627
121886
152765
mo1mx96003
161208
161298
117898
117836
109412
159959
100028
10002101
150405
147899
145877
tb2
121944
121998
oob6
oob3
c2558
131194
g1133
154499
161587
161589
tc01
150196
150145
123520
147396
144569
161607
w0749
160008
e2049
goul
151904
151922
124936
polling
123917
123940
153809
153817
##08688
100061
##crep
w2580
c2923
104204
104205
147926
149329
##mrfc
153723
153726
sandy
##transmission
dunvegan
c2817
152104
152186
davies
w5488
125401
161404
161406
owens
146343
146349
100657
100658
xpol
55dhms
decision
pushing
123664
160160
143684
143344
rebuilding
152224
131270
c5635
147498
registry
132314
132341
homer
barion79
125223
161386
10441837
mccl
110018
mmsgw
snapshot
vaumsc0
155518
159908
occurring
137859
##cardine
durations
rgm11
wnpgmb69
w7169
g1304
145930
154225
112416
4r8s2
jackpine
gigabitethernet3
c4453
##freq
129686
petro
10306023
arpds
10001709
##hai
129107
c5225
mrhmonbvs
148609
trafic
davisville
charleswood
163330
##knco
lamont
lambert
mfx
##mgmt
nyrkongmo2d
##srx36
161197
161191
residence
tobsc12
bn7455version
shrouds
esmes
10002551
appears
zpnpvc00
10145058
im2108688
mrvoo
kincardine
toroonxno2d
agg50
innovar
122004
x090179
157212
understanding
ethernetswitchport
dummy
tampa
10446185
cntds11
10311564
01ipcd8
contruction
pp002sga
sktnsknco
im2112061
05331we103001
05331we103002
toruonsio04
136505
athabasca
barion01o2d
stripping
nashville
##status
menu
mssion83
palladium
kgtnon
netowr
05luxx801155
ueqm129
hundseth
odcsp
imperial
1x183mbps
furniture
vauxhall
wirelesstmcont
eglise
leftover
glamorgan
pysdonbzoc1
clyde
ondemand
violet
mounst
anthony
neighbours
proximity
crystal
4164641101
f140501
swpkab
testineg
society
cormorant
pt07cudb21
4r8s2x23
078
0113
0394
331
466
476
4470
5444
660
684
6445
742
759
7023
940
burr
bma
cca
cflow
cador
dag
dell
dia
eco
eileen
forth
full
g146
hut
hoo
hmt
km
knt
kest
lw
l100
laser
m15
midge
mgn
put
ric
s02
saw
svc
some
tall
t21
tics
twin
t9k
u0
uk
vision
wc
wvs
##c4
##t4
##td
##sf
##sam
##ij
##dow
##data
##a7z
##fform
##fia
##finder
##pines
##j2
##waw
##enance
##amal
##edge
##atel
##atively
##lee
##stop
##01af
##itry
##urram
##2565
##loe
convenience
connex
12a
123400
installatio
5968
roper
stock
##1125
1631
161016
##rop
chh
chalm
sitting
##1363
100ms
100118
100131
100253
100292
100297
100160
100137
100387
100174
100446
100361
100486
100399
100071
100643
100872
moon
moham
##tera
additon
13308
ip7
1778
1776
equipmentt
took
tobk
##pement
1803
1806
1826
locally
##4467
slab
retfailure
1914
01ly
109207
109117
109258
109134
109153
109090
109338
109197
109885
109887
tr069
##pta
acls
acorn
##18258
folk
##agent
##ellation
hoarding
mint
111447
111337
111444
111493
111374
111978
111454
111862
tyco
##45m03
monmsc2
153115
153008
153442
153081
153880
153477
153867
153555
rddr
10475
10485
104299
101137
10196c
##4324
third
##msys
146100
146974
146774
146992
146869
146771
30m
uninstall
spi
heading
rfgateway
transcode
##46a
147235
147133
147277
147249
147978
147768
##sea
csf
linksipran
05fia
149003
149134
149440
149969
149493
hardy
sajon
12595
125021
125115
125253
125077
125197
125109
125105
148148
148280
148159
148173
148450
148474
crtc
145045
145152
145274
145769
bour
bobo
bough
2614
optera
manul
manuf
pbx
org
s2s
w5144
w5027
w5077
w5061
w5239
redep
bask
##election
201405
level3
063
umts850
c5499
mete
124206
124118
124008
124020
124162
124082
2939
c0008
c0050
c0084
tracked
6905
1858
surve
defint
e5250
e5187
w0007
w0088
10527
rru2100
155142
155162
155237
parkwood
woodmount
3225
beise
londonato06
ponoka
pe1
pefform
highest
es4
152040
152261
152964
152641
0396
to5bigip
to5mx3
to5ldap
123123
123887
streets
5548
npt000000029
npt000000027
##opolis
northeast
lady
c0101
c0105
etienne
##xxs
c3144
c3062
w0291
##vcgv
154119
154168
154076
154757
clearbrook
151026
tnhlon
144042
w0110
poi02
127267
127070
127054
127044
100808
##gyback
3300
##born
mmr
122443
w1005
w1019
w1069
w1050
airdr
1900mhz
w2052
111541
111568
111572
w0542
w0591
109804
109808
improves
morgan
100515
100507
100544
100526
100549
100593
100664
w1642
143443
157477
109513
109547
111839
146565
146555
146542
146558
a0002
a0029
a0056
c0353
ms1edns
casmr
w0683
c0229
keel
x1208
srbh
modulemp
130967
e0689
c1953
100746
100737
111658
w0492
141930
141958
100300
4939
tp5
111700
111709
111715
111775
111746
149549
149572
w1435
124452
e1071
149611
149650
149680
149657
w1187
w1597
w1585
w1562
158013
158473
100930
a0216
a0221
a0276
a0268
147555
hor1
126466
126473
126490
126469
primarily
104324
124540
124592
acccess
149797
142160
tunning
w1932
w1954
g1225
111496
111475
c2437
c2469
150938
51b
touchp
123396
123390
150826
152497
152470
autoneg
122321
122345
122382
149812
149820
c0411
c0407
c0457
137183
13305
124364
146826
146879
146832
146631
146674
151553
100221
e0414
a0168
153395
41rg
123825
123855
123893
rvvp
w1874
w1852
152316
152396
152632
145306
dono
w3113
151459
c1624
109706
109798
e0866
124800
124834
146401
154665
154697
154672
122075
124614
124618
a0374
a0362
123700
123763
122747
122741
122791
##aught
e0912
145509
cgws
150769
122995
america
n211
147600
147614
147629
147678
courier
152782
150642
161248
109495
109488
e1321
100004
##igeon
e1213
147808
122457
##bersurf
145893
154877
109607
131119
g1147
occuring
filtering
100107
123593
147202
3010
w8021
rgb
c2220
industriel
147708
positioning
##bhx1
saskpower
151945
151948
151958
127323
e1470
153540
po00117
w2577
c2981
153906
104296
104295
intensive
145220
145226
147900
147934
147930
lowering
149401
sony
159863
resets
reconnected
oneida
160743
vagmsc3
152179
160825
e1103
109212
125427
125497
128747
146307
140962
126514
123694
148925
109902
cybersurf
143342
111267
chambers
toroonuy01t
152828
152856
122186
131272
w5220
jj0va
wcomt
srx3600
ae7
vsrs
langstaff
159688
104421
bravo
omniflex
143763
graph
148475
farmboy
124260
137869
piles
rejected
x1600
170270
clgrabsp1md
sql
t2128
155225
155211
x121983
investigating
105495
144605
im2318258
4r3
demodulator
connaught
160495
hln
gigabitethernet0
e5317
130028
130048
111859
157526
132783
pto4
155424
accessibility
126666
hays
162742
ju5
0r5
clarkson
unplug
m320
10013114
10002112
brackendale
qcmtmtas02
promen
prompt
143857
beeches
beechwood
10023328
renovating
kalamal
administr
exclusively
agg30
bkd1
1r6
x151524
lomond
x151217
livingston
nwrknjmdrg1
vivian
10084202
sansw01a
laptop
10085523
t57944
25296cggp
khurram
falconer
162205
to5uspngw1
woolwich
oshon9503t
transcanad
carousel
##chtls0001
129947
resiliency
plenum
campaign
nwmkon
wndson
newtork
sdbronlbhx1
complaints
ip1836
sea90183
bmton1302tix
concluded
recycle
macleod
rosthern
ajaxonif
pattenden
srrybcw0275
okvlon54ds0
nodedump
cadorna
midgeley
chalmers
01lyrt
##45m0321
10196c45m0321
sajonas
manufact
redeploy
airdrie
kalamalka
084
376
394
3pi
486
4101
544
572
696
634
6201
744
760
728
731
7021
810
870
863
afr
awa
bfd
dpm
dgo
e25
ech
fn
fas
f7500
gy
gts
gag
gdec
ibs
jbl
kgc
khz
luce
nancy
niveau
oy
osi
ows
p5
px
p01
pers
pmt
sust
suther
tu
trade
tiff
vener
xml
##e3
##ean
##ees
##cin
##rut
##bigh
##ngon
##m3
##mic
##902
##5ess
##hon
##han
##aib
##foc
##xon
##864
##qc
##kit
##lec
rees
reap
repos
##0000bctc000
##0000abgt000
##esay
inoc
##sier
pr1
##loor
##lovich
##0305
usused
username
##chy
##ch01
##chner
##0971
conif
12w
12k
1277
12acp
cabk
nott
role
##ilation
poly
pods
po003
sting
##1173
##imalt
##fff
ch1
chel
loq
logy
##0659
100112
100129
100053
100136
100133
100149
100886
100550
100170
100358
100582
swith
exchan
1319
1339
1379
1330
1386
##ardmore
1720
1744
1783
##umont
cody
activies
##1462
##istle
##istrut
25236
toc
##2101
10min
##idd
##tenay
already
1802
1816
1889
antenne
sla
maintenence
1919
##gc1
109129
109130
109263
109383
109187
109299
109751
109434
109661
109476
109740
109667
##19sa
2425
##igration
##95cggp
backplane
cirko
111442
111331
111487
111776
111458
111450
111469
111468
111863
corners
##emud
##29sa
monaxe
needing
torres
##4739
##illian
cllic
##fficult
10476
104190
104282
101186
101188
sdb
sd23
fa5
146298
146881
146964
146782
146978
146991
3025
uncer
unistrut
discrep
25295cggp
##mino
##cau
147262
147263
147137
147240
147332
147281
147882
##tona
##2223
rbs3
##iztion
bud
2101
1490
149200
149043
149140
149149
149158
149459
149390
149379
settle
125901
125097
125281
125463
148201
148956
148092
148483
145131
145165
145289
145756
662
667
provost
##mner
warburg
managers
w5455
w5435
w5446
w5483
w5238
relate
mp147
redd
occsb
wop
arista
c5092
tdma
124002
124218
124079
c0010
c0022
c0093
radome
patchc
1859
##ront
##40b
caissi
e5354
licensecapacity
w0038
w0077
w0063
w0081
forrest
foreman
10565
10569
105483
teriary
quota
155207
155267
155189
155445
gigabit
buset
isa
beardmore
blockage
relocations
152117
152119
152276
123750
123023
123131
123276
123176
123298
123241
123982
123789
##gnts
2700
bremner
smm
radioactive
12911
129110
129121
129140
129191
129064
montreal2
##asky
c0164
allgon
alliance
w1266
w0230
barrhead
overd
154002
154094
154198
151094
sweeps
144169
144332
144174
w0178
toroonu
127371
110320
110368
standardiztion
100817
shelfs
connectedusers
122057
nets701
w1083
w1022
w1057
statement
agen
1028
10295
w2274
entity
difficult
c1556
111570
integrating
w0533
w0543
w0585
109865
109899
109876
0068
##reselection
100565
100572
postpaid
logan
w0333
w0345
w0332
100606
100691
w1602
citytv
143756
143451
157956
cerify
109500
109579
111807
111821
111828
111835
maxcy
146526
146590
c0333
c0323
ms1160
im20565
infront
w0609
w0679
w0694
w0682
c0203
c0265b
##tainty
winchester
faces
x1201
srb
130996
e0604
psd
c1994
111678
w0462
141908
141950
141985
10001750
10001243
100345
111704
111796
149511
tablesp
124404
124444
124462
mediation
e1019
w1188
w1528
w1529
w1563
e0103
bbtf
100945
a0225
a0234
147564
147546
05dhat11
126463
jid000000073
104307
124516
124510
124576
149766
149771
##irement
100418
134248
carol
carmino
urgency
7750s
142253
142153
142281
151726
151783
151789
w1998
w1946
w1955
w1980
lset
g1207
g1224
w1739
111427
macl
macmill
122835
6102
1074
1079
1076
150537
harmonised
123339
152498
122315
149809
approximate
c0461
13319
133114
133023
133789
124350
163192
163181
146897
146891
146638
151551
e0441
a0179
a0185
c1873
c1889
153349
153386
153391
126122
123837
valleyview
upsr
10097357
152315
152676
145313
w3133
144477
144463
151404
151466
pg144
w2704
w2775
c1617
c1651
109710
e0806
146415
146455
154627
154617
124610
w2399
a0397
123738
123791
123793
122771
109321
c2379
c2352
c2735
c2784
160672
w2459
helman
145501
145598
145535
152924
152931
122927
w2682
risks
9535
153633
153692
147605
121884
152704
152779
vrrp
150628
glenmore
109423
to3bigip
159958
100027
e1248
147895
122459
154815
forming
121920
109665
131111
g1144
161724
154415
154488
148839
151227
151243
151236
c0709
c0719
c0717
150127
123516
147227
sunwap
147311
144533
117911
117907
161611
161653
w0701
161831
sarinder
po00112
160074
154595
154538
otwaond
131344
131328
131390
cds1
c0834
c0832
123911
123913
123944
153810
146797
146749
153515
islands
w2503
w2520
127522
104244
149322
sce8k04
whitemud
159891
160919
160938
happening
##voice
130714
100853
pky
e1141
g125
t527
cpl3
140957
denbigh
brander
declercq
torbsc3
sb6
148942
weblogic
##44603
bradley
whitehorn
145688
fairway
tlx
w5221
162370
virtualized
m212
registrar
152061
authority
159693
131764
131784
104426
mcc302
110007
cv1100
t23702
##hua
167524
139697
139652
155323
155341
125375
ratings
124216
bellev
vsp01
togmsc7
137800
jid0000000464
w5514
mctnn
t42149
x132248
x132249
tabor
148737
159713
171569
126264
passwords
assumption
studio
129635
111852
peterson
mrhmonbv
124112
162745
advertising
maslovich
balliol
##identity
benj
luxx
emtas
129574
c1388
146225
bracket
fifth
booked
plugged
122202
10155782
##85788
ridelle
132670
mirrored
certificates
10073072
attenuation
witbe
reconverges
to5iumb5
133871
stabilize
stjhnbw
orllon
accuracy
rothesay
e1g58
galaxy
cassopolis
pressure
vanloc00
10311567
evaluation
website
qpmg
forks
unauthor
unaffected
x120481
inconsistency
fc9686m
c3196
ffax
10426702
10078638
179892
philippines
edtnab05o01
##flower
printouts
05dyct9
swtich
wdbgon01
ircth1app
x111419
epswbu
kapasky
8300hd
cottonwood
stdprtct
10157797
dvr1
kempt
126102
maintanance
lbhonw01
roxborough
c6509
italy
exercise
commisisoning
profess
extention
kedgwick
fountain
##connectedusers
dpx2213
navigata
oscillation
contents
sparta
shuffle
punjabi
gt1005
rquesting
intelepeer
cflowd
rddrab
defintions
dgoh
gdeclercq
owsdon
sutherland
25236cggp
cllicdr
uncertainty
settlement
caissie
licensecapacityconnectedusers
maxcyne
im2056557
sunwapta
unauthorized
1d
1ru
2j
2982
2e9
446
468
471
4954
577
566
6881
6482
727
872
996
970
9039
aas
bos
banc
bung
ctc
dpt
dbs
divers
dome
dvs
ek
efm
gam
gim
gsp
hugh
kick
lg
lf
lum
m12
mbs
more
nue
npm
nade
native
pid
pump
piu
rtt
rnb
sus
tied
t44603
vector
w60
w3087
xconnect
zfs
##l3
##label
##cj
##cam
##t5
##r0
##r03
##odes
##otex
##s0
##ui
##gen
##ype
##1028
##411
##b4
##bas
##iun
##n01
##mad
##actor
##a8z
##a7x
##a9z
##321
##fir
##vide
##wart
##wold
##with
##qce
##z9
##inel
##anine
##ionally
##stion
##ices
##icate
##icum
##0114
##arney
##itre
##itory
infr
##acona
plugin
##love
##lova
##elieu
##omes
14a
##unders
installaion
##1247
##pay
po1
pocah
stm
##ipro
##reuil
1671
##apore
##15blca
##rows
adress
##plit
im199
im2100
pre2
##9608
##nsg
100ge
10084
100263
100076
100139
100642
100291
100299
100092
100157
100474
100661
100773
100672
moss
##query
##verton
lte2600
##x208
nba
auc
2505
2517
10mbps
##cox
shah
##idden
ymcan
##dlewood
wlfdo
wlfdl
roges
##oose
slim
capabilities
1943
109472
109255
109337
109266
109458
109871
109584
hew
trxs
acme
24000
##igrp
##owave
##axton
enmax
contactor
##cessful
brumgw0
111432
111782
111357
111867
cneds
##ema
##ems1
monc
153002
153129
153139
153473
153079
153056
153493
rdu
10479
104200
104293
104284
104159
101119
101093
rca
##4891
sdi
faulted
146447
146235
146967
146953
146885
146230
146952
146682
un5
20x10g
sponten
prepwork
##ca0
147911
147219
147239
147132
147880
147399
##se91
growing
##iza
dc9
dcdevice
empt
pmd
149165
149888
149480
149393
00023
glend
saunders
125118
125167
125147
125017
125277
125193
125955
125439
edin
edmn
148012
148292
148334
bld
blain
145273
145967
145333
001424
201308
stewart
w5208
w5113
w5030
w5060
w5294
w5432
w5481
slotno
201203
35786
productions
redcliff
turner
##ld7
strong
384
c5253
c5076
c5350
c5457
124094
124250
124136
124126
124270
124284
124080
124038
2931
c0096
c0049
64k
cav
e5100
e5103
w0075
w0082
hsa
105490
approver
valhalla
456
155100
155077
155089
155059
155063
##blcaa00
bean
flam
peaking
152288
152043
152041
##ontas
123006
123007
500mb
103049
103097
sm1
richelieu
129052
129169
129178
129151
129145
129056
npt00000005
c0121
w1295
w1291
##neuve
e0021
e0066
##monds
visually
144156
127263
127383
110311
110328
110355
110350
a1022
micowave
mltn18
va2bigip
200k
164031
164087
122218
122041
agga
enables
w2210
w2259
w2338
111533
111532
111563
vict
pathfinder
0045
w0303
100685
w1620
w1688
w1673
143441
143956
157492
157972
109523
lakeview
pcp
t23982
146502
146517
designated
a0054
nrbn
c0330
c0358
c2290
c2247
delor
metre
dpcs
e0695
c1955
111681
w0434
w0493
141910
141977
141974
filesystem
4910
111724
111760
2x248
149545
149531
149530
w1464
w1430
136967
124466
124454
e1039
fredrick
149664
149665
downgrad
sentinel
1969
146924
e0190
voddr
wearing
100927
3051
104316
104314
104319
104322
124568
149783
142001
142034
##gins
##bk04
w1793
111421
111419
111426
111422
c2405
122814
122831
140g
5105
150597
150579
150559
123335
150859
152471
151848
122390
149810
149846
149855
149894
##2017
##2010
150386
internally
133053
124366
163137
146690
151524
100202
e0417
raus
a0183
c1883
c1856
junipers
153388
pg156
w0843
quantum
w1841
152606
145315
144413
151498
248mbit
111344
111375
c1677
e0850
124814
146497
154616
151666
123799
122769
e0533
e0594
e0558
109396
c2309
c2396
c2367
c5589
124705
e0945
queenston
w2401
5ghz
152574
151337
151385
152935
150782
taradale
151174
mrp
2027
2023
153694
152743
152799
150614
150660
##ex820801
139129
1146
conditional
147863
rxot
145803
145816
tbt
131mbit
e0306
e0353
stscode
109695
131112
sends
161738
154411
161551
100109
148801
148813
147295
147228
147323
117910
w0716
101517
10151462
##web1
130859
147703
ca1mpg0
154786
124909
131355
153896
findings
e1624
po00118
po00121
85a
c0691
145244
145223
magno
utilizing
159827
happened
##guage
append
rfuae
160772
sandring
sandras
10085072
dunlop
otwaon1004
##ptson
e1114
constellation
145778
w5403
109264
130573
berk
##atrice
g105
126577
100652
c2194
109915
164404
trevor
104574
152813
152843
122103
127496
impulse
vsrm
c5407
162341
m2u1
165550
148503
barion18
130639
144374
144373
160587
159651
##isonneuve
w2902
w2986
157996
157993
x150133
155395
bonny
rehabil
122619
122629
137867
137857
stonehaven
underlay
##igently
163688
163858
129320
129396
dals
162063
rosehill
rosebank
10086034
booth
brgsn00
##margin
assembly
154216
lbhqce
vertu
developpement
composed
100552
148728
rgweth23
159795
depends
w2204
146856
smc801
smcdsb
t11691
study
incorp
143507
pqb
155496
148616
bootloader
ml2iumc5
157612
125600
##issing
141638
movement
wcomtorg
rmhlonayo27
sea836
receptacle
ml6p23
escorted
x150085
fc9565
mssgonpro2d
qcmtuc
lakeside
t52098
x150209
d9900
joshua
innsysvoice
holdover
sunnybrook
photocell
vgqs
##white
tub2
154125
humberline
pvg
totally
leafs
divert
133216
rcmdbc01ds1
tor878
sdvn860164
ziptel
troubleshot
classified
x141678
malton22
x142048
fnpasts
ddm125
webserver
vancbcxao03
jboss
substit
dribling
e0257
ctnoc
roehampton
x110127
sea80544
w2009
10432286
10310330
cariboo
vspg1k
clgrabbio
crawford
hstx
x132060
switzer
driven
resplice
mezzanine
tellabs
situated
evaluate
servicescommontmcontqoswest
187764
carsland
loadbalanc
uticoned
diligently
c0250
##yvo2d
datastore
repeteur
widget
baldwin
midsplit
rvvpx208
kemptville
infrared
pocahontas
im19995
im2100451
ymcanet
sponteneous
35786cgss
aggasiz
voddrv
otwaon1004t
0c
064
091
0374
374
393
3131
3646
4r1
563
5156
5x1g
677
632
7k
708
785
7fc
821
875
847
849
831
8ws
966
973
959
957
b7
cage
cite
eur
er1
eoc
eigrp
fly
fady
gsn
gifford
hsp
iq
ism
jr
jloader
lng
lilly
mpl
mist
mgr
n72
ninet
pse
rr1
rra
ritch
ria
rale
r200
sight
t27
t31
t34
t32
t457
vh
vaud
w39
x1015
##c00
##cab
##sby
##2a
##215
##233
##bca
##brae
##nford
##m63
##dam
##d8z
##hart
##a8
##f3
##f653
##fmn01
##pu
##pf
##pia
##xbw
##ja
##v21
##vms
##via
##kd
##kz
##0006
##erd
##enb
##iner
##inson
##orde
##enty
##cto
##icop
##alaw
##alta
##2508
dsp
ints
pg167
pg172
pg168
1413
##0970
sere
15min
instant
##0403
5904
noon
roch
##ilvie
##olent
##1580
loch
imei
im208
##0802
##1303
100290
100481
100648
100684
100669
##uba
sw22
mcdo
mcrae
##lf00
##rang
ip3
##vern
##twell
1741
bloc
##000msys
2519
10db
##cod
shera
1805
##thresh
##tower
1920
0106
apotex
109256
109750
109097
109437
109968
109282
109485
109466
109486
109966
109438
109769
slnt1515
trget
##1954
acres
##1806
encry
circ
111451
111783
technc
corro
correc
cni
ported
montee
153080
153108
claxton
104292
104785
104162
104387
104157
10124
101453
101277
101456
101106
##oci
drivers
fa1
them
146004
146956
146641
146993
146867
30ge
spar
spd00
header
supers
147040
147139
147298
147350
147380
147441
147953
147340
147794
budu
dcip
emails
##grmn01
052
149255
149253
149153
149191
149231
149139
149291
149478
hardisty
125083
125235
125249
125177
125065
125483
125379
125107
edmc
145072
145339
145330
145399
docx
boone
dtlt
resume
opport
warner
mano
vahrnc0
w5292
w5183
w5172
w5124
w5355
avon
relating
relates
toronuy
strm
pn002
c5096
c5083
c5247
c5184
c5382
c5486
trunk2
##iche
van780
124120
124028
124075
124034
124050
124652
c0039
bayani
112448
112339
1857
defs
defa
agw08
caul
e5088
w0072
w0061
assure
10506
155257
155160
155459
155353
gig4
beatrice
152049
##ontaine
to5snap6
123219
123070
123881
123654
programs
60h
cellint
5520
bcdist
smux
129013
129143
129391
amphen
##xxx
##xxhd
teleph
w1229
w1246
w1274
marm
c3130
c3161
c3438
w0209
w0234
w0286
overberg
154045
154144
144658
w0100
127270
127432
110315
population
sumas
0024
0028
ddps
164272
dug
x151012
122337
w1098
agil
oakwood
qci
midhurst
w2120
waterdown
ssn
timoth
111596
1087
109841
pg116
osscal
statoil
100502
100528
100592
w0363
w0351
100607
100617
w1687
w1653
143128
143275
157974
109528
109526
109570
109561
t23787
t23956
t23767
111850
146511
146506
agw05s
a0007
simg
c2270
c2333
w0603
w0696
c0209
c0227
bridgeport
maalaw
130915
130984
e0606
e0631
c1904
c1912
100703
100724
100735
100749
111695
111694
w0490
141905
141907
141942
141934
100360
2x262
149523
149541
149566
w1422
w1470
w1472
136029
ml02mme1
e0219
149660
extensions
146905
w1102
w1114
w1577
w1583
5323
e0115
e0138
158021
julia
reconc
mechanism
policing
100915
100906
a0212
147511
147515
6714
126496
126499
126461
124582
crown
100465
151712
lsr
166174
octobre
g1209
g1236
##drington
w1782
111425
macno
5800
122810
150949
150985
150986
150596
123352
150843
150842
ncut
122303
122386
149805
validations
150343
150387
c0425
c0496
137461
124378
124370
124358
146898
146628
100224
e0411
e0495
e0422
e0461
##eker
burnt
w0920
charger
cx2
cx3
c1863
pooled
126448
126281
w0864
nlb
152302
152322
152677
152673
145341
rpg3
111341
w2746
e0863
124832
124859
lateral
146435
154602
151630
151656
123712
avoir
e0578
109307
109327
109310
124711
e0924
w2458
helicop
152590
151375
w2623
14066
153611
153628
153674
147685
121895
121898
npt0000000645
snmpv3
152789
150679
150685
161265
161232
117863
117861
109409
e1377
159281
npt0000000444
npt0000000476
x111115
150400
150433
147801
147855
147834
145827
154836
presence
a0465
109696
109673
c2504
c2559
c2589
131189
sendmail
occurance
154465
148828
148848
148868
147203
147264
c2666
sunrise
147310
billboard
144580
georges
w8086
161605
bird
w0703
161813
c2211
101524
160062
c3395
130864
2000k
154717
151905
124914
c0836
123996
153833
153832
commander
183983
foc864
146778
w2596
153915
104264
104260
milford
149310
walton
wallet
149406
149488
whitney
159837
159859
w5319
w5328
160795
160742
dunbar
agw06s
michel
000002
w5627
w5628
145717
109244
128746
161939
initialization
multicluster
g1256
vancbcw
vancbcpc
garage
125522
steveston
decl
160182
143699
148922
164464
164473
admin3
weatherproof
cynth
143333
143390
143363
143354
architectural
whitecourt
p1pan
rspo
152809
122101
127404
briefly
ibiza
rm1
observing
obsolent
sea801
jj0mo
162517
wcomip
c3837
147402
bnn
tsppts03
ccap01
abs02
abs06
c3421
##rkonak
140263
abn14
braze
110009
t23708
132898
ndndon
120203
143426
badger
125303
escb
e1009
e1006
rehabing
mackin
r1411
droppped
159937
togmsc4
123296
wrist
hurontel
campg
170206
cbcngcn035
r4e
166562
dorcot
162067
colom
delays
t496
150203
159703
s1505
stjh
123404
stud34
territory
10306645
dwg
e0776
citib
c5229
154939
castlegar
mnc720
##rcs1
roma
##tesu
162740
163350
10001540
110411
c5721
chaparr
claro
c2565
premise
ruskin
mf4
allocate
pt008asg
mssgonpro18
cr15
leasequery
essex
dimitry
##mingham
10078552
rivieres
132546
158507
nyrkongmo17
122264
htxbw
with10g
m1302
wngrmn01
10001429
ncs540
weekends
10073052
10297331
yrrkonak
otwaonqps
ellio
2x146mbps
x141459
gladwin
10442148
tor860
arranging
morrisburg
bbmw4891
boundary
##hx3
multiplexer
rsoesnsg
ventilation
nipissing
mssmonts
145406
mtrlpq02cmd
141453
employee
employees
propane
jonathan
141779
138868
huntingwood
##oining
reverted
bdca03
bentley
sinclair
alteration
henri
independent
chasis
c4212
sixth
##worx
wnpgmb50s
behavior
tdbaonw
05lvxq801155
scaling
2x131mbps
conectivity
missisauga
stubbs
technicial
kinked
collins
robbie
mexico
vilna
claim
10147496
facilitated
milliseconds
dagmar
kntaon
jj0va2bc
transcanadienne
rbs3206
mctnnbe
orlloncx
bancroft
nadeem
wlfdopt
rxotg
sandringham
8wsps
rragc
ritchie
raleigh
t27021
vaudreuil
im2084467
slnt1515ru
corrects
dtltpia
amphenol
maalawy
helicopter
cynthia
htxbwm63
rsoesnsgips
088
094
0deg
2mhz
2751
3210
441
442
492
6b
612
646
685
687
796
733
749
787
8b
879
913
927
975
948
9006
bam
bab
bmo
bigg
baby
csi
cand
cau
dap
dpl
e74
gmsc
ghost
lire
manning
ntw
nds
pi
pes
pigeon
qty
rit
rach
rice
ses
svd
sbm
v80
vfp
w37
yan
##lab
##r3
##riel
##oine
##oak
##1002
##425
##bons
##n4
##now
##m7
##mag
##h2
##hor
##hand
##hooting
##ahe
##polic
##jun
##802
##ku
##kland
##onia
##enaude
##urns
##urous
##ingro
reten
##0121
##alx1
##aries
##arios
##itary
##urry
##esx
inactivitytimer
##acon
##eler
##chd
##chp
##0951
conner
conroy
12019
stony
##rait
##rage
##olation
##remont
dewd
deverter
decoder
##imshaw
mtt
mt9
mt5
##ros
cht
##20a
prework
node1
##0807
##0836
##ibility
100201
100448
100031
100269
100132
100080
100050
100493
100489
100683
mould
1331
1357
counc
requied
2550
to1
shave
alm
alber
1817
##loway
##andra
networking
slice
retirement
1925
1998
109112
109119
109110
109178
109149
109172
109231
109753
109280
109217
109757
109387
109247
109444
109125
109373
109580
tras
perry
epdg
2401
##cuat
##1845
brace
minds
##onda
111757
111483
111361
111333
111982
111368
111369
##45c
portugal
monit
2320
2375
153117
153136
153286
153138
153017
10483
104172
104176
104969
grimshaw
lepage
10166
darko
##oc3
syst
##3500
146750
146272
146178
146442
146383
146663
un363
2025
20mb
##minent
batterie
##ca01
1470
147250
147258
147267
147289
147435
147232
147792
##antel
dc1
dcx
ericson
pm02
##eech
clegg
sofware
149250
149005
149077
149232
149254
149372
125057
125179
125059
148190
148199
148456
145192
145210
145279
145076
145219
145338
145161
145184
145968
145294
0017
patenaude
produced
201312
20131015
collon
vahbsc0
##3106
rodney
steer
s2011
w5278
w5165
w5171
w5168
w5289
w5177
w5479
mp4
mpts
scm
07dh
taped
062
484
c5493
124148
124086
124058
124280
124972
2933
2930
c0011
c0068
c0063
e5113
e5052
e5218
e5043
e5435
w0031
assom
pos0
rang
10501
approach
concorde
##asson
155096
155088
155383
155339
155431
junior
multimode
flap
baie
dncss
ec4
152960
152047
152293
152953
x1301
to5snap5
123980
123139
123284
##ucn
cellreselection
559
breaches
103025
103066
103109
6574
geod
c0149
versed
w1210
w1279
w0233
w0290
##nette
e0017
154251
151024
151055
144022
144274
w0119
w0173
##mcnicoll
127023
110334
110357
2006
164180
122139
1021
10298
w2952
212296
111504
111512
111506
111526
111531
language
ms2
msd
models
driveway
w05a
w0524
w0582
109809
109835
os30
osler
100569
w0396
w0308
w0347
w1605
w1615
w1675
w1667
w1652
w1654
haro
identity
143245
143297
143283
157984
draw
109506
109522
109577
pc002
encased
111879
maxwell
146557
a0077
a0031
nrt
c0320
c0377
simpl
sprinkler
c2273
c2271
##mme2
w0632
delhi
c0222
c0231
130991
e0600
c1978
100797
111675
111679
111630
111689
w0439
w0479
10001261
10001469
##beau
111711
111708
peds
149561
w1428
w1466
w1467
w1454
136394
124418
124446
124434
ml02mx96003
ml02mpg00
e0260
e0237
e1091
evans
149695
149682
sentex
146913
146914
146948
renforcement
6601s
w1501
158006
##ti2
bbqn
100908
100924
100910
a0215
6744
126470
126468
2263
124506
124536
124586
utica
covering
colleg
100411
carlaw
142164
142298
##gined
151705
##hours
w1982
w1989
##bk03
lsl
166283
npan
w1728
c2420
sheppardmcnicoll
150927
150928
150976
5125
150538
150594
150847
150846
150840
1x2
152404
151803
151811
151813
151847
122323
122319
150006
150348
150369
c0423
c0429
c0432
137185
124340
sugar
146876
146634
151570
151568
151580
100214
e0401
e0418
initially
w0917
rns104
c1818
162444
153308
126447
126274
dbarch
123873
willing
##pqa
##pqac
152341
152652
145326
144462
151415
151452
holds
111313
w2760
w2777
c1626
vmesx
146479
146476
151616
151618
151639
151673
123748
109323
cdrs
c5514
c5523
c5592
c2778
c2730
160643
w2406
w2436
145576
152533
151396
151333
151397
151359
150781
153695
147615
121872
0088
npt000000063
npt0000000647
117860
117845
109426
139983
100001
1145
x11100
150438
147818
knight
userlabel
e0354
154876
154871
##04571
109670
g1143
161718
161791
161563
161553
tm2
tm6
148827
c0703
c0732
123526
c2618
closer
c3739
117900
rg45
birmingham
10151363
po00102
160002
160027
154534
130854
147712
131367
146775
153597
w2826
w2879
adc20
adc61
2065
127503
104209
104228
c0640
c1464
140314
160925
162439
162458
continuum
153717
sandford
subsystems
0000003
samuel
160812
160805
##laimer
122507
109215
nomurous
t53116
146301
brookside
c3618
126511
100655
esxi03
pushed
140421
123688
160135
148998
148931
141845
145618
104508
104576
154381
mcmaster
montpq
10140659
t23849
162530
162318
162386
pm01bwems1
trfcfg
martingro
144363
161381
159668
disclaimer
131715
131763
cvas
pwt
w2195
ultim
##canada
unavail
164555
148418
mssgonrw
trfck
richardson
124212
togmsc5
mps13b
wnpgmb15
104899
timberlea
10003182
lbhone
e5233
144635
worst
describe
ntk525
dawes
bdcm
162608
t11693
123406
123426
##bonne
apologizes
132765
catalog
consisting
condensing
mobilize
castlefield
148604
rcihp
espan
163519
rotten
109552
derail
nicol
watger
russia
allocating
10002106
mtrpq
##vpn60
penetr
142993
163936
123125
10001804
157423
162995
w3216
104797
142006
scenarios
10445149
rblt
preforming
bleeker
ogilvie
165318
860mhz
announce
recomended
grenville
disturbance
prioritized
prioritizes
165220
t61308
498c
humres
cmbgonyvo2d
recordings
comprises
134615
eagleson
im1904571
mssmonrr
mtrlpqqn01t
aspenstone
edenwood
10131102
hartford
premium
05mham
coaldale
tca2
##wfoot
009692
substation
driblling
8r1a01
e0258
constraints
nycmny83
stevens
srfrones
v53v
181325
gdns
stokes
anaheim
patch498c
decommissi
threshxlow
##to5oss
01dhct8
##cfe6
1590nm
waverly
##priority
##to3oss
glassfish
maitland
nttp06cfe6
tomslake
10439067
ernest
csctf653
clinton
05mgaj800167
mi0bnl
139324
esquimalt
fredricton
mrhonbv
arbut
beeton
srbhon
toroonuys
macmillan
fc9686m410
##rowsmith
flamborough
appendix
lillywhite
sheraz
supersystem
opportunity
ndndoncs
chaparral
##policy
dewdney
mindset
dbarch207
martingrove
csctf65320
060
043
099
2way
2077
3001
3969
491
469
4967
4761
517
638
746
753
815
882
881
8146
912
995
937
987
9376
aub
atwood
bun
biche
cain
cages
c0254
c0256
dx
dantel
ehe
eao
e0256
fay
flet
gem
gone
g152
itt
istallation
jp
ksw
kids
lid
lark
lith
mann
m75
n6
n0
nan
nid
nant
named
osm
ps1
puc
qures
r04
sib
suk
tch
t08
t75
tba
tfr
v44
v70
vital
wpm
w30a
ymo
yyz
##rws1
##our
##g7z
##yez
##4sip
##719
##bill
##beck
##nal
##mss
##mbs
##d9z
##605
##687
##6sip
##3vmail
##onad
##enium
##enabled
##ining
##inch
##inigan
cmts91
cmts89
##anation
##andeep
##stal
reused
ds384
##esda
inbox
pr21
pr33
prpr
eqam093
plenty
##look
##lochy
##ela
##irut
ussd
##utary
12000
##1276
##0566
teck
1650
##imer
##roe
loo
workgroup
im195
100950
100113
100268
100452
100487
100193
100485
100386
100784
moumsc0
mcne
1391
133475
ip0004
seek
coc
cot
cob
cogn
counts
audley
2565
2570
10meg
##enny
shir
##mot
1861
##3397
##tool
1170
reply
0104
ktch01
aptn
109141
109148
109297
109128
109168
109334
109261
109252
109964
109392
109965
109109
109467
trades
##1904
##ptions
perillo
24h
2480
##cuv
##1899
envision
##plicated
##9514
##17sa
sog
soyez
111750
111449
111780
111781
111477
111484
111356
111462
outer
##ue98
monarch
tor664
153270
153254
153439
153872
153689
##shx1
3101
3102
104974
104275
104280
104249
104197
10156
101444
##mtnk
146236
146389
146889
146776
146955
146963
146355
146654
146368
unp
spenc
disreg
##3900
147130
147095
147785
147180
147453
147177
147436
147125
##2201
##iau
dgw43
##aug
##gram
##grci
##3694
149245
149270
149137
149958
149458
149985
125165
125171
125477
125371
148960
148394
148330
crs1
145191
145268
145871
20131028
bois
##profile
shelbourne
aslo
stee
w5100
w5201
w5127
w5038
reltec
westel
westong
westbrook
scsi
milepost
3515
elb
warnings
converts
wdb
068
c5167
c5122
c5297
c5392
c5782
notif
124006
124134
124018
124072
124014
124084
c0021
banding
transportation
patch487
694
112432
112381
smt14
e5165
##oreaux
w0027
w0026
w0097
w0094
asso
hsrp
ranote
105054
valer
4531
155201
155130
155122
155083
155128
155174
155376
##bc18
parkview
guar
shawinigan
anet
es20
152256
152443
##bleside
0300
123117
123034
2724
cellidentity
50g
bci
bcbc18
qospolicy
129138
129159
npt000000032
c0112
c0170
12804
amandeep
ambleside
balfour
w1200
w1216
w1245
c3045
c3028
c3657
##news
w0217
w0283
w0263
w0282
netapp
e0055
pae
3404
154029
154151
laurie
151096
151004
151126
151077
151037
151038
0037
144207
144152
144176
toroon47
toroon1111t
nocc
127043
127055
a1s
7625
100821
jan14
duff
duns
122334
122135
122280
122440
##5322
mx4
midtron
barbar
w2028
w2959
entit
recable
dih
c1589
111530
111562
111561
msn
w0564
w0561
handed
100508
100575
100598
100590
logistics
w0311
w0375
w0338
100616
100615
100690
w1616
w1664
w1622
w1699
143449
directors
157880
109511
109567
t23883
t23773
111815
111836
111834
146574
146561
c0327
c0361
c2284
c2291
c2238
w0691
c0275
c0228
c0232
c0282
maisonneuve
x1212
x1211
sri
130977
e0619
c1911
c1917
c1939
c1985
c1987
111664
111645
111635
111661
167784
afl
w0460
w0474
141944
141990
165385
100388
100341
4945
##beam
111714
111719
111795
2x100
149547
149543
149535
149522
149584
w1490
124490
124492
ml02mx96001
e0248
e1069
ru03
149698
146935
dundurn
renaud
w1589
6830
158950
glob
132967
100903
100921
147522
stopper
##cpfw01
124502
124598
124562
finishes
149798
149736
149770
149794
temporar
radiation
100401
100406
100428
134165
134164
134090
134193
142117
142036
tuned
151788
151734
w1942
w1976
w1990
w1958
g1200
g1211
g1235
w1710
111404
111464
c2462
122803
122859
122857
150967
150984
remap
150580
c7780
123333
123341
123362
150882
150880
150881
152425
152423
152438
##cgre
150027
hpx8
speedup
c0466
c0458
crossed
133243
124328
124398
124362
146860
##mmf
1156
100203
e0496
e0408
w0986
a0169
a0184
16224
153382
126279
126241
dbg
123875
tributary
##hwinder
w1864
w1837
145325
111316
c1601
109704
124812
124806
124875
124867
124854
tenant
124681
w2369
151681
a0396
122757
e0587
109349
c2321
cdp
c5515
c2773
c2758
160681
edmbsc0
mhd
145566
150710
122998
w2618
151192
151182
140601
140621
wallmount
148309
147673
121855
npt0000000646
152748
161216
117859
109496
##ex4200
##ricia
159275
npt000000049
150424
pagevolte
122477
knoll
131093
e0327
e0355
154821
##21891
ml2snap6
109697
c2599
131106
131197
fortis
100116
148865
148850
123538
meeting
sungard
147316
147327
117905
117913
161680
receives
fro20045
fro200482
161849
c2204
c2260
c2229
analogue
130898
147705
147735
154771
124948
c0808
123924
123998
153842
0095
0090
146704
146722
e1642
po0012
w2849
100060
w2579
127533
153914
153919
jameson
c0694
145264
149313
05fixx800955
149422
2330
149927
maymont
w5341
153703
153716
153778
inverlochy
cscue98
9300
c2828
152116
152177
152180
reflector
160829
160882
e1102
e1112
##ny2ip
w5425
125415
128745
161995
161422
oln
tournc3
e1564
125515
125517
brookmill
140988
100650
c2174
c2172
160104
bowl
109944
141843
143340
152223
trem
154316
montague
122125
127406
158360
ibx
odus
w5216
162378
thomson
c5629
c5637
147411
147488
pm01bwps1
148578
cm0000000307
sre3
152065
140261
160584
125205
remained
143916
143933
148213
e1716
applies
130228
132876
1677sl
x150189
139684
155398
trfce
trfca
cmd1a
c1779
w2025
w2087
102988
rejection
durand
112343
spectra
163802
mct000000
t42140
t42159
w7136
ssu2000
155228
112419
105488
im2321891
t498
148795
explanation
149229
vnid
cracks
t23940
130045
10097739
watching
##cis4948
citation
dialing
c3908
cgi
cgm
155400
innisfree
deactiv
148660
ramsey
##glade
20g3c
788df72
tr5138
diconnect
beecroft
rmhlonayo25
rmhlonayo20
##iusers
n1408
10002107
colonial
cr11
leasehold
##idns03
rcmpts
lodgepole
reparented
134706
rebalances
stayner
ckvlon
avise
wfdl
transaction
digitial
murrayville
165324
165322
jid0000000648
l4h
oscar
privile
##cqiusers
intergration
sdbron98
operators
pl001sg
129771
x141040
advertisement
x141953
barton
x130697
otwaon2303t
chiasson
va2rad1
btfdon
20130502sa
1287833
1287831
1287832
90a21
vancbcxa01t04
6de02
deblocked
x110979
##wgr01
prostreams
bmtnondao
erbss
10304831
iblc
mortenson
##oofing
npdgp
ava5
stevenson
tn1684
stokesm
flm2400
a0526
escalated
noofpucchsr
noofpucchcqiusers
w8012
im2015342
fctnnbbt
reynolds
namaka
reactivate
fro2004876
10003670
attribute
rwimsc3vmail
x141561
demarcation
conception
traders
neigbor
cascading
disaggreg
competence
nobleton
wdstonbio05
mdcicmmf
mimico
##intosh
tucana
10175263
ebrt
sourced
ml6694
mcclure
tablespace
otwaondg
bellevue
blainville
switzerland
##000msys000
brazeau
10003175
##pqaawc1
arbutus
qureshi
sukhwinder
tfrfmn01
prprmb
im1953900
disregard
20131028sa
qospolicymap
barbara
fro20048213
cscue98258
0557
2075
2185
3ns
473
4250
5001
5060
688
665
683
681
6250
789
891
8080
9a
924
997
977
a13
bio
ces
cork
c70
cbl
d02
dba
f4
fet
fbr
fsb
gul
garr
games
hun
hnp
kaz
lit
lach
n02
nice
nore
ope
o133
p03
pbr
pannel
pix
r44
snet
tes
t74
twc
tamil
tire
ttl
tighten
ved
vnd
vond
vabk
wst
winkler
x23
##cra
##och
##y4
##yer
##yde
##1q
##2e
##i2
##ih
##mw
##master
##d3
##dund
##dma
##hne
##aau
##face
##fla
##p4
##ju
##jb
##j801155
##kbps
##z3
##onet
##erv
##erton
##inental
##orland
##atint
##anich
##stname
retermin
##arge
invert
##simp
neo
prp
print
##accs
##ndown
##lo01
##elt
newdund
##irn
##ircu
##irection
##isance
using
1449
##0917
servc
1595
157871
593
roche
##1213
stol
##gether
te45
chab
##etown
im2063
preconfig
##0806
##0795
100120
100272
100048
100286
100219
100042
100440
100038
100044
100483
100870
swbd
excl
equi
equal
1349
##ardo
seam
segw
lte2015
2017
2503
2511
25101
toh
shaugh
shadow
alison
maintence
##6400
##6482
1186
1180
##2435
109210
109262
109183
109251
109156
109249
109285
109480
109463
109363
109188
109454
109682
##19a
2421
##1835
##br03
travers
soho
brat
brighton
111787
111461
111355
111476
111373
outremont
corona
cnbc
2385
153974
153262
153066
153651
153681
153589
cl06
104155
104911
104272
104152
104283
104186
grvn
lear
1019
10146
101005
101105
explo
fa6
thim
146021
146083
146756
146445
146985
146651
146370
spaces
dispose
rfsw
nfm
transce
##minister
147334
147958
147440
147437
147471
147330
147954
147105
147990
##seg
linked
updnar
##ergy
dgw67
149236
149430
149978
149491
saes
eastward
eastbourne
125005
125289
125137
125237
125437
125241
148951
148185
148437
148968
148446
148459
148957
148439
148476
148454
148979
148682
ester
145178
145280
145162
145374
145762
patricia
2631
2205
dt15
desgined
common
commun
pbo1
asic
joy
joan
orng
w5129
w5048
w5142
w5026
w5069
w5436
w5456
wdstk
wo048
##ators
arlington
copies
c5434
meant
2800
124288
124110
124298
124054
124881
c0017
c0088
c0097
c0092
c0054
smt125
undert
e5331
e5181
e5463
w0065
w0039
cambr
10505
105478
valad
fixt
155192
155473
##uthers
guinea
##7295
osprey
multir
baord
esl
152265
152292
152270
##ontinental
123272
123141
123081
123217
60k
60mn
1030
652
wolfdle
feedhorn
129149
129009
129491
c0115
c0132
amss
amoreaux
w1227
c3065
c3881
c3436
w0287
w0269
##erience
e0095
e0074
e0062
154111
154028
154286
154067
154170
151032
w0199
127368
110361
a1045
mltn23
va2mx96001
va2snap6
100813
002350
microsoft
164083
164121
hdc
hdt
southfield
x1518
122258
122288
122097
w1968
w1964
mx03
w2045
w2255
w2138
w2057
w2640
6270000
recie
201109
111534
w0550
109877
0044
100529
100536
w0314
w0324
w0378
w0355
w0385
w0383
w0371
irpan
100638
100636
100676
w1621
143272
143954
157485
t23779
111847
111838
111830
a0097
configuraton
configuratint
simons
ms1smpc01
0057
c2242
w0605
w0619
w0678
delisle
c0235
c0234
metadata
ccps
130969
e0649
e0632
e0653
c1908
c1935
c1922
100765
111696
111631
schd
octel
141991
165217
100321
origionally
111744
111764
2x1
149503
149520
149560
149510
w1446
w1481
w1489
124426
124432
124472
e1058
e1082
149644
149647
149679
149661
downey
##x1000
101308
101323
w1103
w1500
limiters
e0175
158077
158356
encloser
100936
a0241
a0271
a0282
147566
147532
147584
primes
124543
124522
124554
dmcr
149744
149762
2ghz
100488
134265
urls
142052
142159
142162
151760
w1903
w1947
w1991
w1992
166959
w1795
w1798
demmitt
111424
111460
macgregor
122879
150975
150978
150974
107th
123323
123378
123350
123331
152455
151812
151807
122394
150025
149819
150356
speedvale
c0437
c0473
1139
1130
163478
suiv
146807
146890
146621
146697
146635
146679
151583
1158
charle
c1822
c1879
162446
mgcho
c4290
conductors
123805
123829
123841
123831
123857
w0866
##pqan
w1803
w1816
w1870
152346
152390
152651
151405
151494
111328
w2733
w2782
109703
109797
146475
146499
146492
122079
124699
w2305
w2371
151626
151693
122785
e0588
e0599
e0589
e0553
109312
109365
germ
160617
160635
160690
124725
124717
e0939
e0980
w2424
145564
145560
152929
152937
122903
122929
122991
151157
153697
121874
0087
npt0000000643
152793
150600
150615
glenay
glenanna
161295
109400
109405
109406
159957
10002027
e1298
150430
147896
2219
122465
122473
ct2
csg7613
121948
121940
ml2ium
a0433
131107
131132
g1155
161711
161715
161720
161763
154423
154449
161584
148816
151219
151217
c0720
147225
c2667
147315
144529
c3715
161604
161614
161695
161622
fro200424
140182
burnside
161835
c2216
10151502
154500
154594
130852
147764
154763
124902
124922
c0806
e1477
e1431
153561
3009
affili
e1640
po00123
po00122
w2820
##aao2d
153934
c0633
c3529
145209
147946
149424
149410
c1429
c1438
159829
140334
140332
reseated
turnc14
162493
ductwork
overflows
##gtg
sandover
9865
100851
crs3
dunn
140597
140540
mitm
w5664
##vaorland
c2820
reflected
collegeway
145795
122521
qualicum
109224
109226
125403
125433
t11335
t11466
130590
128742
161400
146395
164664
164619
125520
c3678
126508
gabriel
c2198
crq00000046
esxi04
164480
143303
143313
152215
154366
##db2
122173
impacc
edwards
toumgw0
w5228
110768
147423
147465
pm01bwas1
sequencing
cm0000000300
132307
132346
coldwater
bariono
130634
144343
160533
akr
10490703
w2179
w2170
##cg0lt
unse
164554
139688
155313
bonnell
w2084
155508
122606
123202
162125
loopback1
fi20
beaumont
w5501
w5502
163687
163827
164799
redirected
##sdv03
162071
153409
153421
153475
100868
galloway
112418
e5216
160482
costs
psnaccs
148766
159702
149244
r212
dependency
s1514
142394
160217
129665
166937
bdcbea
e0778
##nnbsc
lagauchetiere
to5iumc4
wasn
155464
impli
g1406
157636
163315
skymark
##ext003
mogmsc3
wcomtori
131623
clarence
174522
calibrations
ex8216
165738
bronze
afftecting
x150275
promo
tb0k
10131029
172806
134703
sunnyvale
aisg
attempts
10432752
141196
141150
transcontinental
10023550
10425697
jspe01
empire
acitvity
##nessy
mhsa80
alderfla
ridout
##smpc2
sauve
choi
fctnnbsc
jennifer
447236
troubleshoo
otwaonslhx1
nipigon
montqend
121966
cellfdd
ncells
calculated
ddm50
##mx960s
ml02rad3
chipman
bisset
montevide
foots
clgrabsp01t05
rsoesnv21
3750x
molson
turndown
to5uspngw2
hkmd
ofr4
10120013
concurrent
144748
procced
x110591
im2015346
fctnnbb
munden
avalon
easyip
interacted
10445778
jumpstart
proofing
bbtp3
hacker
10310883
t64mr
647747
10138973
10161442
toronxn04tof
pm01cscf02
20140424sa
kimberley
10310508
identifed
fc95705
2x195mbps
chhmon
beiseker
sustain
reposition
bungal
diversion
nuevaorland
edinburgh
deloraine
smc8014
intsall
declared
jj0mo2bc
colomachine
mctnnbebo2d
ntwk
council
cellreselectionpriority
wdbgo
12804141
paetec
3nssr
newdundee
im2063148
shaughnessy
mgchostname
alderflats
montevideo
rsoesnv21tr
nuevaorlanda
0222
0s5
1l
2ds
2076
2038
4x10
537
5061
6f
6148
741
761
7258
7992
969
ast
aar
a31
aov
bau
burst
bales
cph
cft
dg
dcr
euro
fund
faced
fgd
f798
gm
gx
gan
gdsf
hig
io
ian
ies
ici
iex
kon
kpm
kong
kris
lime
mr1
m11
mib
mav
n47
ndp
pus
pike
qgp
rq
r75
r35
rates
rpb
rnoc
soo
santa
tst
t79
t70
tiger
u2
wts
w13
wgs
wwe
wrok
yor
##lde
##tb
##rington
##rru
##ouse
##susb
##uera
##uvant
##gans
##bvf
##i0md
##n5
##m4
##mington
##d9
##hc
##hm
##hich
##hael
##farm
##pona
##v6
##vk
##watin
##0003
##0005
##erich
##ervice
##ts1
##edo
cmts79
##entific
##stj
##stan
##25blca
##esy
inactivity
pg298
ply
plims
plusie
##0316
##abo01
newbury
##omised
##chcodes
conna
##utz
1594
12pm
12himt
##tey
##1215
pouvant
##0552
stad
stitch
stcpe
tet
te48
##olx
##iper
##real
##11ac01
1634
##1576
im25
preinstallation
##ibur
##ibers
##07n
##0764
10064
10058
100100
100750
100040
100032
100140
100180
100754
100187
100478
100199
100463
100379
100777
100581
##ubsc
swi
sw23
exsi
mccre
addi
134100
sek
##twt
1791
codrington
##1446
##istan
toi
toumgw1
totwt
time6
##gwood
shield
shou
##idas
alive
alerts
1823
1850
##arton
wlflde
##44a
##oo01
slr
##tops
##64blca
atr
##2786
109448
109447
109151
109442
109124
109452
109132
109888
109332
109195
109483
trill
epo
2413
enni
##agen
backlog
##compass
111384
111387
111394
111390
111494
111491
111772
111861
torib
torsmsc
##4793
153123
153245
153057
153089
153247
153494
153652
153580
3gpp
changeover
clamps
cl07n
10428
10465
10474
104178
104385
104174
leith
10177
101133
101190
101457
##akh
sda
day4
faut
faul
think
##ms01
146292
146270
146219
146958
146189
146385
146391
146989
146777
unassign
spd
spas
spurs
part10
##mina
147276
147138
147236
147783
147109
147116
##22s7
startup
##mdf
149094
149207
149016
149006
149136
149337
149190
149449
149451
149354
##aleu
sait
125101
125123
125283
125461
edumgw0
148120
148098
148443
148473
148758
148963
148993
##ecker
145262
145275
145232
patio
201304
201307
boulton
2684
2264
##action
mana
mlb
w5256
w5028
w5032
w5164
w5189
w5285
w5197
w5645
w5484
w5649
distribu
laffer
abbey
elora
converting
ringing
ringno
arich
c5019
c5440
c5254
c5386
c5371
2832
##ichester
124004
124210
124070
c0073
c0089
4165
112338
##40g
##8319
e5123
e5055
e5283
e5217
e5222
e5174
checksum
w0083
hsbc
forum
10508
10534
rncfunction
valves
##assa
155060
155373
parkland
on06
condo
woodland
##gsn02
anz
anges
annette
freeland
##odeb
##cessive
fcr37
engg
152218
152136
controlling
123018
123031
123135
5570
50mb
656
12943
129124
129157
npt000000037
threaten
geary
c0137
amaz
w1226
w1280
marl
c3232
c3783
w0215
4747
e0036
e0061
##pped
154131
154261
154035
clearview
151756
151079
151084
0039
144279
w0120
127362
a1027
a1026
va2srx36
##avan
100897
0023
200a
indication
164089
dup1
southern
southeast
122206
122091
122262
122043
122095
122293
minimized
w1085
w1961
w1084
airtel
hydrovac
shutdow
w2290
w2293
w2217
waterline
ssts
c1507
##1009
x1417
priorities
111544
111518
operate
##print
otumgw0
w0594
w0562
5201
5225
52count
109806
109828
109840
0063
100514
100535
##mx4
##mx03
intact
int00c01
w0319
w0397
w0349
100602
100660
w1640
w1681
143455
157440
157978
messenger
109516
109507
109533
109587
146515
146522
146530
c0317
ms1ex820803
ms1gmpc01
0052
c2169
c2286
c2445
w0602
w0616
w0615
w0650
edgehill
c0225
c0244
c0224
c0247
keats
130923
130981
e0620
e0658
c1945
c1993
100720
100744
111644
111688
111663
167267
160g
w0449
141947
165265
tpoint
111716
111710
111732
149502
149574
149582
w1444
124478
e0208
e1081
e1042
e1072
ru1
149610
149626
ntps
146949
w1574
w1590
w1584
68b6
e0129
e0143
e0130
e0193
e0189
8804
bbz
wey
100905
100937
a0230
147509
147575
147587
jid00000009
jid000000055
jid000000068
104301
124508
124572
##lah
collected
100423
100422
134075
134194
carney
142011
142027
142149
auger
1169
151799
w1921
w1936
5465
chassis1
g1204
lawn
w1760
w1794
centrepoint
111402
111417
111429
111465
macdonald
5805
c2471
c2456
122816
122875
122822
122841
##021ed
150909
150965
150959
1071
150569
singapore
152400
152472
##cg3
151805
autod
12237
149879
validating
##2016
belfast
137285
1137
163439
163651
146692
151526
100260
e0442
raf
w0988
scientific
a0103
a0115
a0188
c1865
c1874
c1857
c1881
curb
162051
deliveries
153348
153393
153392
126445
250m
123833
123827
w1801
10097647
152305
152661
145312
145305
145329
145343
w3028
w3026
144496
144461
151462
111345
w2796
w2726
109700
e0830
124816
124820
124879
124871
146402
146418
154690
124687
w2365
w2379
w2362
a0375
123708
123736
123761
122799
e0590
109316
c2392
c5564
c5580
c2760
c2775
c2771
ldit
160605
160628
160647
160667
138957
124765
124737
124769
e0946
e0957
w2423
145574
145571
151380
151369
151356
150799
150771
122939
w2602
151195
151134
151151
n212
140637
140631
148314
153604
153621
153636
147606
147628
121888
0086
152701
152791
150619
150698
161245
161231
161293
109403
109404
to3um
e1315
e1334
##arrow
139457
139883
100000
159272
10002387
10002241
npt0000000443
sfes
sfmdf
x1100
e1226
effectuera
sandlewood
147812
147813
122475
145806
##ouski
131758
e0301
e0360
e0328
a0473
109688
##023md
154438
154454
161564
161573
bombard
##answer
151275
c0734
150150
123524
123595
123587
147223
c2622
ntpd
mlo2mme1
147304
147306
161020
161757
144548
144584
161603
wedge
keewatin
161833
c2200
160029
##web2
154785
151912
131388
127360
c0807
c0841
123948
153805
183mbps
183985
146795
146739
153539
153549
w2877
w2832
thorndale
automation
w2517
c2986
requs
153948
##imt2s7
145221
145224
147921
2331
courtesy
160907
160921
160986
162484
##voip
##ds1bk
betwen
rocket
jeanne
nat64
vagmsc1
152103
152191
160877
160879
160874
145723
w5412
w5420
122503
122589
t11801
t11442
161915
161923
161978
vancbc01
164670
125501
125538
viceland
c2197
tls2
123696
123662
160147
160168
164478
anticipation
145600
rmhlon34
rimouski
mont3
framework
122178
131286
05dhct87
sea900
t23819
jj0to2bc
162390
rerquired
140829
140835
pm01bwas2
qcmtlbwas2
bounced
r132435
2655
aepona
abs07
144371
159624
abn21
w2903
##thew
##slb
130161
143730
130203
157946
132886
164391
w2190
benef
143415
knows
164585
139693
myers
trfo
losing
w2077
155544
171256
stonehill
##03tfgd2s7
duragu
jasmine
ntk555
cbcngcn058
br1mme2
jid0000000427
jid0000000445
##iliation
nyc2
lyn
yearly
##sdvb01
x141888
melbourne
cottage
x132234
colomb
t11716
cnteth24
cnteth19
100554
149211
navan
141223
winstonchurch
126220
w2209
bdchp
162631
162689
123419
rns10057
05himt848
10306661
e0777
wynford
132728
10001742
154904
expecting
171193
##opse91
124102
beaverlodge
imm12
##fwchtls0001
109553
iru556
mogmsc2
wcomtorj
131624
c5705
129572
waters
tortt
clarke
pebv5
to5usppt
mclevin
n1428
173728
173740
104688
##ski
o1529
10302451
163917
##misis
a1249
a1294
paper
134702
##icommunications
134106
fraud
##isialeu
poc42
##kinson
x131358
tftp
liquor
10144722
x131624
142503
administrator
06606
grenoble
dbrr
chnages
mcknight
toroonuy03t04
x0909
10098257
mrhmonbvo06
mdca11
sdvn86015
otwaon23amd
142606
maiden
mercer
mercier
seasons
netcrypt
va2rad2
compromised
n1527
toroon0107t
cassandra
10132088
facebook
##onaeoc1
otwdonrp
x121673
to5rad1
##ntp02
smpp
##axi01
variable
commissi
toruonsio03
muir
141775
mdcmgnts
tilicommunications
10075087
mtrlpqrb01t01
gt002104
constraint
10443231
jid0000000396
otwaonqpo05
consulting
collocate
goderich
x120362
cqi
10525087
esn201
fournier
fournisse
1016530
pm01bwxsp2
to5usppse2
dashwood
143264
128580
stairs
10480042
krf102
im1967295
comissioning
rc400d
boucherville
burlon02ds0
ms1mme6
142420
mykhay
05hiut85
klu3
outtage
hixx
stamped
lexington
bcvc9514
c0562
voxify
10303631
accidental
taiwan
acknow
chcgild
furthermore
ahren
134211
owensound
bourassa
manulif
20140512sa
administrative
maclaren
professional
gimli
empty
loadbalancers
7fc0
techncian
10127725
reconciliation
citibank
otwaonqps08
inactivitytimerdch
bracebridge
collonsf
assomption
toroonuys52
midtronics
entitle
noreply
stolen
seamless
valadao
suivent
fctnnbsc45c
rsoesnv21trn
aaron
plusieurs
connaitre
stcpe01
lafferty
ringnoanswer
amazon
shutdowns
duraguard
fournisseurs
097
098
080
0123
2337
2180
2782
392
3976
439
4001
467
5s
5db
5390
642
763
7452
7771
9b
982
a4
alf
a14
bite
c0000
cim
cay
c100
c0259
d04
dca
dice
dens
dxu
eau
fb
f01
fare
fenet
f1511
gg
g9
g5
gnd
gann
gild
gbps
g134
gander
have
icc
ky
lld
m66
m30
m70
ncon
odf
ovp
odd
p15
pfm
rmr
r3c
sgc
tsm
tamp
tpe1
ua
u3
u2000
vint
vfl
wut
w45
w41
wgn
whe
warren
x10g
##lty
##cnc
##clin
##caca
##rio
##oa
##sfield
##ufficient
##4b
##408
##4md
##bass
##n2
##nor
##nmn
##mf
##mq
##mmsc
##5a
##d01
##626
##3g
##fy
##fh
##f8
##fmd
##vill
##v5322
##kr
##kx
##kan
##0012
##0062
##onan
##ini
cmts92
cmts82
##ores
##atkopt
##anel
ream
##0105
##esm1
neut
prio
price
pr1b
newrru
##0203
##iso
conco
conse
##uting
1593
installa
##0410
5938
roblin
##12c
##1202
poup
##0551
stag
##rah
##olx1
cableing
cabletal
##reau
16297
chest
chichester
lo0
imminent
prest
##0683
##08874
compact
100115
100111
100279
100473
100189
100254
100186
100459
100434
100438
100351
100993
100770
100790
##ssr
swict
upgr
mcph
5910
##quet
1771
cogh
##1404
2509
2555
##2187
alaska
1866
1871
1869
##44874
##33a
##2762
##27ds0
1929
1939
##2496
apnd
1091
109206
109288
109137
109088
109350
109331
109880
109281
109969
109451
109450
109491
109372
109104
##os7
##1918
minto
111443
111473
111353
111363
111479
111474
111366
corning
##45mbps
##emon
monsmsc
channelswitch
##illance
153004
153029
153185
153128
153779
##ship
interupted
clamp
##97a
10433
10486
10468
104273
104487
10164
10167
101136
101158
10123884
drn
d3gn
theme
146191
146172
146171
146195
146957
146884
ph1
252960
sup32
supress
preping
##cairn
147003
147270
147231
147268
147124
147776
147985
gros
##2202
##inda
##3687
2105
clemina
serialno
1491
149100
149146
149057
149374
##ixc
1251
125447
125267
148953
148222
148339
148486
148774
148971
crc
145118
145235
145198
145350
145234
145249
2662
fea8
dtx
resot
slogans
##ds6
##dsky
verifications
orngon
w5118
w5286
w5297
w5291
w5330
w5340
avr
westminister
mpma
##ignment
scz
##3209
pm01cudb
pm01mtas02
elx
vous
3606
pnr
3832
msc13a
06h00
##74a
arbour
489
484913
c5160
c5758
c5372
2825
124158
##ordon
insufficient
c0037
692
6935
112440
112438
##ecroft
smt13
rfgw1
carruthers
agw92
caing
e5128
e5138
e5261
e5477
e5125
rebar
w0042
w0058
johnston
10504
10513
10514
10523
1556
155151
155441
155232
155371
##0258
anb
reallocation
152208
152338
152217
152440
123015
123258
123121
123962
##uccessful
2737
103024
103032
bcmv
sm4
129120
129199
northlake
brodsky
c0160
c0122
c0155
c0159
##athon
168146
amar
amatkopt
balena
10gbps
3947
w1272
marit
c3452
c3880
c3434
c3782
w0226
3495
visite
154001
154004
154118
154097
154222
151097
0034
tng
144267
144284
127076
127046
110356
a1u
va2ldap
##fp11
100879
2005
2008
164976
##ollard
122447
122274
w1001
w1258
w1018
w1126
aircon
again
agero
0800
byte
w2951
w2334
w2124
w2039
entwh
ssg
c1517
c1590
111510
111587
111594
w0541
w0558
w0572
w0592
w0581
109813
7215
pathway
0049
100595
100599
100563
100562
w0343
w0380
100618
100630
w1625
w1636
paramater
##ilog
143970
143883
157432
109517
109546
109549
t23966
111805
111842
146519
146585
a0028
c0318
configuratin
ms1p
ms1srx
c2282
c2266
c2641
influence
cresent
scarb
130950
e0605
e0644
e0664
e0699
e0681
c1919
c1946
c1999
c1983
111638
w0497
141999
141931
100311
100320
111765
149501
149512
149526
149548
149586
149554
w1431
124488
124450
124456
e0268
e1053
149645
freez
146945
101300
101329
10130613
w1179
w1172
w1180
w1547
w1557
nyc1
e0168
158354
julie
hotcut
##oute
100917
100940
a0229
1067
126455
126476
126480
gw02
##figlio
124564
124534
149789
dhda
croix
crosby
134096
carlos
142274
dacc
w1920
w1950
w1930
mgw3
g1201
g1216
lawful
w1706
w1740
c2475
c2431
150908
150989
1072
1073
150555
150599
150540
c7969
atmore
123319
123388
150866
400mbps
2285
152409
152496
152419
##cg2
151800
151838
149876
hp7000
##2011
150364
150372
securing
believe
beltech
belfiglio
137180
itu
163251
163299
146828
151596
151575
151555
e0413
e0491
e0462
w0912
w0997
w0941
w0932
w0940
a0194
a0159
c1819
c1861
curzon
compan
153314
c4146
c4757
126962
123843
##greville
w0875
w1854
152351
15262
152607
152628
152629
152674
145319
w3022
w3163
144424
144448
144479
vcas
officially
111395
c1657
109747
e0859
124808
124810
146423
146436
124612
w2386
a0365
123726
122761
e0568
e0556
c2320
c5593
c2706
c2762
160633
138659
124721
e0929
e0979
e0940
w2465
145573
151342
151357
152915
152995
152936
150716
w2695
creeks
151146
151137
repareting
140669
shorten
153631
147618
152763
152781
glencairn
161225
161260
161279
117862
117856
109425
109416
e1341
e1392
e1204
150403
150434
122417
122463
145876
131094
131759
154819
154834
121900
a0404
c2591
154460
154486
161548
welcome
148893
148861
c0721
widebank
150116
123518
123597
123536
147344
161250
161257
144531
117904
w8084
trkinfo
w0702
w0712
161815
160048
##45541
deadline
147713
147746
147741
ca1idns
locte
124928
131379
c0822
123990
e1459
153840
146706
146760
153596
153508
2060
##25701
w2597
153975
153947
153922
145227
vegas
vegreville
persons
159853
quarant
francisco
162436
w5360
153731
153730
wickonb
##44929
otwaonhu
pkf
w5600
w5699
c2809
152181
columbus
columbian
145729
109203
125425
130585
161947
161953
rexwood
e1588
garland
164668
125532
brooklin
denman
c3608
126513
126578
126562
crq0000004
crq00000045
decarie
meadowbrook
meadowlark
160193
143617
sbv5322
148906
109907
141897
152216
152221
152260
145696
145678
154324
##db01
toroonuyo2s
122105
127402
127410
sea83
w5215
w5233
c5423
162507
c3878
162350
pm01bwms1
pm01bwps2
pm01bwms2
pm01bwns1
pm01bwns2
165502
165572
brngsn02
148561
qcmtlbwms1
qcmtlbwps2
qcmtlbwps1
qcmtlbwms2
qcmtlbwas1
qcmtlbwns1
qcmtlbwns2
qcmtlbwesm1
authorization
absop
c3401
256qam
e1735
143798
commisioned
157914
157988
164353
w2187
unsuccessful
uneq
ulc
164532
springhurst
washroom
125395
125397
e1008
napan
4646
155545
123221
write
170580
111559
111555
##ressed
wnpgmb021ed
164735
a5005
a5011
##sdv02
170373
vulnerable
g1328
100867
100863
galvan
e5209
167408
[...]
